<pad>	0
<unk>	0
<s>	0
</s>	0
▁t	-0
▁a	-1
in	-2
he	-3
re	-4
on	-5
▁the	-6
er	-7
at	-8
en	-9
▁c	-10
▁s	-11
an	-12
▁o	-13
es	-14
it	-15
▁w	-16
or	-17
al	-18
is	-19
▁p	-20
▁b	-21
▁in	-22
▁f	-23
ic	-24
nd	-25
ed	-26
ing	-27
▁to	-28
▁m	-29
ar	-30
ion	-31
▁of	-32
ro	-33
▁d	-34
▁and	-35
ou	-36
ent	-37
le	-38
▁th	-39
st	-40
▁e	-41
▁h	-42
▁re	-43
om	-44
il	-45
▁n	-46
ve	-47
as	-48
ly	-49
▁A	-50
▁l	-51
▁g	-52
▁be	-53
ct	-54
ut	-55
▁is	-56
ation	-57
▁T	-58
ol	-59
▁that	-60
im	-61
se	-62
ce	-63
ver	-64
▁for	-65
ra	-66
ur	-67
▁de	-68
ot	-69
ment	-70
ld	-71
ri	-72
▁I	-73
▁on	-74
id	-75
et	-76
ow	-77
nt	-78
ill	-79
▁st	-80
▁it	-81
ch	-82
▁pro	-83
ad	-84
ig	-85
▁u	-86
ir	-87
ate	-88
ul	-89
▁con	-90
ers	-91
ore	-92
op	-93
est	-94
▁as	-95
ith	-96
▁The	-97
ity	-98
▁B	-99
▁S	-100
▁cou	-101
▁–	-102
▁wh	-103
▁su	-104
▁are	-105
ort	-106
▁al	-107
her	-108
ess	-109
▁ne	-110
ge	-111
th	-112
▁with	-113
ric	-114
▁C	-115
ies	-116
ab	-117
ay	-118
▁U	-119
▁E	-120
▁ex	-121
pe	-122
▁an	-123
ist	-124
ain	-125
res	-126
con	-127
▁com	-128
ter	-129
am	-130
us	-131
▁we	-132
ive	-133
▁ha	-134
▁not	-135
▁by	-136
if	-137
ke	-138
ial	-139
▁Af	-140
▁will	-141
▁wor	-142
ac	-143
pp	-144
▁se	-145
and	-146
ust	-147
▁count	-148
em	-149
▁have	-150
▁M	-151
▁y	-152
▁W	-153
▁has	-154
lo	-155
▁le	-156
conom	-157
▁r	-158
qu	-159
iv	-160
ould	-161
▁en	-162
▁v	-163
gh	-164
od	-165
um	-166
▁he	-167
▁pol	-168
▁sh	-169
▁im	-170
rom	-171
▁econom	-172
▁ch	-173
iz	-174
oc	-175
▁go	-176
ap	-177
▁F	-178
un	-179
ost	-180
▁Afric	-181
▁more	-182
ical	-183
▁at	-184
▁P	-185
ia	-186
▁from	-187
ure	-188
ant	-189
ome	-190
art	-191
ries	-192
▁their	-193
ans	-194
ions	-195
▁or	-196
▁2	-197
▁G	-198
▁“	-199
ast	-200
os	-201
▁imp	-202
▁countries	-203
ong	-204
uro	-205
ear	-206
mer	-207
▁inc	-208
▁N	-209
ff	-210
red	-211
el	-212
▁can	-213
row	-214
vel	-215
▁res	-216
▁US	-217
▁un	-218
igh	-219
▁its	-220
▁int	-221
▁ag	-222
▁But	-223
end	-224
ther	-225
du	-226
all	-227
▁In	-228
▁was	-229
▁20	-230
▁R	-231
ak	-232
ance	-233
▁ad	-234
able	-235
ru	-236
▁ab	-237
▁D	-238
▁cont	-239
▁than	-240
▁would	-241
cc	-242
ational	-243
ich	-244
ect	-245
▁year	-246
vern	-247
▁this	-248
anc	-249
reat	-250
▁world	-251
ult	-252
urope	-253
ud	-254
▁O	-255
▁j	-256
▁1	-257
▁which	-258
▁man	-259
ip	-260
▁they	-261
bal	-262
▁grow	-263
ous	-264
ations	-265
▁govern	-266
out	-267
▁Europe	-268
▁comp	-269
ary	-270
rou	-271
▁Ch	-272
▁pe	-273
pt	-274
▁Africa	-275
▁all	-276
ress	-277
ib	-278
ign	-279
▁dis	-280
ven	-281
▁H	-282
ard	-283
▁fin	-284
▁Th	-285
ated	-286
lobal	-287
velop	-288
▁whe	-289
▁rec	-290
▁fa	-291
ates	-292
lic	-293
▁part	-294
▁economic	-295
▁tra	-296
meric	-297
▁exp	-298
▁new	-299
ie	-300
og	-301
▁inv	-302
ments	-303
▁bec	-304
ms	-305
▁but	-306
ry	-307
ark	-308
▁do	-309
ike	-310
ack	-311
▁polit	-312
for	-313
ide	-314
ren	-315
one	-316
▁Americ	-317
▁pl	-318
▁me	-319
ction	-320
▁Chin	-321
▁J	-322
▁out	-323
ub	-324
ag	-325
ence	-326
▁global	-327
age	-328
▁need	-329
▁(	-330
▁Un	-331
ople	-332
▁lead	-333
▁one	-334
ors	-335
▁other	-336
▁so	-337
▁comm	-338
▁polic	-339
de	-340
▁people	-341
ose	-342
▁reg	-343
▁develop	-344
ris	-345
ight	-346
▁been	-347
ree	-348
are	-349
▁over	-350
▁inter	-351
▁dec	-352
pport	-353
ank	-354
ll	-355
▁ma	-356
ime	-357
ition	-358
▁growth	-359
▁L	-360
ire	-361
au	-362
▁K	-363
so	-364
ile	-365
ities	-366
reas	-367
ue	-368
ens	-369
nder	-370
ower	-371
ility	-372
ine	-373
▁invest	-374
ern	-375
our	-376
▁who	-377
▁also	-378
illion	-379
fic	-380
▁eff	-381
▁work	-382
ord	-383
▁like	-384
ally	-385
▁acc	-386
▁must	-387
▁China	-388
ts	-389
▁tr	-390
▁most	-391
▁per	-392
▁should	-393
▁As	-394
▁political	-395
▁po	-396
▁years	-397
▁could	-398
ited	-399
alth	-400
▁about	-401
▁only	-402
ere	-403
ian	-404
▁bet	-405
▁under	-406
ism	-407
ident	-408
▁mark	-409
▁pre	-410
ob	-411
▁some	-412
per	-413
eral	-414
▁many	-415
▁financ	-416
ew	-417
▁cons	-418
▁increas	-419
ble	-420
▁rem	-421
▁there	-422
ublic	-423
▁now	-424
▁up	-425
▁you	-426
very	-427
▁these	-428
ange	-429
▁Ind	-430
ative	-431
▁government	-432
▁cl	-433
▁even	-434
▁dem	-435
ep	-436
▁str	-437
▁such	-438
▁long	-439
uch	-440
▁no	-441
▁qu	-442
▁ris	-443
av	-444
▁sp	-445
amp	-446
▁em	-447
uc	-448
und	-449
ious	-450
▁were	-451
ces	-452
▁produ	-453
old	-454
▁It	-455
▁ar	-456
▁policy	-457
low	-458
lect	-459
ach	-460
▁contin	-461
ause	-462
▁te	-463
▁market	-464
▁tw	-465
▁ra	-466
▁cap	-467
▁intern	-468
▁soc	-469
▁his	-470
▁cur	-471
▁19	-472
▁ta	-473
ert	-474
▁sy	-475
form	-476
ough	-477
▁And	-478
▁far	-479
▁ind	-480
▁201	-481
ang	-482
ons	-483
00	-484
▁them	-485
ild	-486
▁app	-487
▁This	-488
ace	-489
ame	-490
▁power	-491
▁country	-492
ital	-493
▁African	-494
ov	-495
ade	-496
▁international	-497
rough	-498
▁k	-499
▁leaders	-500
▁co	-501
▁may	-502
▁ser	-503
ution	-504
we	-505
vers	-506
arly	-507
▁rel	-508
▁St	-509
▁if	-510
▁sc	-511
▁lar	-512
rit	-513
▁support	-514
cy	-515
stem	-516
ating	-517
resident	-518
▁financial	-519
ient	-520
▁what	-521
▁import	-522
▁cris	-523
ced	-524
gy	-525
▁into	-526
ng	-527
ory	-528
▁ac	-529
▁ro	-530
▁us	-531
▁inf	-532
cess	-533
olog	-534
▁public	-535
▁system	-536
▁time	-537
ish	-538
ount	-539
▁how	-540
ass	-541
ful	-542
▁any	-543
▁just	-544
iet	-545
▁ow	-546
▁For	-547
act	-548
▁proble	-549
pect	-550
▁when	-551
▁United	-552
▁America	-553
int	-554
hip	-555
ific	-556
▁rep	-557
bt	-558
▁ri	-559
▁way	-560
▁economy	-561
▁much	-562
▁trans	-563
▁ter	-564
ks	-565
imate	-566
▁att	-567
ization	-568
lp	-569
its	-570
ics	-571
▁help	-572
ind	-573
apan	-574
▁two	-575
▁prog	-576
▁health	-577
ood	-578
▁200	-579
▁gen	-580
▁recent	-581
ber	-582
get	-583
urn	-584
▁am	-585
rent	-586
▁act	-587
▁dif	-588
ives	-589
▁pos	-590
▁prov	-591
▁trade	-592
▁because	-593
▁had	-594
hed	-595
ise	-596
uss	-597
read	-598
▁Japan	-599
ual	-600
ruct	-601
▁those	-602
▁crisis	-603
.”	-604
▁Y	-605
ues	-606
▁remain	-607
lud	-608
▁fir	-609
▁war	-610
▁development	-611
chn	-612
ize	-613
ound	-614
ural	-615
▁less	-616
▁well	-617
stit	-618
ween	-619
ists	-620
▁fore	-621
iss	-622
▁change	-623
vent	-624
▁our	-625
ase	-626
allen	-627
▁$	-628
pec	-629
▁bank	-630
▁European	-631
uring	-632
▁examp	-633
▁between	-634
▁mod	-635
▁conf	-636
▁high	-637
now	-638
lear	-639
▁add	-640
▁great	-641
▁techn	-642
▁bot	-643
▁again	-644
ond	-645
▁fact	-646
▁young	-647
itt	-648
ject	-649
▁good	-650
▁make	-651
riv	-652
▁cent	-653
▁real	-654
orts	-655
▁end	-656
▁sol	-657
ible	-658
erest	-659
led	-660
▁EU	-661
▁become	-662
ove	-663
opul	-664
▁own	-665
▁example	-666
ene	-667
ite	-668
▁sec	-669
hen	-670
min	-671
▁cost	-672
▁fund	-673
▁current	-674
ump	-675
▁On	-676
▁billion	-677
ice	-678
▁des	-679
▁popul	-680
▁challen	-681
▁national	-682
ok	-683
▁off	-684
ption	-685
▁righ	-686
eration	-687
▁Is	-688
loy	-689
iness	-690
▁requ	-691
ration	-692
ail	-693
▁wom	-694
▁investment	-695
▁Wh	-696
ings	-697
ploy	-698
▁sim	-699
▁sur	-700
▁while	-701
▁important	-702
ices	-703
sel	-704
▁sub	-705
ially	-706
round	-707
▁appro	-708
▁commun	-709
man	-710
rib	-711
▁Al	-712
▁ed	-713
▁ext	-714
day	-715
▁ent	-716
utions	-717
ict	-718
ram	-719
▁where	-720
▁partic	-721
als	-722
▁interest	-723
ized	-724
▁American	-725
▁large	-726
▁adv	-727
▁ass	-728
▁both	-729
▁redu	-730
ten	-731
▁ob	-732
▁Russ	-733
▁resp	-734
▁impro	-735
ability	-736
usiness	-737
▁includ	-738
▁De	-739
▁effect	-740
▁technolog	-741
ese	-742
▁bo	-743
▁job	-744
▁educ	-745
gest	-746
ures	-747
▁col	-748
▁sign	-749
▁governments	-750
aking	-751
▁last	-752
▁seem	-753
▁result	-754
ved	-755
▁region	-756
xt	-757
ger	-758
les	-759
not	-760
ince	-761
uture	-762
▁capital	-763
▁Tr	-764
jor	-765
arch	-766
fore	-767
▁today	-768
▁economies	-769
aw	-770
ink	-771
ward	-772
▁ref	-773
▁know	-774
gan	-775
over	-776
ather	-777
ivers	-778
▁bene	-779
ater	-780
ready	-781
▁back	-782
▁debt	-783
▁disc	-784
ically	-785
▁future	-786
▁against	-787
▁through	-788
ty	-789
ilit	-790
▁made	-791
▁indust	-792
▁President	-793
eed	-794
key	-795
ting	-796
▁too	-797
▁first	-798
ily	-799
rat	-800
▁If	-801
▁cor	-802
▁dep	-803
▁pric	-804
▁social	-805
own	-806
fter	-807
iven	-808
▁est	-809
▁Se	-810
ergy	-811
▁already	-812
▁major	-813
▁strong	-814
▁business	-815
ges	-816
▁To	-817
▁sa	-818
▁set	-819
▁val	-820
▁product	-821
li	-822
omm	-823
less	-824
▁use	-825
▁women	-826
▁bu	-827
▁That	-828
▁sect	-829
▁child	-830
▁state	-831
ared	-832
ents	-833
ential	-834
ality	-835
▁West	-836
▁after	-837
pportun	-838
ning	-839
▁does	-840
▁serv	-841
▁every	-842
▁climate	-843
stain	-844
urity	-845
▁being	-846
▁short	-847
▁demand	-848
▁mon	-849
▁More	-850
▁conc	-851
▁prom	-852
▁benef	-853
▁markets	-854
▁sustain	-855
ron	-856
abor	-857
ract	-858
▁iss	-859
▁opportun	-860
uth	-861
▁def	-862
▁foreign	-863
▁Trump	-864
▁States	-865
ral	-866
▁lo	-867
▁Wor	-868
▁still	-869
DP	-870
cal	-871
▁cre	-872
▁euro	-873
▁tax	-874
ants	-875
ging	-876
rast	-877
ingly	-878
rim	-879
▁We	-880
hing	-881
▁equ	-882
▁see	-883
▁cred	-884
▁rese	-885
mental	-886
▁cannot	-887
▁es	-888
▁main	-889
▁likely	-890
▁op	-891
ians	-892
ieve	-893
iron	-894
▁bas	-895
▁fail	-896
▁often	-897
▁energy	-898
0%	-899
ays	-900
gin	-901
ined	-902
uman	-903
ience	-904
▁Afgh	-905
▁level	-906
▁instit	-907
▁3	-908
▁sm	-909
ccess	-910
▁same	-911
ending	-912
ertain	-913
▁problem	-914
▁dom	-915
other	-916
▁Bank	-917
▁emer	-918
▁take	-919
ft	-920
▁ret	-921
▁prot	-922
▁Russia	-923
▁strate	-924
▁million	-925
▁pat	-926
ivity	-927
▁diff	-928
▁Afghan	-929
▁consum	-930
der	-931
term	-932
▁elect	-933
▁compan	-934
▁resour	-935
ness	-936
ouse	-937
▁call	-938
▁dire	-939
▁hist	-940
▁might	-941
▁milit	-942
▁continent	-943
,”	-944
ied	-945
ves	-946
ably	-947
ring	-948
▁ann	-949
▁mem	-950
istan	-951
▁stand	-952
▁access	-953
ged	-954
ever	-955
▁aff	-956
▁inn	-957
▁With	-958
▁food	-959
▁stud	-960
▁defic	-961
▁particul	-962
▁education	-963
ars	-964
▁her	-965
ately	-966
▁rest	-967
▁World	-968
▁agree	-969
▁better	-970
ID	-971
ades	-972
outh	-973
▁few	-974
▁leg	-975
▁neg	-976
▁creat	-977
▁offic	-978
ployment	-979
eg	-980
▁Ger	-981
viron	-982
▁threat	-983
ving	-984
▁med	-985
ision	-986
▁India	-987
▁success	-988
cond	-989
hold	-990
▁hig	-991
▁lif	-992
▁pers	-993
▁priv	-994
ricult	-995
inc	-996
lus	-997
ling	-998
▁bel	-999
▁fam	-1000
▁put	-1001
ocrat	-1002
▁cour	-1003
▁past	-1004
▁exper	-1005
ructure	-1006
▁Indeed	-1007
ck	-1008
ered	-1009
▁arg	-1010
▁pot	-1011
▁next	-1012
▁quest	-1013
▁societ	-1014
▁ach	-1015
▁ens	-1016
ually	-1017
▁They	-1018
▁turn	-1019
▁military	-1020
iew	-1021
ros	-1022
▁At	-1023
oney	-1024
▁Int	-1025
▁move	-1026
▁efforts	-1027
▁without	-1028
▁imm	-1029
▁decl	-1030
▁states	-1031
▁problems	-1032
▁el	-1033
▁human	-1034
▁innov	-1035
▁needs	-1036
▁start	-1037
▁German	-1038
▁needed	-1039
▁5	-1040
ense	-1041
here	-1042
▁environ	-1043
▁security	-1044
▁including	-1045
rael	-1046
tern	-1047
▁land	-1048
▁rates	-1049
▁children	-1050
▁progress	-1051
ran	-1052
ines	-1053
▁ide	-1054
▁ins	-1055
▁three	-1056
▁Israel	-1057
▁approach	-1058
ah	-1059
cing	-1060
ivid	-1061
ocus	-1062
inist	-1063
ateral	-1064
▁decades	-1065
).	-1066
ute	-1067
▁my	-1068
ency	-1069
▁did	-1070
izing	-1071
ollow	-1072
▁farm	-1073
▁infl	-1074
▁gener	-1075
▁money	-1076
▁order	-1077
ilateral	-1078
▁address	-1079
▁process	-1080
com	-1081
ogn	-1082
▁He	-1083
▁ap	-1084
rial	-1085
uclear	-1086
▁Union	-1087
▁services	-1088
idd	-1089
ret	-1090
rop	-1091
ross	-1092
▁ine	-1093
▁low	-1094
iscal	-1095
▁care	-1096
▁There	-1097
▁focus	-1098
▁since	-1099
▁account	-1100
▁challenges	-1101
land	-1102
▁fac	-1103
▁hal	-1104
aving	-1105
ering	-1106
stand	-1107
▁supp	-1108
▁peace	-1109
▁around	-1110
▁another	-1111
▁Moreover	-1112
▁research	-1113
▁lib	-1114
▁pay	-1115
iving	-1116
▁pres	-1117
▁right	-1118
▁agricult	-1119
rem	-1120
ury	-1121
▁pur	-1122
▁risk	-1123
▁then	-1124
▁trad	-1125
lement	-1126
itional	-1127
▁before	-1128
▁follow	-1129
▁president	-1130
▁resources	-1131
▁ev	-1132
▁GDP	-1133
▁old	-1134
▁plan	-1135
▁rate	-1136
▁very	-1137
▁banks	-1138
▁labor	-1139
▁credit	-1140
pecially	-1141
▁policies	-1142
abl	-1143
por	-1144
self	-1145
▁mat	-1146
▁prof	-1147
▁simp	-1148
▁suff	-1149
▁fiscal	-1150
▁sector	-1151
▁Chinese	-1152
▁improve	-1153
▁companies	-1154
ror	-1155
▁Ab	-1156
ners	-1157
vere	-1158
▁sch	-1159
▁jobs	-1160
▁South	-1161
▁among	-1162
▁growing	-1163
▁private	-1164
▁signific	-1165
▁dist	-1166
▁poor	-1167
lection	-1168
▁contro	-1169
▁especially	-1170
aly	-1171
ued	-1172
▁One	-1173
▁tar	-1174
ficult	-1175
▁costs	-1176
▁compet	-1177
▁remains	-1178
▁difficult	-1179
iti	-1180
ner	-1181
oss	-1182
▁Re	-1183
▁UN	-1184
▁vi	-1185
most	-1186
▁hop	-1187
ances	-1188
▁East	-1189
▁crit	-1190
▁play	-1191
▁poss	-1192
▁reas	-1193
▁regul	-1194
▁course	-1195
▁higher	-1196
▁increase	-1197
),	-1198
▁6	-1199
▁Ob	-1200
rime	-1201
▁clo	-1202
▁key	-1203
▁loc	-1204
itive	-1205
▁case	-1206
▁find	-1207
▁hard	-1208
rastructure	-1209
▁significant	-1210
▁institutions	-1211
acy	-1212
mak	-1213
orm	-1214
ened	-1215
ides	-1216
road	-1217
▁lim	-1218
▁num	-1219
▁rev	-1220
▁vot	-1221
iddle	-1222
uthor	-1223
▁pros	-1224
▁role	-1225
▁model	-1226
▁action	-1227
▁expect	-1228
▁though	-1229
▁nuclear	-1230
▁population	-1231
ex	-1232
ick	-1233
ool	-1234
oti	-1235
▁opp	-1236
▁tal	-1237
▁const	-1238
▁Intern	-1239
▁create	-1240
▁Afghanistan	-1241
ix	-1242
ph	-1243
ama	-1244
aps	-1245
ata	-1246
ird	-1247
▁fe	-1248
ases	-1249
imes	-1250
osed	-1251
▁cle	-1252
anced	-1253
▁These	-1254
▁means	-1255
▁rather	-1256
▁continue	-1257
ages	-1258
▁get	-1259
▁best	-1260
▁down	-1261
▁form	-1262
makers	-1263
▁chang	-1264
▁clear	-1265
▁project	-1266
▁potential	-1267
air	-1268
▁Fr	-1269
cept	-1270
▁ful	-1271
▁Iran	-1272
▁half	-1273
▁show	-1274
▁view	-1275
▁point	-1276
▁negoti	-1277
▁Develop	-1278
▁require	-1279
▁benefits	-1280
▁infrastructure	-1281
rug	-1282
bers	-1283
ider	-1284
▁don	-1285
▁law	-1286
▁meas	-1287
▁treat	-1288
pid	-1289
▁So	-1290
eren	-1291
pite	-1292
reed	-1293
zone	-1294
▁199	-1295
▁beh	-1296
▁big	-1297
▁free	-1298
▁mult	-1299
▁weak	-1300
▁press	-1301
▁share	-1302
▁ensure	-1303
acc	-1304
ell	-1305
ork	-1306
ted	-1307
▁av	-1308
rain	-1309
rate	-1310
▁eng	-1311
▁run	-1312
▁she	-1313
vious	-1314
▁come	-1315
▁happ	-1316
▁establ	-1317
▁recogn	-1318
arm	-1319
erent	-1320
estic	-1321
ively	-1322
ention	-1323
itions	-1324
ording	-1325
urther	-1326
▁build	-1327
ibility	-1328
▁others	-1329
▁prices	-1330
▁rights	-1331
▁concern	-1332
▁protect	-1333
▁respons	-1334
▁relations	-1335
up	-1336
IDS	-1337
▁ur	-1338
▁car	-1339
▁When	-1340
▁disp	-1341
▁lack	-1342
ission	-1343
▁requi	-1344
▁seems	-1345
▁author	-1346
▁within	-1347
▁conflic	-1348
▁official	-1349
0,	-1350
reen	-1351
roup	-1352
▁non	-1353
▁cond	-1354
▁data	-1355
▁home	-1356
▁inde	-1357
▁spec	-1358
▁viol	-1359
icient	-1360
▁integ	-1361
▁least	-1362
▁organ	-1363
▁direct	-1364
▁reform	-1365
▁terror	-1366
▁Western	-1367
▁community	-1368
▁appe	-1369
▁inst	-1370
verage	-1371
▁never	-1372
ban	-1373
▁bl	-1374
▁War	-1375
▁ago	-1376
▁deb	-1377
▁meet	-1378
▁Germany	-1379
▁question	-1380
ath	-1381
akes	-1382
▁Dem	-1383
▁Yet	-1384
▁bal	-1385
▁par	-1386
▁ric	-1387
ining	-1388
ished	-1389
▁Comm	-1390
▁rise	-1391
▁group	-1392
▁greater	-1393
▁systems	-1394
▁productivity	-1395
ium	-1396
rab	-1397
▁By	-1398
▁er	-1399
▁gu	-1400
ased	-1401
ield	-1402
tain	-1403
▁dri	-1404
▁Obama	-1405
▁While	-1406
▁small	-1407
▁almost	-1408
▁during	-1409
▁whether	-1410
▁different	-1411
▁industrial	-1412
ug	-1413
▁4	-1414
ale	-1415
ends	-1416
▁cit	-1417
▁why	-1418
▁yet	-1419
▁coop	-1420
▁life	-1421
▁commit	-1422
▁toward	-1423
▁control	-1424
▁however	-1425
▁provide	-1426
▁increasingly	-1427
wh	-1428
ned	-1429
oll	-1430
oun	-1431
uel	-1432
cent	-1433
oint	-1434
reng	-1435
▁aid	-1436
▁eas	-1437
▁char	-1438
▁eurozone	-1439
▁developing	-1440
ush	-1441
duct	-1442
racy	-1443
▁Put	-1444
▁dev	-1445
▁vis	-1446
idence	-1447
▁local	-1448
▁society	-1449
▁workers	-1450
▁Development	-1451
▁ant	-1452
ittle	-1453
where	-1454
▁Arab	-1455
▁prop	-1456
▁surp	-1457
minist	-1458
▁force	-1459
▁initi	-1460
inister	-1461
▁comple	-1462
▁longer	-1463
▁streng	-1464
▁central	-1465
▁domestic	-1466
▁election	-1467
▁spending	-1468
▁leadership	-1469
ON	-1470
uf	-1471
ceed	-1472
ying	-1473
▁Tur	-1474
ators	-1475
ening	-1476
forms	-1477
▁pred	-1478
▁used	-1479
▁areas	-1480
▁bring	-1481
▁given	-1482
▁think	-1483
issions	-1484
▁income	-1485
▁achieve	-1486
▁certain	-1487
▁contrib	-1488
▁strateg	-1489
▁politics	-1490
▁increased	-1491
▁policymakers	-1492
▁sk	-1493
anda	-1494
▁cut	-1495
▁say	-1496
▁sug	-1497
▁mean	-1498
▁slow	-1499
▁step	-1500
▁unem	-1501
ession	-1502
▁allow	-1503
agement	-1504
▁across	-1505
▁common	-1506
▁inform	-1507
▁little	-1508
▁necess	-1509
▁return	-1510
▁Nations	-1511
▁serious	-1512
▁challenge	-1513
▁particularly	-1514
▁opportunities	-1515
20	-1516
ave	-1517
ivil	-1518
onal	-1519
▁Asia	-1520
▁Even	-1521
▁face	-1522
▁gain	-1523
▁citiz	-1524
▁enough	-1525
▁reason	-1526
▁liberal	-1527
▁technology	-1528
▁An	-1529
▁ca	-1530
▁ph	-1531
ards	-1532
yond	-1533
▁enc	-1534
▁tri	-1535
▁tru	-1536
verty	-1537
▁Brit	-1538
▁dest	-1539
▁hand	-1540
though	-1541
▁After	-1542
▁Putin	-1543
▁simil	-1544
▁school	-1545
▁second	-1546
▁poverty	-1547
▁administ	-1548
▁emerging	-1549
▁partners	-1550
▁sustainable	-1551
yn	-1552
haps	-1553
sequ	-1554
▁Rep	-1555
▁occ	-1556
▁pri	-1557
▁ren	-1558
▁tot	-1559
▁camp	-1560
▁hold	-1561
▁found	-1562
▁house	-1563
▁rapid	-1564
▁value	-1565
▁France	-1566
▁reduce	-1567
▁target	-1568
▁wealth	-1569
▁further	-1570
▁univers	-1571
▁regional	-1572
▁understand	-1573
ien	-1574
ipl	-1575
▁gr	-1576
ills	-1577
orth	-1578
oura	-1579
▁net	-1580
▁top	-1581
etary	-1582
ufact	-1583
selves	-1584
▁event	-1585
▁super	-1586
ination	-1587
▁histor	-1588
▁issues	-1589
▁itself	-1590
▁levels	-1591
▁modern	-1592
▁rising	-1593
▁suggest	-1594
▁opportunity	-1595
io	-1596
ead	-1597
ier	-1598
set	-1599
▁la	-1600
eria	-1601
ither	-1602
order	-1603
▁lear	-1604
ocratic	-1605
▁extrem	-1606
▁working	-1607
hes	-1608
king	-1609
lain	-1610
rams	-1611
▁led	-1612
▁rul	-1613
udget	-1614
▁oper	-1615
▁ways	-1616
atives	-1617
▁maintain	-1618
▁manufact	-1619
ai	-1620
ash	-1621
ior	-1622
▁fl	-1623
atic	-1624
▁Con	-1625
▁Pro	-1626
▁oil	-1627
▁comb	-1628
▁fast	-1629
▁fuel	-1630
▁mass	-1631
gether	-1632
▁civil	-1633
▁reach	-1634
▁water	-1635
olution	-1636
▁Global	-1637
▁deficit	-1638
▁reflect	-1639
▁together	-1640
▁generation	-1641
▁governance	-1642
▁technologies	-1643
▁7	-1644
▁8	-1645
000	-1646
ims	-1647
▁Sp	-1648
aign	-1649
reak	-1650
▁Nig	-1651
▁air	-1652
▁che	-1653
▁tem	-1654
▁AIDS	-1655
▁coll	-1656
▁broad	-1657
▁month	-1658
▁terms	-1659
ression	-1660
vention	-1661
▁attack	-1662
▁provid	-1663
▁individ	-1664
▁recently	-1665
▁agreement	-1666
erv	-1667
iod	-1668
ler	-1669
uge	-1670
▁bor	-1671
▁him	-1672
▁mar	-1673
anger	-1674
ently	-1675
ortun	-1676
▁ever	-1677
▁look	-1678
▁thus	-1679
▁total	-1680
illions	-1681
▁budget	-1682
▁number	-1683
▁reforms	-1684
▁Africans	-1685
▁campaign	-1686
▁citizens	-1687
▁developed	-1688
▁investments	-1689
ee	-1690
gn	-1691
te	-1692
raq	-1693
enda	-1694
▁All	-1695
acity	-1696
ature	-1697
▁Iraq	-1698
▁What	-1699
▁each	-1700
▁sour	-1701
resent	-1702
▁alone	-1703
▁begin	-1704
▁early	-1705
▁fight	-1706
▁lives	-1707
▁price	-1708
▁report	-1709
▁largest	-1710
▁programs	-1711
▁individual	-1712
ys	-1713
ake	-1714
▁$1	-1715
▁ke	-1716
▁pr	-1717
▁sl	-1718
▁Acc	-1719
▁dou	-1720
ledge	-1721
▁Kore	-1722
▁hope	-1723
ocracy	-1724
▁Turkey	-1725
ortunately	-1726
▁implement	-1727
▁environmental	-1728
oh	-1729
yp	-1730
▁Be	-1731
come	-1732
then	-1733
▁met	-1734
▁spe	-1735
▁unc	-1736
▁cult	-1737
▁fall	-1738
▁left	-1739
▁rich	-1740
▁pract	-1741
▁simply	-1742
▁century	-1743
▁encoura	-1744
▁finance	-1745
az	-1746
any	-1747
▁aw	-1748
rency	-1749
veral	-1750
▁able	-1751
▁deal	-1752
▁five	-1753
▁open	-1754
▁post	-1755
▁rece	-1756
ilities	-1757
▁struct	-1758
▁believe	-1759
▁similar	-1760
▁investors	-1761
▁innovation	-1762
▁production	-1763
▁unemployment	-1764
5%	-1765
pl	-1766
ins	-1767
▁Go	-1768
cies	-1769
ways	-1770
▁abs	-1771
▁ess	-1772
▁mob	-1773
arent	-1774
force	-1775
▁2008	-1776
▁Cong	-1777
▁Some	-1778
▁caus	-1779
▁fear	-1780
▁stat	-1781
▁want	-1782
uation	-1783
▁deter	-1784
▁funda	-1785
▁issue	-1786
▁place	-1787
▁called	-1788
▁entire	-1789
▁expand	-1790
▁impact	-1791
▁history	-1792
▁members	-1793
▁program	-1794
▁conflict	-1795
▁possible	-1796
▁strengthen	-1797
▁consumption	-1798
lam	-1799
ton	-1800
irst	-1801
ised	-1802
▁New	-1803
▁gra	-1804
▁tre	-1805
▁coal	-1806
▁shif	-1807
ederal	-1808
▁goods	-1809
▁prior	-1810
▁regard	-1811
▁created	-1812
▁effects	-1813
▁prevent	-1814
▁Japanese	-1815
▁Republic	-1816
▁requires	-1817
bon	-1818
pro	-1819
rag	-1820
ched	-1821
wide	-1822
▁198	-1823
▁fav	-1824
▁saf	-1825
▁Part	-1826
▁dise	-1827
icians	-1828
reedom	-1829
▁lower	-1830
▁effort	-1831
▁making	-1832
▁promot	-1833
▁saving	-1834
▁scient	-1835
▁advanced	-1836
▁consider	-1837
▁strategy	-1838
▁violence	-1839
▁themselves	-1840
▁communities	-1841
▁cooperation	-1842
mm	-1843
rid	-1844
▁Sy	-1845
like	-1846
ront	-1847
▁min	-1848
aring	-1849
iting	-1850
oment	-1851
▁deep	-1852
▁else	-1853
▁sure	-1854
▁vict	-1855
erence	-1856
▁Islam	-1857
▁invol	-1858
ruction	-1859
▁living	-1860
▁transp	-1861
▁values	-1862
▁consequ	-1863
▁establish	-1864
▁household	-1865
▁International	-1866
0.	-1867
lf	-1868
iqu	-1869
the	-1870
iagn	-1871
ntil	-1872
onse	-1873
▁Eth	-1874
▁age	-1875
▁emb	-1876
based	-1877
ified	-1878
ising	-1879
▁adop	-1880
▁full	-1881
▁head	-1882
▁cause	-1883
▁funds	-1884
▁times	-1885
▁whose	-1886
▁annual	-1887
▁beyond	-1888
▁corpor	-1889
▁danger	-1890
▁depend	-1891
▁family	-1892
▁former	-1893
▁period	-1894
igration	-1895
▁average	-1896
▁balance	-1897
▁despite	-1898
▁farmers	-1899
▁prosper	-1900
▁several	-1901
▁capacity	-1902
▁expected	-1903
▁measures	-1904
▁effective	-1905
▁inflation	-1906
▁interests	-1907
▁increasing	-1908
▁9	-1909
iop	-1910
put	-1911
▁1.	-1912
▁Of	-1913
imul	-1914
omet	-1915
▁cho	-1916
▁exc	-1917
aging	-1918
itted	-1919
▁four	-1920
▁prim	-1921
▁test	-1922
▁green	-1923
▁incent	-1924
▁particip	-1925
▁Americans	-1926
▁attention	-1927
▁knowledge	-1928
▁manufacturing	-1929
ean	-1930
ify	-1931
ock	-1932
raw	-1933
▁Cl	-1934
▁ru	-1935
onst	-1936
▁Fin	-1937
▁aut	-1938
▁cla	-1939
▁ear	-1940
▁mor	-1941
▁sit	-1942
▁ten	-1943
▁vul	-1944
▁fert	-1945
▁subs	-1946
▁assum	-1947
▁estim	-1948
▁Ethiop	-1949
▁moment	-1950
▁stimul	-1951
▁Nigeria	-1952
▁willing	-1953
▁response	-1954
▁According	-1955
▁solutions	-1956
▁employment	-1957
▁agriculture	-1958
▁agricultural	-1959
▁administration	-1960
ght	-1961
lev	-1962
lows	-1963
ming	-1964
ream	-1965
▁Ken	-1966
▁Sec	-1967
ients	-1968
ories	-1969
▁done	-1970
▁fram	-1971
▁based	-1972
▁belie	-1973
▁oppos	-1974
iveness	-1975
▁always	-1976
▁ability	-1977
▁leading	-1978
▁projects	-1979
▁relative	-1980
▁transform	-1981
▁particular	-1982
rep	-1983
urd	-1984
▁NE	-1985
aged	-1986
▁Pal	-1987
▁Pol	-1988
atory	-1989
▁Such	-1990
▁lost	-1991
▁said	-1992
▁Korea	-1993
▁boost	-1994
▁corru	-1995
▁inequ	-1996
▁influ	-1997
▁party	-1998
conomic	-1999
▁accept	-2000
▁demonst	-2001
▁freedom	-2002
▁perform	-2003
▁science	-2004
▁Minister	-2005
▁evidence	-2006
▁powerful	-2007
▁emissions	-2008
▁uncertain	-2009
▁successful	-2010
ls	-2011
oz	-2012
equ	-2013
▁Ag	-2014
ahar	-2015
cial	-2016
ored	-2017
rated	-2018
rench	-2019
▁2014	-2020
▁Fund	-2021
▁dram	-2022
▁live	-2023
▁stop	-2024
▁term	-2025
▁true	-2026
▁avail	-2027
▁becom	-2028
▁risks	-2029
▁sense	-2030
▁youth	-2031
▁borrow	-2032
▁skills	-2033
▁sovere	-2034
▁perhaps	-2035
▁predict	-2036
▁pressure	-2037
▁standards	-2038
▁environment	-2039
▁relationship	-2040
0’	-2041
ets	-2042
osp	-2043
,000	-2044
care	-2045
erve	-2046
nect	-2047
wise	-2048
▁mov	-2049
▁link	-2050
▁clean	-2051
▁close	-2052
▁makes	-2053
utional	-2054
▁Middle	-2055
▁Palest	-2056
▁affect	-2057
▁agenda	-2058
▁export	-2059
▁forces	-2060
▁vulner	-2061
iversity	-2062
▁Congress	-2063
▁deficits	-2064
▁trillion	-2065
▁financing	-2066
▁necessary	-2067
▁conditions	-2068
reg	-2069
▁Sh	-2070
▁ce	-2071
▁jo	-2072
ived	-2073
line	-2074
olar	-2075
▁NEW	-2076
▁dam	-2077
▁nar	-2078
arian	-2079
▁Syri	-2080
▁anti	-2081
▁deli	-2082
▁doll	-2083
▁drug	-2084
▁keep	-2085
▁weap	-2086
▁Alger	-2087
▁decis	-2088
▁favor	-2089
▁firms	-2090
▁legit	-2091
▁subst	-2092
▁third	-2093
▁trend	-2094
▁French	-2095
▁decade	-2096
▁constit	-2097
▁exports	-2098
▁largely	-2099
▁popular	-2100
▁respect	-2101
ification	-2102
by	-2103
lt	-2104
ya	-2105
cer	-2106
edi	-2107
pan	-2108
▁AI	-2109
adem	-2110
oday	-2111
pend	-2112
rodu	-2113
rong	-2114
▁dig	-2115
▁nor	-2116
ender	-2117
incip	-2118
▁purs	-2119
▁writ	-2120
▁break	-2121
▁media	-2122
▁framew	-2123
▁nearly	-2124
▁proper	-2125
▁severe	-2126
▁unlike	-2127
▁changes	-2128
▁extreme	-2129
▁funding	-2130
▁produce	-2131
▁bilateral	-2132
▁democracy	-2133
▁fundamental	-2134
▁traditional	-2135
dom	-2136
igr	-2137
▁Or	-2138
▁br	-2139
lood	-2140
side	-2141
▁emp	-2142
▁opt	-2143
arily	-2144
arter	-2145
ensus	-2146
overy	-2147
verse	-2148
▁Cent	-2149
▁conv	-2150
▁huge	-2151
▁kind	-2152
▁laun	-2153
▁once	-2154
▁word	-2155
change	-2156
ctions	-2157
ensive	-2158
inated	-2159
itable	-2160
ressed	-2161
rought	-2162
▁Today	-2163
▁reven	-2164
▁rules	-2165
▁somet	-2166
▁groups	-2167
▁taking	-2168
izations	-2169
▁princip	-2170
▁Ethiopia	-2171
▁currency	-2172
▁decision	-2173
▁experien	-2174
▁monetary	-2175
▁position	-2176
▁previous	-2177
▁stronger	-2178
▁represent	-2179
▁commitment	-2180
▁information	-2181
OR	-2182
go	-2183
ze	-2184
ape	-2185
urs	-2186
▁Ad	-2187
▁cy	-2188
pped	-2189
▁Res	-2190
▁agg	-2191
▁cat	-2192
▁day	-2193
▁und	-2194
ences	-2195
while	-2196
▁mind	-2197
▁news	-2198
▁prep	-2199
▁prob	-2200
▁ident	-2201
▁owing	-2202
▁middle	-2203
▁things	-2204
▁banking	-2205
▁benefit	-2206
▁complex	-2207
▁explain	-2208
▁introdu	-2209
▁quality	-2210
▁positive	-2211
▁students	-2212
▁elections	-2213
▁strategic	-2214
ne	-2215
els	-2216
oid	-2217
imed	-2218
▁bad	-2219
▁suc	-2220
▁win	-2221
comes	-2222
▁2015	-2223
▁clos	-2224
ocrats	-2225
retary	-2226
▁Italy	-2227
▁achie	-2228
▁ideas	-2229
▁older	-2230
▁quick	-2231
▁behind	-2232
▁coming	-2233
▁member	-2234
▁regime	-2235
▁collect	-2236
▁massive	-2237
▁nothing	-2238
▁succeed	-2239
▁weapons	-2240
▁Although	-2241
▁industry	-2242
▁outcomes	-2243
▁solution	-2244
▁currently	-2245
▁officials	-2246
▁stability	-2247
▁terrorism	-2248
▁experience	-2249
▁politicians	-2250
▁multilateral	-2251
1,	-2252
CD	-2253
cl	-2254
cil	-2255
omb	-2256
▁Ar	-2257
▁EC	-2258
ired	-2259
ogra	-2260
vest	-2261
▁Bar	-2262
▁How	-2263
▁del	-2264
▁ill	-2265
▁var	-2266
alled	-2267
ember	-2268
ended	-2269
istic	-2270
lying	-2271
▁Cons	-2272
▁argu	-2273
▁sett	-2274
▁soon	-2275
lation	-2276
ustain	-2277
▁death	-2278
▁twent	-2279
imately	-2280
▁altern	-2281
▁amount	-2282
▁design	-2283
▁matter	-2284
▁voters	-2285
▁compared	-2286
▁improved	-2287
▁prosperity	-2288
of	-2289
to	-2290
▁Le	-2291
aken	-2292
alib	-2293
ighb	-2294
iter	-2295
mark	-2296
ured	-2297
▁Now	-2298
▁fri	-2299
▁ori	-2300
▁Gree	-2301
▁prec	-2302
▁rule	-2303
▁activ	-2304
▁study	-2305
▁really	-2306
▁subsid	-2307
▁surpris	-2308
▁millions	-2309
▁movement	-2310
▁integration	-2311
be	-2312
mb	-2313
rad	-2314
▁Rw	-2315
▁sw	-2316
ctor	-2317
hers	-2318
ynam	-2319
▁Mon	-2320
▁ask	-2321
▁eth	-2322
▁rat	-2323
▁vol	-2324
Sahar	-2325
▁2017	-2326
▁Many	-2327
▁goal	-2328
▁stri	-2329
▁wide	-2330
ograph	-2331
ortion	-2332
▁First	-2333
▁began	-2334
▁comes	-2335
▁drive	-2336
▁indic	-2337
▁truth	-2338
▁urban	-2339
Saharan	-2340
istance	-2341
▁afford	-2342
▁attract	-2343
▁decline	-2344
▁obvious	-2345
▁sectors	-2346
▁Palestin	-2347
▁creation	-2348
▁products	-2349
▁recession	-2350
▁additional	-2351
▁structural	-2352
▁authorities	-2353
▁consequences	-2354
▁organizations	-2355
▁responsibility	-2356
oks	-2357
use	-2358
ival	-2359
just	-2360
rely	-2361
uted	-2362
▁Mus	-2363
▁Sim	-2364
▁bar	-2365
▁cru	-2366
▁ign	-2367
▁san	-2368
onald	-2369
▁2000	-2370
▁boom	-2371
▁bord	-2372
▁mess	-2373
▁sing	-2374
aliban	-2375
iation	-2376
income	-2377
ipolar	-2378
▁North	-2379
▁Prime	-2380
▁class	-2381
▁dynam	-2382
▁exist	-2383
▁poore	-2384
▁relig	-2385
▁resol	-2386
▁wrong	-2387
▁Rwanda	-2388
▁debate	-2389
▁failed	-2390
▁leader	-2391
▁Taliban	-2392
▁discuss	-2393
▁special	-2394
▁electric	-2395
▁majority	-2396
▁Secretary	-2397
fortunately	-2398
▁management	-2399
▁transition	-2400
DB	-2401
ik	-2402
ox	-2403
sw	-2404
agn	-2405
erb	-2406
ozy	-2407
down	-2408
head	-2409
▁May	-2410
▁amb	-2411
▁nat	-2412
▁ult	-2413
aster	-2414
iplom	-2415
owers	-2416
rying	-2417
▁jour	-2418
▁loss	-2419
▁name	-2420
▁rein	-2421
▁repl	-2422
▁vacc	-2423
arkozy	-2424
▁Spain	-2425
▁above	-2426
▁solar	-2427
▁Indian	-2428
▁critic	-2429
▁indeed	-2430
▁neighb	-2431
▁output	-2432
▁source	-2433
▁Russian	-2434
▁counter	-2435
▁Internet	-2436
▁disorder	-2437
▁substant	-2438
▁Democrats	-2439
▁essential	-2440
▁worldwide	-2441
▁agreements	-2442
▁industries	-2443
▁performance	-2444
TO	-2445
ols	-2446
val	-2447
▁2.	-2448
aced	-2449
empt	-2450
hest	-2451
know	-2452
lies	-2453
rict	-2454
ters	-2455
▁197	-2456
▁Abe	-2457
▁Per	-2458
▁lat	-2459
light	-2460
oviet	-2461
▁Like	-2462
▁Mean	-2463
▁feel	-2464
▁give	-2465
▁path	-2466
ternal	-2467
▁Syria	-2468
▁analy	-2469
▁argue	-2470
▁divid	-2471
▁famil	-2472
▁gains	-2473
▁until	-2474
account	-2475
▁Second	-2476
▁academ	-2477
▁Britain	-2478
▁Sarkozy	-2479
▁Europeans	-2480
▁Meanwhile	-2481
▁situation	-2482
▁societies	-2483
▁sovereign	-2484
▁incentives	-2485
▁negotiations	-2486
ma	-2487
cul	-2488
fer	-2489
het	-2490
icy	-2491
iff	-2492
lia	-2493
rel	-2494
▁$2	-2495
▁NA	-2496
▁Sw	-2497
crib	-2498
gypt	-2499
hood	-2500
rade	-2501
rugg	-2502
rust	-2503
▁ECB	-2504
▁Lib	-2505
▁Sub	-2506
▁hun	-2507
▁obs	-2508
▁red	-2509
▁King	-2510
▁Musl	-2511
▁crim	-2512
▁held	-2513
▁opin	-2514
▁poll	-2515
▁seen	-2516
▁self	-2517
▁surv	-2518
eneral	-2519
lusion	-2520
▁Egypt	-2521
▁along	-2522
▁cheap	-2523
▁doing	-2524
▁extra	-2525
▁field	-2526
▁grand	-2527
▁imper	-2528
▁later	-2529
▁renew	-2530
▁woman	-2531
ception	-2532
▁Soviet	-2533
▁crises	-2534
▁highly	-2535
▁immedi	-2536
▁object	-2537
▁origin	-2538
▁powers	-2539
▁strugg	-2540
▁supply	-2541
▁Algeria	-2542
▁include	-2543
▁reality	-2544
▁regions	-2545
▁respond	-2546
▁results	-2547
▁contrast	-2548
▁prospect	-2549
ustainable	-2550
▁elsewhere	-2551
▁framework	-2552
▁businesses	-2553
▁corruption	-2554
▁inequality	-2555
▁initiative	-2556
▁Unfortunately	-2557
IN	-2558
app	-2559
auc	-2560
gal	-2561
hib	-2562
ony	-2563
▁Ge	-2564
▁Ug	-2565
exic	-2566
ille	-2567
ises	-2568
ites	-2569
lock	-2570
osis	-2571
part	-2572
rist	-2573
work	-2574
▁Fed	-2575
▁adm	-2576
▁deg	-2577
▁den	-2578
▁fix	-2579
▁gir	-2580
▁urg	-2581
inary	-2582
ustom	-2583
▁answ	-2584
▁city	-2585
▁pass	-2586
▁save	-2587
Americ	-2588
ension	-2589
espite	-2590
making	-2591
ounced	-2592
▁cases	-2593
▁enter	-2594
▁goals	-2595
▁imbal	-2596
▁worse	-2597
▁advant	-2598
▁carbon	-2599
▁diplom	-2600
▁donors	-2601
▁events	-2602
▁single	-2603
▁borders	-2604
▁clearly	-2605
▁deliver	-2606
▁helping	-2607
▁legitim	-2608
▁limited	-2609
▁parties	-2610
▁primary	-2611
▁seeking	-2612
▁competit	-2613
▁exchange	-2614
▁probably	-2615
▁reducing	-2616
▁stimulus	-2617
▁available	-2618
▁partnership	-2619
oy	-2620
ORK	-2621
aid	-2622
att	-2623
aud	-2624
fin	-2625
han	-2626
ots	-2627
▁18	-2628
▁No	-2629
▁di	-2630
▁ve	-2631
fall	-2632
itud	-2633
omen	-2634
utes	-2635
▁Net	-2636
▁Pak	-2637
▁era	-2638
▁fem	-2639
▁mer	-2640
▁mot	-2641
celer	-2642
iated	-2643
▁Bush	-2644
▁Only	-2645
▁YORK	-2646
▁hous	-2647
▁inev	-2648
▁mand	-2649
▁miss	-2650
▁mist	-2651
▁repe	-2652
▁trou	-2653
called	-2654
▁Mexic	-2655
▁Other	-2656
▁Party	-2657
▁behav	-2658
▁diagn	-2659
▁journ	-2660
▁parts	-2661
▁shift	-2662
▁sound	-2663
▁taken	-2664
▁whole	-2665
▁words	-2666
erences	-2667
igrants	-2668
itarian	-2669
unction	-2670
▁argued	-2671
▁employ	-2672
▁excess	-2673
▁forced	-2674
▁ground	-2675
▁having	-2676
▁helped	-2677
▁vision	-2678
▁British	-2679
▁disease	-2680
▁failure	-2681
▁federal	-2682
▁protest	-2683
▁Pakistan	-2684
▁determin	-2685
▁independ	-2686
▁beginning	-2687
▁direction	-2688
▁Commission	-2689
▁sufficient	-2690
▁vulnerable	-2691
▁significantly	-2692
%,	-2693
50	-2694
CA	-2695
-20	-2696
gor	-2697
lin	-2698
loc	-2699
▁$3	-2700
▁II	-2701
▁ut	-2702
mber	-2703
requ	-2704
▁Can	-2705
▁Not	-2706
▁Par	-2707
▁art	-2708
▁pan	-2709
▁six	-2710
▁typ	-2711
ously	-2712
thing	-2713
▁Most	-2714
▁bond	-2715
▁list	-2716
▁norm	-2717
▁seed	-2718
▁seek	-2719
ashing	-2720
istics	-2721
lusive	-2722
rative	-2723
▁House	-2724
▁Since	-2725
▁basis	-2726
▁enorm	-2727
▁flows	-2728
▁loans	-2729
▁purch	-2730
▁rural	-2731
▁sides	-2732
▁thing	-2733
liament	-2734
ptember	-2735
▁chance	-2736
atically	-2737
entially	-2738
▁Central	-2739
▁Despite	-2740
▁attacks	-2741
▁digital	-2742
▁forward	-2743
▁meaning	-2744
▁cultural	-2745
▁families	-2746
▁patients	-2747
▁according	-2748
▁certainly	-2749
▁continues	-2750
▁corporate	-2751
▁fertility	-2752
▁increases	-2753
▁questions	-2754
▁historical	-2755
▁opposition	-2756
▁electricity	-2757
▁globalization	-2758
MF	-2759
bi	-2760
ev	-2761
ees	-2762
enn	-2763
off	-2764
umm	-2765
▁Am	-2766
▁En	-2767
ints	-2768
osov	-2769
uing	-2770
▁196	-2771
▁Ham	-2772
▁IMF	-2773
▁bod	-2774
▁fig	-2775
▁let	-2776
▁men	-2777
▁mis	-2778
▁mut	-2779
▁won	-2780
erate	-2781
lling	-2782
oring	-2783
osing	-2784
▁2013	-2785
▁away	-2786
▁cand	-2787
▁frag	-2788
▁late	-2789
▁mort	-2790
▁side	-2791
ancing	-2792
arents	-2793
▁Kosov	-2794
▁State	-2795
▁avoid	-2796
▁basic	-2797
▁below	-2798
▁going	-2799
▁heart	-2800
▁mater	-2801
▁moral	-2802
▁occur	-2803
▁rough	-2804
▁scale	-2805
▁story	-2806
▁Uganda	-2807
▁either	-2808
▁gender	-2809
▁recomm	-2810
▁secure	-2811
fficient	-2812
ological	-2813
▁Kingdom	-2814
▁bipolar	-2815
▁compens	-2816
▁factors	-2817
▁natural	-2818
▁present	-2819
▁quickly	-2820
▁receive	-2821
▁reduced	-2822
abilities	-2823
▁becoming	-2824
▁behavior	-2825
▁enormous	-2826
▁recovery	-2827
▁thinking	-2828
▁September	-2829
▁committed	-2830
▁continued	-2831
▁decisions	-2832
▁recognize	-2833
▁transport	-2834
▁established	-2835
▁technological	-2836
5,	-2837
ask	-2838
elt	-2839
hem	-2840
ohn	-2841
xim	-2842
▁Ma	-2843
▁ge	-2844
airs	-2845
ator	-2846
chan	-2847
ided	-2848
lier	-2849
▁arm	-2850
▁cir	-2851
▁div	-2852
▁gas	-2853
▁mid	-2854
▁pus	-2855
▁sav	-2856
▁uns	-2857
third	-2858
▁2016	-2859
▁From	-2860
▁John	-2861
▁fair	-2862
▁heav	-2863
▁kill	-2864
▁line	-2865
▁summ	-2866
istent	-2867
▁Given	-2868
▁Simil	-2869
▁coord	-2870
▁domin	-2871
▁known	-2872
▁mobil	-2873
ressive	-2874
▁Commun	-2875
▁Donald	-2876
▁accord	-2877
▁became	-2878
▁candid	-2879
▁custom	-2880
▁damage	-2881
▁larger	-2882
▁record	-2883
▁seemed	-2884
▁spread	-2885
ribution	-2886
▁connect	-2887
▁general	-2888
▁warming	-2889
▁building	-2890
▁collabor	-2891
▁concerns	-2892
▁external	-2893
▁material	-2894
▁training	-2895
▁unlikely	-2896
▁influence	-2897
▁practices	-2898
▁treatment	-2899
▁democratic	-2900
▁economists	-2901
▁everywhere	-2902
▁households	-2903
▁regulatory	-2904
▁scientific	-2905
▁ultimately	-2906
▁initiatives	-2907
-2	-2908
2,	-2909
6%	-2910
ec	-2911
sh	-2912
ina	-2913
irt	-2914
lif	-2915
rew	-2916
tom	-2917
ubl	-2918
umb	-2919
▁HI	-2920
▁My	-2921
▁Tw	-2922
iety	-2923
phas	-2924
used	-2925
▁Com	-2926
▁rad	-2927
▁unp	-2928
▁wee	-2929
ached	-2930
ights	-2931
iring	-2932
ought	-2933
▁Geor	-2934
▁batt	-2935
▁harm	-2936
▁idea	-2937
▁pain	-2938
▁took	-2939
aching	-2940
rained	-2941
sector	-2942
▁Asian	-2943
▁Organ	-2944
▁doubt	-2945
▁offer	-2946
▁relev	-2947
▁shows	-2948
▁vital	-2949
▁yield	-2950
▁Barack	-2951
▁Christ	-2952
▁emphas	-2953
▁imposs	-2954
▁lesson	-2955
▁months	-2956
▁person	-2957
▁planet	-2958
▁prohib	-2959
▁simple	-2960
▁widely	-2961
▁acceler	-2962
▁biggest	-2963
▁comprom	-2964
▁focused	-2965
▁imports	-2966
▁meeting	-2967
▁poorest	-2968
▁rapidly	-2969
▁surplus	-2970
▁thought	-2971
▁consumer	-2972
▁creating	-2973
▁greatest	-2974
▁constrain	-2975
▁Democratic	-2976
▁introduced	-2977
▁revolution	-2978
▁alternative	-2979
▁effectively	-2980
1%	-2981
7,	-2982
DG	-2983
mp	-2984
cle	-2985
ety	-2986
hel	-2987
ope	-2988
orn	-2989
pol	-2990
rec	-2991
sis	-2992
▁Su	-2993
abil	-2994
aled	-2995
ique	-2996
rene	-2997
rest	-2998
ried	-2999
vail	-3000
▁Mal	-3001
▁mal	-3002
▁ste	-3003
acter	-3004
▁2009	-3005
▁Ghan	-3006
▁easy	-3007
▁enab	-3008
▁lose	-3009
▁mach	-3010
▁pack	-3011
▁publ	-3012
▁reve	-3013
gorith	-3014
onents	-3015
▁Great	-3016
▁adequ	-3017
▁advoc	-3018
▁ahead	-3019
▁assoc	-3020
▁black	-3021
▁emerg	-3022
▁explo	-3023
▁flood	-3024
▁frequ	-3025
▁limit	-3026
▁liter	-3027
▁plans	-3028
▁raise	-3029
▁resil	-3030
▁serve	-3031
▁talks	-3032
▁using	-3033
conduct	-3034
ication	-3035
▁cancer	-3036
▁commod	-3037
▁forest	-3038
▁hunger	-3039
▁partly	-3040
▁police	-3041
▁shared	-3042
▁status	-3043
▁appears	-3044
▁crucial	-3045
▁discipl	-3046
▁discrim	-3047
▁promise	-3048
▁victory	-3049
▁actually	-3050
▁personal	-3051
▁priority	-3052
▁required	-3053
▁revenues	-3054
▁undermin	-3055
▁consumers	-3056
▁estimated	-3057
▁improving	-3058
▁providing	-3059
▁collective	-3060
▁impossible	-3061
▁legitimacy	-3062
▁Palestinian	-3063
▁Organization	-3064
5.	-3065
AC	-3066
aj	-3067
sp	-3068
uk	-3069
den	-3070
ext	-3071
leb	-3072
pet	-3073
ung	-3074
▁Ex	-3075
▁Sc	-3076
▁cr	-3077
▁ir	-3078
hens	-3079
lled	-3080
rary	-3081
▁203	-3082
▁Jew	-3083
▁Med	-3084
▁log	-3085
▁rob	-3086
antic	-3087
arant	-3088
fully	-3089
▁Coun	-3090
▁NATO	-3091
▁bomb	-3092
▁crop	-3093
▁insp	-3094
▁tend	-3095
▁wast	-3096
▁Ghana	-3097
▁Their	-3098
▁equal	-3099
▁immun	-3100
▁learn	-3101
▁legis	-3102
▁recon	-3103
▁solid	-3104
▁union	-3105
ospital	-3106
reprene	-3107
▁Greece	-3108
▁Kosovo	-3109
▁expans	-3110
▁factor	-3111
▁margin	-3112
▁mechan	-3113
▁models	-3114
▁moving	-3115
▁mutual	-3116
▁territ	-3117
ographic	-3118
▁Finally	-3119
▁Islamic	-3120
▁company	-3121
▁conserv	-3122
▁describ	-3123
▁dynamic	-3124
▁guarant	-3125
▁justice	-3126
▁matters	-3127
▁opinion	-3128
▁returns	-3129
▁roughly	-3130
▁Economic	-3131
▁directly	-3132
▁everyone	-3133
▁generate	-3134
▁advantage	-3135
▁character	-3136
▁something	-3137
▁therefore	-3138
▁University	-3139
▁dramatically	-3140
▁universities	-3141
DGs	-3142
aff	-3143
arc	-3144
ari	-3145
bed	-3146
irm	-3147
oth	-3148
sec	-3149
▁CA	-3150
grow	-3151
sets	-3152
vert	-3153
year	-3154
▁Bra	-3155
▁His	-3156
▁Jun	-3157
▁arr	-3158
▁bro	-3159
▁cal	-3160
iency	-3161
thern	-3162
uster	-3163
▁Last	-3164
▁acqu	-3165
▁burd	-3166
▁game	-3167
▁read	-3168
▁soft	-3169
▁vote	-3170
illenn	-3171
market	-3172
riving	-3173
▁aimed	-3174
▁celeb	-3175
▁chain	-3176
▁debts	-3177
▁fully	-3178
▁insur	-3179
▁joint	-3180
▁meant	-3181
▁parad	-3182
▁steps	-3183
▁surve	-3184
▁visit	-3185
▁wants	-3186
outhern	-3187
▁Mexico	-3188
▁allies	-3189
▁answer	-3190
▁caused	-3191
▁center	-3192
▁choice	-3193
▁engine	-3194
▁faster	-3195
▁happen	-3196
▁points	-3197
▁propos	-3198
▁tempor	-3199
▁Council	-3200
▁Without	-3201
▁adopted	-3202
▁arrange	-3203
▁friends	-3204
▁prevail	-3205
▁studies	-3206
▁critical	-3207
▁followed	-3208
▁resource	-3209
▁supposed	-3210
▁authority	-3211
▁encourage	-3212
▁expansion	-3213
▁following	-3214
▁migration	-3215
▁pollution	-3216
▁religious	-3217
▁sustained	-3218
▁entreprene	-3219
▁importance	-3220
▁profession	-3221
▁strategies	-3222
▁Republicans	-3223
▁uncertainty	-3224
▁construction	-3225
▁presidential	-3226
▁superconduct	-3227
▁liberalization	-3228
▁competitiveness	-3229
-1	-3230
GE	-3231
fe	-3232
ny	-3233
RID	-3234
car	-3235
lex	-3236
ops	-3237
zil	-3238
▁Uk	-3239
angu	-3240
aria	-3241
ieth	-3242
izes	-3243
mine	-3244
olid	-3245
orks	-3246
▁50%	-3247
▁Bur	-3248
▁Our	-3249
▁ban	-3250
▁jud	-3251
▁wat	-3252
aries	-3253
minbi	-3254
olars	-3255
ondon	-3256
▁1990	-3257
▁Conf	-3258
▁draw	-3259
▁join	-3260
▁push	-3261
▁race	-3262
▁safe	-3263
▁spur	-3264
▁talk	-3265
▁vast	-3266
cedent	-3267
ellect	-3268
▁Trade	-3269
▁claim	-3270
▁ended	-3271
▁gradu	-3272
▁incom	-3273
▁light	-3274
▁maxim	-3275
▁minim	-3276
▁opium	-3277
▁seven	-3278
▁taxes	-3279
▁tools	-3280
▁Health	-3281
▁London	-3282
▁belief	-3283
▁cities	-3284
▁comput	-3285
▁dollar	-3286
▁enable	-3287
▁merely	-3288
▁travel	-3289
▁useful	-3290
usterity	-3291
▁contain	-3292
▁demands	-3293
▁facilit	-3294
▁leaving	-3295
▁lessons	-3296
▁neither	-3297
▁outside	-3298
▁reached	-3299
▁reasons	-3300
▁targets	-3301
▁turning	-3302
▁algorith	-3303
▁analysis	-3304
▁hospital	-3305
▁minister	-3306
▁profound	-3307
▁provided	-3308
▁relevant	-3309
▁suggests	-3310
▁conflicts	-3311
▁economics	-3312
▁promoting	-3313
▁technical	-3314
▁undermine	-3315
▁inevitable	-3316
▁protection	-3317
▁throughout	-3318
▁individuals	-3319
▁responsible	-3320
▁developments	-3321
▁institutional	-3322
▁participation	-3323
2%	-3324
3%	-3325
apt	-3326
arp	-3327
ief	-3328
ilt	-3329
unt	-3330
way	-3331
zer	-3332
▁30	-3333
▁Ac	-3334
▁Pe	-3335
▁ep	-3336
aves	-3337
edly	-3338
inal	-3339
lder	-3340
look	-3341
▁sex	-3342
▁sil	-3343
▁tro	-3344
asion	-3345
aught	-3346
erves	-3347
itter	-3348
level	-3349
ronic	-3350
uries	-3351
▁area	-3352
▁came	-3353
▁obst	-3354
▁told	-3355
▁trip	-3356
▁vers	-3357
▁virt	-3358
action	-3359
encies	-3360
herent	-3361
ousand	-3362
rehens	-3363
▁Kenya	-3364
▁deval	-3365
▁embra	-3366
▁forms	-3367
▁hopes	-3368
▁legal	-3369
▁minor	-3370
▁solve	-3371
▁space	-3372
▁trust	-3373
▁Brazil	-3374
▁Govern	-3375
▁agreed	-3376
▁facing	-3377
▁giving	-3378
▁nation	-3379
▁summit	-3380
▁talent	-3381
▁temper	-3382
economic	-3383
▁General	-3384
▁appoint	-3385
▁attempt	-3386
▁drought	-3387
▁highest	-3388
▁housing	-3389
▁measure	-3390
▁offered	-3391
▁overall	-3392
▁precise	-3393
▁promote	-3394
▁running	-3395
▁service	-3396
ashington	-3397
▁Monetary	-3398
▁changing	-3399
▁confront	-3400
▁diseases	-3401
▁launched	-3402
▁reflects	-3403
▁remained	-3404
▁renminbi	-3405
▁Similarly	-3406
▁austerity	-3407
▁consensus	-3408
▁estimates	-3409
▁immediate	-3410
▁intellect	-3411
▁prospects	-3412
▁sanctions	-3413
▁suffering	-3414
▁assistance	-3415
▁confidence	-3416
▁engagement	-3417
▁Fortunately	-3418
▁discrimination	-3419
4%	-3420
4,	-3421
AR	-3422
ER	-3423
ING	-3424
TON	-3425
ada	-3426
ded	-3427
gic	-3428
ira	-3429
lan	-3430
oph	-3431
pay	-3432
pri	-3433
war	-3434
aces	-3435
ager	-3436
ague	-3437
ania	-3438
arth	-3439
back	-3440
fect	-3441
hern	-3442
iles	-3443
imin	-3444
ison	-3445
more	-3446
pris	-3447
rect	-3448
rupt	-3449
tail	-3450
with	-3451
▁Ber	-3452
▁Dep	-3453
▁Ire	-3454
▁Mar	-3455
▁hit	-3456
aling	-3457
count	-3458
ellig	-3459
iment	-3460
ittee	-3461
ology	-3462
ossil	-3463
rison	-3464
▁Cold	-3465
▁Dece	-3466
▁Inst	-3467
▁Prog	-3468
▁Saud	-3469
▁Summ	-3470
▁core	-3471
▁exec	-3472
▁host	-3473
▁purp	-3474
▁rain	-3475
▁road	-3476
▁upon	-3477
▁vill	-3478
itical	-3479
▁Found	-3480
▁autom	-3481
▁board	-3482
▁colle	-3483
▁eight	-3484
▁persu	-3485
▁sharp	-3486
▁spend	-3487
▁withd	-3488
▁works	-3489
▁worst	-3490
holders	-3491
through	-3492
ulation	-3493
▁bottom	-3494
▁devast	-3495
▁divers	-3496
▁engage	-3497
▁latest	-3498
▁plants	-3499
▁remark	-3500
▁tariff	-3501
▁Ireland	-3502
▁advance	-3503
▁dollars	-3504
▁equally	-3505
▁finally	-3506
▁radical	-3507
▁sources	-3508
▁academic	-3509
▁existing	-3510
▁repeated	-3511
▁restrict	-3512
▁thousand	-3513
▁vaccines	-3514
▁announced	-3515
▁twentieth	-3516
▁universal	-3517
▁eventually	-3518
▁productive	-3519
▁relatively	-3520
▁competition	-3521
▁destruction	-3522
▁independent	-3523
▁recognition	-3524
▁accountability	-3525
▁sustainability	-3526
AS	-3527
Af	-3528
ES	-3529
ax	-3530
DON	-3531
eng	-3532
kes	-3533
men	-3534
och	-3535
oiz	-3536
umi	-3537
▁10	-3538
▁15	-3539
▁Bo	-3540
▁Ke	-3541
▁UK	-3542
▁gl	-3543
▁hy	-3544
▁ty	-3545
aval	-3546
cape	-3547
enth	-3548
ethe	-3549
icip	-3550
inet	-3551
kept	-3552
onom	-3553
opol	-3554
whel	-3555
▁194	-3556
▁Jan	-3557
▁Kar	-3558
▁LDP	-3559
▁LON	-3560
▁Non	-3561
▁Sch	-3562
▁alt	-3563
▁bri	-3564
▁buy	-3565
▁enh	-3566
▁gap	-3567
▁har	-3568
▁reb	-3569
▁sum	-3570
house	-3571
iance	-3572
reens	-3573
risis	-3574
▁2006	-3575
▁Anot	-3576
▁High	-3577
▁Koiz	-3578
▁bure	-3579
▁cash	-3580
▁phys	-3581
▁port	-3582
▁sens	-3583
▁ties	-3584
Europe	-3585
atures	-3586
ishing	-3587
lantic	-3588
ulated	-3589
undred	-3590
▁accur	-3591
▁barri	-3592
▁deals	-3593
▁girls	-3594
▁lines	-3595
▁mortg	-3596
▁prime	-3597
▁track	-3598
century	-3599
orthern	-3600
▁Invest	-3601
▁LONDON	-3602
▁anyone	-3603
▁border	-3604
▁deaths	-3605
▁extent	-3606
▁launch	-3607
▁limits	-3608
▁manage	-3609
▁minist	-3610
▁nature	-3611
▁normal	-3612
▁office	-3613
▁proved	-3614
▁safety	-3615
▁theory	-3616
▁treaty	-3617
ications	-3618
▁Another	-3619
▁Federal	-3620
▁Instead	-3621
▁Koizumi	-3622
▁Perhaps	-3623
▁Reserve	-3624
▁actions	-3625
▁changed	-3626
▁getting	-3627
▁heavily	-3628
▁outcome	-3629
▁related	-3630
▁thereby	-3631
▁weather	-3632
rehensive	-3633
ventional	-3634
▁Likewise	-3635
▁appropri	-3636
▁complain	-3637
▁contrary	-3638
▁declared	-3639
▁overcome	-3640
▁overwhel	-3641
▁prepared	-3642
▁provides	-3643
▁scholars	-3644
▁struggle	-3645
▁commodity	-3646
▁reduction	-3647
▁supported	-3648
▁temporary	-3649
▁tradition	-3650
▁typically	-3651
▁difference	-3652
▁innovative	-3653
▁principles	-3654
▁Sustainable	-3655
▁experienced	-3656
▁generations	-3657
▁transformation	-3658
ef	-3659
gun	-3660
hic	-3661
ita	-3662
lig	-3663
oke	-3664
ola	-3665
ray	-3666
ull	-3667
uni	-3668
unn	-3669
▁($	-3670
▁Co	-3671
▁Ju	-3672
-201	-3673
AIDS	-3674
acro	-3675
appe	-3676
apse	-3677
atin	-3678
cale	-3679
comm	-3680
ctob	-3681
emic	-3682
iers	-3683
irth	-3684
lied	-3685
ones	-3686
uine	-3687
▁193	-3688
▁Add	-3689
▁Ang	-3690
▁Cam	-3691
▁Gul	-3692
▁Mel	-3693
▁NCD	-3694
▁Soc	-3695
▁Whe	-3696
▁aud	-3697
▁dow	-3698
▁hom	-3699
▁hum	-3700
▁ord	-3701
▁sea	-3702
▁wel	-3703
▁wit	-3704
ament	-3705
diagn	-3706
idesp	-3707
illed	-3708
lands	-3709
raine	-3710
reaty	-3711
▁1989	-3712
▁Port	-3713
▁cuts	-3714
▁days	-3715
▁defe	-3716
▁ethn	-3717
▁imag	-3718
▁near	-3719
▁paid	-3720
▁perm	-3721
▁sent	-3722
▁shap	-3723
▁size	-3724
▁stem	-3725
▁teac	-3726
▁your	-3727
astrop	-3728
coming	-3729
ctober	-3730
forest	-3731
ground	-3732
itious	-3733
rating	-3734
▁2014,	-3735
▁Alban	-3736
▁Saudi	-3737
▁built	-3738
▁cyber	-3739
▁dream	-3740
▁faced	-3741
▁final	-3742
▁frust	-3743
▁macro	-3744
▁motiv	-3745
▁obser	-3746
▁occup	-3747
▁prove	-3748
▁range	-3749
▁shape	-3750
▁stagn	-3751
▁stock	-3752
anguage	-3753
iciency	-3754
related	-3755
ustrial	-3756
▁Canada	-3757
▁George	-3758
▁Greens	-3759
▁Muslim	-3760
▁Treaty	-3761
▁assets	-3762
▁battle	-3763
▁degree	-3764
▁double	-3765
▁driven	-3766
▁easier	-3767
▁exceed	-3768
▁expert	-3769
▁father	-3770
▁formal	-3771
▁implic	-3772
▁medium	-3773
▁offers	-3774
▁perman	-3775
▁unless	-3776
▁widesp	-3777
American	-3778
etheless	-3779
standing	-3780
▁Climate	-3781
▁Israeli	-3782
▁October	-3783
▁Ukraine	-3784
▁allowed	-3785
▁bankers	-3786
▁brought	-3787
▁conduct	-3788
▁critics	-3789
▁depends	-3790
▁earlier	-3791
▁experts	-3792
▁himself	-3793
▁learned	-3794
▁lending	-3795
▁nations	-3796
▁options	-3797
▁parents	-3798
▁pattern	-3799
▁quarter	-3800
▁replace	-3801
▁schools	-3802
▁trading	-3803
▁younger	-3804
▁addition	-3805
▁argument	-3806
▁complete	-3807
▁designed	-3808
▁dramatic	-3809
▁expanded	-3810
▁intellig	-3811
▁internal	-3812
▁learning	-3813
▁negative	-3814
▁reaching	-3815
▁southern	-3816
▁withdraw	-3817
▁ambitious	-3818
▁criticism	-3819
▁efficient	-3820
▁highlight	-3821
▁investing	-3822
▁subsidies	-3823
▁workforce	-3824
▁Foundation	-3825
▁Washington	-3826
▁associated	-3827
▁compromise	-3828
▁contribute	-3829
▁parliament	-3830
▁recognized	-3831
▁regulation	-3832
▁statistics	-3833
▁supporters	-3834
▁terrorists	-3835
▁threatened	-3836
▁widespread	-3837
▁differences	-3838
▁immigration	-3839
▁distribution	-3840
▁organization	-3841
40	-3842
7%	-3843
8%	-3844
CO	-3845
PJ	-3846
TI	-3847
co	-3848
eb	-3849
ECD	-3850
PAC	-3851
ane	-3852
hod	-3853
ken	-3854
urb	-3855
▁0.	-3856
▁11	-3857
▁3.	-3858
▁5%	-3859
▁vo	-3860
cont	-3861
icro	-3862
inks	-3863
isms	-3864
oral	-3865
oric	-3866
uild	-3867
ular	-3868
zero	-3869
▁Bal	-3870
▁Bec	-3871
▁DPJ	-3872
▁Sen	-3873
▁Yas	-3874
▁alc	-3875
▁nut	-3876
adequ	-3877
luded	-3878
rence	-3879
▁Just	-3880
▁MDGs	-3881
▁Serb	-3882
▁Thus	-3883
▁arms	-3884
▁brut	-3885
▁dict	-3886
▁feed	-3887
▁goes	-3888
▁laws	-3889
▁lend	-3890
▁lies	-3891
▁liqu	-3892
▁pled	-3893
▁rank	-3894
▁sold	-3895
▁team	-3896
▁trig	-3897
ancial	-3898
anging	-3899
carbon	-3900
health	-3901
idered	-3902
itting	-3903
mented	-3904
policy	-3905
▁1990’	-3906
▁AIPAC	-3907
▁Goals	-3908
▁Latin	-3909
▁Under	-3910
▁adopt	-3911
▁asset	-3912
▁brain	-3913
▁calls	-3914
▁doesn	-3915
▁front	-3916
▁fuels	-3917
▁hands	-3918
▁reass	-3919
▁speak	-3920
▁stead	-3921
▁takes	-3922
▁tests	-3923
▁tight	-3924
▁volat	-3925
lements	-3926
ructive	-3927
▁Econom	-3928
▁Portug	-3929
▁Though	-3930
▁actors	-3931
▁appear	-3932
▁assess	-3933
▁capita	-3934
▁causes	-3935
▁commer	-3936
▁defeat	-3937
▁fossil	-3938
▁narrow	-3939
▁online	-3940
▁presid	-3941
▁reject	-3942
▁revers	-3943
▁robust	-3944
▁signed	-3945
▁stabil	-3946
▁stands	-3947
▁transl	-3948
reaching	-3949
▁Because	-3950
▁Millenn	-3951
▁broader	-3952
▁bureauc	-3953
▁defined	-3954
▁message	-3955
▁putting	-3956
▁subject	-3957
▁December	-3958
▁adequate	-3959
▁bringing	-3960
▁ensuring	-3961
▁equality	-3962
▁happened	-3963
▁journals	-3964
▁marginal	-3965
▁perspect	-3966
▁promises	-3967
▁reserves	-3968
▁supports	-3969
▁Communist	-3970
▁Greenspan	-3971
▁catastrop	-3972
▁dangerous	-3973
▁precisely	-3974
▁recommend	-3975
▁activities	-3976
▁addressing	-3977
▁considered	-3978
▁discipline	-3979
▁university	-3980
▁appropriate	-3981
▁competitive	-3982
▁demographic	-3983
▁corporations	-3984
▁intervention	-3985
▁partnerships	-3986
1.	-3987
2.	-3988
EL	-3989
EN	-3990
MB	-3991
ij	-3992
mo	-3993
pr	-3994
50,	-3995
ats	-3996
erc	-3997
los	-3998
ode	-3999
ple	-4000
yle	-4001
▁60	-4002
▁Bl	-4003
▁DC	-4004
ancy	-4005
bank	-4006
heim	-4007
ohol	-4008
ping	-4009
rich	-4010
uary	-4011
ynes	-4012
▁10%	-4013
▁Bas	-4014
▁Eng	-4015
▁Har	-4016
▁asp	-4017
▁fra	-4018
▁lab	-4019
Afric	-4020
esity	-4021
first	-4022
going	-4023
itude	-4024
power	-4025
rates	-4026
rived	-4027
scale	-4028
state	-4029
▁AfDB	-4030
▁Euro	-4031
▁Fore	-4032
▁June	-4033
▁OECD	-4034
▁Shia	-4035
▁bold	-4036
▁circ	-4037
▁clin	-4038
▁dele	-4039
▁dism	-4040
▁doct	-4041
▁flow	-4042
▁hour	-4043
▁init	-4044
▁isol	-4045
▁plat	-4046
▁scen	-4047
▁stre	-4048
▁tack	-4049
▁task	-4050
▁whom	-4051
avalny	-4052
heimer	-4053
illing	-4054
ployed	-4055
umping	-4056
▁2000,	-4057
▁Green	-4058
▁Paris	-4059
▁Those	-4060
▁Trans	-4061
▁Until	-4062
▁block	-4063
▁bound	-4064
▁crops	-4065
▁elder	-4066
▁grown	-4067
▁leave	-4068
▁mount	-4069
▁revol	-4070
▁spent	-4071
▁toler	-4072
▁views	-4073
archers	-4074
centage	-4075
itation	-4076
resents	-4077
▁During	-4078
▁Keynes	-4079
▁abroad	-4080
▁acknow	-4081
▁career	-4082
▁claims	-4083
▁elites	-4084
▁pursue	-4085
▁remind	-4086
▁showed	-4087
▁stable	-4088
▁trends	-4089
▁troops	-4090
▁twenty	-4091
▁unable	-4092
▁viewed	-4093
▁However	-4094
▁Navalny	-4095
▁alcohol	-4096
▁becomes	-4097
▁capable	-4098
▁chronic	-4099
▁correct	-4100
▁farming	-4101
▁happens	-4102
▁holding	-4103
▁hundred	-4104
▁instead	-4105
▁involve	-4106
▁reinfor	-4107
▁savings	-4108
▁sharing	-4109
▁started	-4110
▁tariffs	-4111
▁witness	-4112
▁National	-4113
▁achieved	-4114
▁activity	-4115
▁collapse	-4116
▁disaster	-4117
▁educated	-4118
▁function	-4119
▁peaceful	-4120
▁protests	-4121
▁standard	-4122
▁starters	-4123
▁emergence	-4124
▁exception	-4125
▁imbalance	-4126
▁inclusive	-4127
▁movements	-4128
▁neighbors	-4129
▁sometimes	-4130
▁thousands	-4131
▁Millennium	-4132
▁greenhouse	-4133
▁presidency	-4134
▁represents	-4135
▁scientists	-4136
▁constraints	-4137
▁educational	-4138
▁innovations	-4139
▁legislation	-4140
▁researchers	-4141
▁breakthrough	-4142
▁intellectual	-4143
▁entrepreneurs	-4144
.)	-4145
me	-4146
sy	-4147
TIP	-4148
aba	-4149
ahu	-4150
aul	-4151
ech	-4152
gem	-4153
iny	-4154
isp	-4155
lar	-4156
par	-4157
zai	-4158
▁Do	-4159
▁Hu	-4160
▁Ky	-4161
▁bi	-4162
ames	-4163
ario	-4164
arsh	-4165
bles	-4166
cers	-4167
cons	-4168
enty	-4169
eper	-4170
ibly	-4171
iliz	-4172
inct	-4173
mosp	-4174
ogue	-4175
omal	-4176
wing	-4177
▁30%	-4178
▁Alz	-4179
▁Ant	-4180
▁Any	-4181
▁Rev	-4182
▁due	-4183
▁enj	-4184
▁lot	-4185
▁ple	-4186
▁pun	-4187
▁try	-4188
▁unw	-4189
aches	-4190
arity	-4191
iding	-4192
idity	-4193
ilton	-4194
inton	-4195
ional	-4196
known	-4197
ukuni	-4198
under	-4199
uting	-4200
▁Both	-4201
▁Over	-4202
▁TTIP	-4203
▁army	-4204
▁body	-4205
▁dead	-4206
▁wave	-4207
▁week	-4208
▁went	-4209
▁zero	-4210
anyahu	-4211
commun	-4212
stream	-4213
▁2013,	-4214
▁Burma	-4215
▁Human	-4216
▁Keral	-4217
▁begun	-4218
▁blood	-4219
▁colon	-4220
▁delay	-4221
▁donor	-4222
▁faces	-4223
▁fears	-4224
▁stage	-4225
▁worth	-4226
appoint	-4227
connect	-4228
country	-4229
ductive	-4230
ensions	-4231
nership	-4232
rations	-4233
uations	-4234
▁Karzai	-4235
▁adjust	-4236
▁arrest	-4237
▁compar	-4238
▁condem	-4239
▁deeper	-4240
▁deeply	-4241
▁detail	-4242
▁ethnic	-4243
▁female	-4244
▁hardly	-4245
▁ignore	-4246
▁intens	-4247
▁losses	-4248
▁mobile	-4249
▁obstac	-4250
▁offset	-4251
▁perpet	-4252
▁played	-4253
▁resist	-4254
▁secret	-4255
▁sought	-4256
▁suffer	-4257
▁survey	-4258
▁turned	-4259
▁worked	-4260
recedent	-4261
▁closely	-4262
▁defense	-4263
▁disappe	-4264
▁enforce	-4265
▁failing	-4266
▁implies	-4267
▁inadequ	-4268
▁medical	-4269
▁partner	-4270
▁purpose	-4271
▁resolve	-4272
▁species	-4273
▁victims	-4274
▁Consider	-4275
▁Yasukuni	-4276
▁agencies	-4277
▁barriers	-4278
▁combined	-4279
▁consolid	-4280
▁entirely	-4281
▁fighting	-4282
▁language	-4283
▁offering	-4284
▁ordinary	-4285
▁planning	-4286
▁property	-4287
▁scenario	-4288
▁strength	-4289
▁transfer	-4290
▁Alzheimer	-4291
▁Consensus	-4292
▁Netanyahu	-4293
▁achieving	-4294
▁addressed	-4295
▁borrowing	-4296
▁candidate	-4297
▁dependent	-4298
▁negotiate	-4299
▁objective	-4300
▁producers	-4301
▁promising	-4302
▁resulting	-4303
▁percentage	-4304
▁repeatedly	-4305
▁structures	-4306
▁underlying	-4307
▁commitments	-4308
▁implemented	-4309
▁necessarily	-4310
▁politically	-4311
▁substantial	-4312
▁arrangements	-4313
▁considerable	-4314
▁immunization	-4315
▁substantially	-4316
▁constitutional	-4317
8,	-4318
AN	-4319
IB	-4320
rs	-4321
ASH	-4322
anz	-4323
avi	-4324
aza	-4325
ket	-4326
nam	-4327
oor	-4328
rex	-4329
rus	-4330
ula	-4331
urt	-4332
▁50	-4333
▁Ha	-4334
▁ec	-4335
-200	-4336
amed	-4337
ctic	-4338
fers	-4339
fire	-4340
iate	-4341
oler	-4342
oses	-4343
oted	-4344
raft	-4345
rage	-4346
▁80%	-4347
▁aim	-4348
▁hyp	-4349
▁mix	-4350
▁ver	-4351
▁wis	-4352
MBRID	-4353
acerb	-4354
ching	-4355
class	-4356
eenth	-4357
erend	-4358
ffect	-4359
igate	-4360
irect	-4361
nturn	-4362
riend	-4363
▁Aust	-4364
▁Comp	-4365
▁Four	-4366
▁Gavi	-4367
▁Murd	-4368
▁Park	-4369
▁WASH	-4370
▁bear	-4371
▁cast	-4372
▁fell	-4373
▁flag	-4374
▁grew	-4375
▁rele	-4376
▁resc	-4377
▁stay	-4378
INGTON	-4379
apital	-4380
▁2010,	-4381
▁Libya	-4382
▁Meles	-4383
▁Somal	-4384
▁Still	-4385
▁Treas	-4386
▁absol	-4387
▁accom	-4388
▁adapt	-4389
▁birth	-4390
▁carry	-4391
▁displ	-4392
▁equip	-4393
▁oblig	-4394
▁quant	-4395
▁shown	-4396
▁spect	-4397
▁stake	-4398
▁wages	-4399
▁white	-4400
MBRIDGE	-4401
hetoric	-4402
ialogue	-4403
itative	-4404
stitute	-4405
▁Kerala	-4406
▁Rights	-4407
▁Spring	-4408
▁atmosp	-4409
▁burden	-4410
▁curric	-4411
▁easily	-4412
▁fields	-4413
▁figure	-4414
▁libert	-4415
▁owners	-4416
▁placed	-4417
▁prison	-4418
▁pushed	-4419
▁refuge	-4420
▁speech	-4421
▁trying	-4422
▁unique	-4423
security	-4424
▁Clinton	-4425
▁Murdoch	-4426
▁absence	-4427
▁affairs	-4428
▁complic	-4429
▁context	-4430
▁creates	-4431
▁culture	-4432
▁decided	-4433
▁emerged	-4434
▁equival	-4435
▁exacerb	-4436
▁genuine	-4437
▁healthy	-4438
▁numbers	-4439
▁obesity	-4440
▁paradox	-4441
▁perfect	-4442
▁profess	-4443
▁raising	-4444
▁revenue	-4445
▁trouble	-4446
▁usually	-4447
▁various	-4448
▁welcome	-4449
▁although	-4450
▁annivers	-4451
▁downturn	-4452
▁fertiliz	-4453
▁includes	-4454
▁informal	-4455
▁involved	-4456
▁migrants	-4457
▁occurred	-4458
▁promised	-4459
▁received	-4460
▁referend	-4461
▁specific	-4462
▁suffered	-4463
liferation	-4464
▁CAMBRIDGE	-4465
▁Committee	-4466
▁Financial	-4467
▁condition	-4468
▁declining	-4469
▁enterpris	-4470
▁narrative	-4471
▁remaining	-4472
▁shortfall	-4473
▁structure	-4474
▁terrorist	-4475
▁Investment	-4476
▁WASHINGTON	-4477
▁algorithms	-4478
▁atmosphere	-4479
▁capitalism	-4480
▁conference	-4481
▁determined	-4482
▁diplomatic	-4483
▁everything	-4484
▁imbalances	-4485
▁imperative	-4486
▁integrated	-4487
▁previously	-4488
▁settlement	-4489
▁unprecedent	-4490
▁establishing	-4491
▁experiencing	-4492
▁intelligence	-4493
▁successfully	-4494
▁comprehensive	-4495
4.	-4496
CT	-4497
GB	-4498
ns	-4499
su	-4500
▁-	-4501
asc	-4502
che	-4503
cri	-4504
ipe	-4505
orb	-4506
ote	-4507
sen	-4508
soc	-4509
uns	-4510
▁13	-4511
▁Im	-4512
▁wa	-4513
ESCO	-4514
agan	-4515
ares	-4516
azon	-4517
cast	-4518
ches	-4519
ding	-4520
fort	-4521
ware	-4522
what	-4523
▁100	-4524
▁195	-4525
▁70%	-4526
▁God	-4527
▁Its	-4528
▁Nor	-4529
▁Rob	-4530
▁Why	-4531
▁bul	-4532
▁hon	-4533
▁pen	-4534
▁sen	-4535
▁tow	-4536
▁unt	-4537
ables	-4538
agers	-4539
anted	-4540
banon	-4541
break	-4542
erted	-4543
gical	-4544
iable	-4545
rexit	-4546
ridge	-4547
rific	-4548
ulate	-4549
usion	-4550
▁July	-4551
▁Sene	-4552
▁Sunn	-4553
▁Tanz	-4554
▁Then	-4555
▁capt	-4556
▁enem	-4557
▁epid	-4558
▁evol	-4559
▁fire	-4560
▁magn	-4561
▁male	-4562
▁pool	-4563
▁qual	-4564
▁rely	-4565
▁soil	-4566
▁tour	-4567
▁wind	-4568
crisis	-4569
estate	-4570
inking	-4571
luding	-4572
overed	-4573
racies	-4574
▁Crime	-4575
▁Gates	-4576
▁March	-4577
▁Medic	-4578
▁aband	-4579
▁aging	-4580
▁alloc	-4581
▁blame	-4582
▁cross	-4583
▁faith	-4584
▁fewer	-4585
▁lands	-4586
▁micro	-4587
▁numer	-4588
▁optim	-4589
▁ratio	-4590
aration	-4591
finance	-4592
illegal	-4593
rencies	-4594
ruption	-4595
uilding	-4596
▁Beyond	-4597
▁Jewish	-4598
▁People	-4599
▁Summit	-4600
▁UNESCO	-4601
▁calcul	-4602
▁closer	-4603
▁convin	-4604
▁destro	-4605
▁execut	-4606
▁fallen	-4607
▁famous	-4608
▁impose	-4609
▁instru	-4610
▁interp	-4611
▁linked	-4612
▁mandar	-4613
▁memory	-4614
▁multip	-4615
▁notion	-4616
▁rating	-4617
▁remitt	-4618
▁retain	-4619
▁reward	-4620
▁select	-4621
▁stress	-4622
▁superv	-4623
▁surely	-4624
▁undert	-4625
▁warned	-4626
irmative	-4627
veraging	-4628
▁Albania	-4629
▁Austral	-4630
▁Eastern	-4631
▁Foreign	-4632
▁Further	-4633
▁January	-4634
▁Lebanon	-4635
▁Muslims	-4636
▁Senegal	-4637
▁anticip	-4638
▁centers	-4639
▁corrupt	-4640
▁driving	-4641
▁elected	-4642
▁falling	-4643
▁incomes	-4644
▁mistake	-4645
▁network	-4646
▁notably	-4647
▁realize	-4648
▁survive	-4649
▁traject	-4650
▁whereas	-4651
intensive	-4652
▁Hamilton	-4653
▁Portugal	-4654
▁Tanzania	-4655
▁Treasury	-4656
▁accounts	-4657
▁affected	-4658
▁allowing	-4659
▁apparent	-4660
▁believed	-4661
▁billions	-4662
▁coverage	-4663
▁credible	-4664
▁mobilize	-4665
▁momentum	-4666
▁properly	-4667
▁rhetoric	-4668
▁severely	-4669
▁slowdown	-4670
▁supplies	-4671
▁coalition	-4672
▁diplomacy	-4673
▁dominated	-4674
▁excessive	-4675
▁expertise	-4676
▁incentive	-4677
▁insurance	-4678
▁materials	-4679
▁otherwise	-4680
▁permanent	-4681
▁principle	-4682
▁processes	-4683
▁published	-4684
▁Industrial	-4685
▁accelerate	-4686
▁approaches	-4687
▁currencies	-4688
▁encouraged	-4689
▁facilitate	-4690
▁immigrants	-4691
▁mechanisms	-4692
▁operations	-4693
▁priorities	-4694
▁proportion	-4695
▁remarkable	-4696
▁resistance	-4697
▁surprising	-4698
▁unilateral	-4699
▁Partnership	-4700
▁credibility	-4701
▁devastating	-4702
▁essentially	-4703
▁potentially	-4704
▁prohibition	-4705
▁establishment	-4706
▁unprecedented	-4707
Ch	-4708
EM	-4709
af	-4710
hi	-4711
ih	-4712
ka	-4713
GDP	-4714
aiw	-4715
ann	-4716
cap	-4717
enh	-4718
ery	-4719
imb	-4720
imm	-4721
ios	-4722
let	-4723
nty	-4724
ook	-4725
pin	-4726
▁$5	-4727
▁12	-4728
▁2%	-4729
▁CO	-4730
▁Mc	-4731
▁fo	-4732
▁li	-4733
aily	-4734
araj	-4735
ault	-4736
bled	-4737
dden	-4738
debt	-4739
ebru	-4740
iant	-4741
ingu	-4742
ires	-4743
obel	-4744
odox	-4745
ores	-4746
priv	-4747
semb	-4748
size	-4749
ties	-4750
uses	-4751
vard	-4752
▁60%	-4753
▁Aff	-4754
▁IDB	-4755
▁Man	-4756
▁awa	-4757
▁dau	-4758
▁doz	-4759
▁dro	-4760
▁eru	-4761
▁squ	-4762
▁wed	-4763
▁wid	-4764
aiwan	-4765
antly	-4766
aucas	-4767
being	-4768
ecess	-4769
equal	-4770
ether	-4771
ignty	-4772
ommod	-4773
orial	-4774
party	-4775
place	-4776
using	-4777
works	-4778
▁2020	-4779
▁AIIB	-4780
▁Bang	-4781
▁Here	-4782
▁base	-4783
▁book	-4784
▁chem	-4785
▁firm	-4786
▁gone	-4787
▁here	-4788
▁hero	-4789
▁insu	-4790
▁pace	-4791
▁phen	-4792
▁rose	-4793
▁sell	-4794
▁susp	-4795
▁tele	-4796
▁wars	-4797
▁wish	-4798
▁wond	-4799
acific	-4800
arency	-4801
gation	-4802
holder	-4803
iction	-4804
iences	-4805
itudes	-4806
minent	-4807
▁Earth	-4808
▁Febru	-4809
▁Greek	-4810
▁Nobel	-4811
▁Sunni	-4812
▁Third	-4813
▁Women	-4814
▁acute	-4815
▁drugs	-4816
▁hegem	-4817
▁hours	-4818
▁looks	-4819
▁ninet	-4820
▁posed	-4821
▁quite	-4822
▁round	-4823
▁seeds	-4824
▁separ	-4825
▁skept	-4826
▁tried	-4827
▁truly	-4828
▁utter	-4829
▁waste	-4830
▁write	-4831
▁Agenda	-4832
▁Berlin	-4833
▁Policy	-4834
▁Reagan	-4835
▁Recent	-4836
▁Robert	-4837
▁Taiwan	-4838
▁acting	-4839
▁allows	-4840
▁assume	-4841
▁basket	-4842
▁broken	-4843
▁buying	-4844
▁closed	-4845
▁combat	-4846
▁costly	-4847
▁desire	-4848
▁desper	-4849
▁divide	-4850
▁emerge	-4851
▁empire	-4852
▁insist	-4853
▁legacy	-4854
▁mainly	-4855
▁method	-4856
▁option	-4857
▁places	-4858
▁raised	-4859
▁served	-4860
▁slight	-4861
▁urgent	-4862
▁Harvard	-4863
▁Program	-4864
▁Somalia	-4865
▁abandon	-4866
▁autonom	-4867
▁benefic	-4868
▁disprop	-4869
▁divided	-4870
▁doctors	-4871
▁elderly	-4872
▁empower	-4873
▁fastest	-4874
▁imposed	-4875
▁journal	-4876
▁mention	-4877
▁pushing	-4878
▁threats	-4879
▁Agricult	-4880
▁February	-4881
▁absolute	-4882
▁accommod	-4883
▁accurate	-4884
▁controls	-4885
▁criminal	-4886
▁decisive	-4887
▁enabling	-4888
▁findings	-4889
▁hundreds	-4890
▁minority	-4891
▁original	-4892
▁phenomen	-4893
▁populist	-4894
▁presence	-4895
▁produced	-4896
▁proposed	-4897
▁revealed	-4898
▁shifting	-4899
▁somewhat	-4900
▁starting	-4901
▁surgical	-4902
▁surprise	-4903
▁urgently	-4904
▁weakness	-4905
▁accounted	-4906
▁convinced	-4907
▁cooperate	-4908
▁deflation	-4909
▁diagnosis	-4910
▁expensive	-4911
▁extremely	-4912
▁mandarins	-4913
▁ministers	-4914
▁opponents	-4915
▁overwhelm	-4916
▁purchases	-4917
▁resilient	-4918
▁transfers	-4919
▁Republican	-4920
▁commercial	-4921
▁equivalent	-4922
▁frequently	-4923
▁generating	-4924
▁inadequate	-4925
▁maintained	-4926
▁negotiated	-4927
▁nineteenth	-4928
▁reductions	-4929
▁referendum	-4930
▁volatility	-4931
▁demonstrate	-4932
▁populations	-4933
▁threatening	-4934
▁conservative	-4935
▁contribution	-4936
▁modification	-4937
▁professional	-4938
▁requirements	-4939
▁transparency	-4940
▁collaboration	-4941
▁disproportion	-4942
▁relationships	-4943
▁strengthening	-4944
11	-4945
7.	-4946
70	-4947
9%	-4948
ux	-4949
cks	-4950
osn	-4951
rog	-4952
son	-4953
udd	-4954
ugg	-4955
ugh	-4956
▁4.	-4957
▁Te	-4958
▁dr	-4959
alle	-4960
bedo	-4961
efli	-4962
ifth	-4963
indu	-4964
olas	-4965
oubt	-4966
oyal	-4967
resh	-4968
spec	-4969
uous	-4970
▁Act	-4971
▁Ass	-4972
▁Edu	-4973
▁Nak	-4974
▁She	-4975
▁anx	-4976
▁fil	-4977
▁mit	-4978
▁pla	-4979
▁shr	-4980
▁unf	-4981
atism	-4982
cient	-4983
endit	-4984
eting	-4985
lfare	-4986
lines	-4987
pping	-4988
rable	-4989
right	-4990
uable	-4991
ugust	-4992
utine	-4993
which	-4994
▁Balk	-4995
▁Bout	-4996
▁Gaza	-4997
▁Nove	-4998
▁Plan	-4999
▁Swed	-5000
▁Will	-5001
▁York	-5002
▁aims	-5003
▁bill	-5004
▁cere	-5005
▁exam	-5006
▁flex	-5007
▁foot	-5008
▁fost	-5009
▁iron	-5010
▁mere	-5011
▁prem	-5012
▁says	-5013
▁scar	-5014
▁type	-5015
00,000	-5016
accept	-5017
ampion	-5018
atever	-5019
eflika	-5020
ietnam	-5021
ifying	-5022
inding	-5023
ispens	-5024
lihood	-5025
sembly	-5026
▁2001,	-5027
▁2011,	-5028
▁2012,	-5029
▁Ababa	-5030
▁Addis	-5031
▁Count	-5032
▁Every	-5033
▁Forum	-5034
▁Franc	-5035
▁Haiti	-5036
▁Niger	-5037
▁Royal	-5038
▁Youth	-5039
▁abund	-5040
▁anger	-5041
▁apply	-5042
▁artic	-5043
▁aside	-5044
▁bombs	-5045
▁bonds	-5046
▁books	-5047
▁cease	-5048
▁chann	-5049
▁compe	-5050
▁daily	-5051
▁enact	-5052
▁enjoy	-5053
▁erupt	-5054
▁exerc	-5055
▁forth	-5056
▁ideal	-5057
▁input	-5058
▁manip	-5059
▁merit	-5060
▁moved	-5061
▁patri	-5062
▁refer	-5063
▁shock	-5064
▁smart	-5065
▁speed	-5066
▁tempt	-5067
▁tough	-5068
▁turns	-5069
▁unity	-5070
aucasus	-5071
cession	-5072
growing	-5073
ogether	-5074
private	-5075
▁Amazon	-5076
▁Arabia	-5077
▁Brexit	-5078
▁Crimea	-5079
▁Serbia	-5080
▁Social	-5081
▁adding	-5082
▁aggreg	-5083
▁chains	-5084
▁choose	-5085
▁circum	-5086
▁conven	-5087
▁crimes	-5088
▁depart	-5089
▁disarm	-5090
▁easing	-5091
▁elimin	-5092
▁extend	-5093
▁geopol	-5094
▁infect	-5095
▁mostly	-5096
▁mother	-5097
▁prefer	-5098
▁rarely	-5099
▁resort	-5100
▁search	-5101
▁sexual	-5102
▁slowly	-5103
▁sudden	-5104
▁summer	-5105
▁unders	-5106
▁yields	-5107
European	-5108
atlantic	-5109
▁assumed	-5110
▁choices	-5111
▁cutting	-5112
▁dispute	-5113
▁embrace	-5114
▁expense	-5115
▁feature	-5116
▁figures	-5117
▁illegal	-5118
▁inflows	-5119
▁liberty	-5120
▁looking	-5121
▁malaria	-5122
▁mandate	-5123
▁ongoing	-5124
▁payment	-5125
▁players	-5126
▁playing	-5127
▁pointed	-5128
▁restore	-5129
▁reverse	-5130
▁routine	-5131
▁selling	-5132
▁smaller	-5133
▁village	-5134
▁welfare	-5135
diagnosis	-5136
ibilities	-5137
▁Caucasus	-5138
▁November	-5139
▁Security	-5140
▁annually	-5141
▁approved	-5142
▁balanced	-5143
▁computer	-5144
▁contract	-5145
▁delivery	-5146
▁dialogue	-5147
▁disputes	-5148
▁examples	-5149
▁expendit	-5150
▁forecast	-5151
▁identity	-5152
▁meetings	-5153
▁northern	-5154
▁opposite	-5155
▁practice	-5156
▁reported	-5157
▁slightly	-5158
▁survival	-5159
▁taxation	-5160
▁teachers	-5161
▁valuable	-5162
ispensable	-5163
▁Australia	-5164
▁Christian	-5165
▁activists	-5166
▁demanding	-5167
▁described	-5168
▁discovery	-5169
▁fundament	-5170
▁generally	-5171
▁inclusion	-5172
▁predecess	-5173
▁primarily	-5174
▁providers	-5175
▁reformers	-5176
▁reinforce	-5177
▁secondary	-5178
▁seriously	-5179
▁translate	-5180
▁unwilling	-5181
▁virtually	-5182
▁Bouteflika	-5183
▁Revolution	-5184
▁background	-5185
▁concerning	-5186
▁consistent	-5187
▁disappoint	-5188
▁discussion	-5189
▁efficiency	-5190
▁facilities	-5191
▁legitimate	-5192
▁regardless	-5193
▁resilience	-5194
▁withdrawal	-5195
▁Furthermore	-5196
▁anniversary	-5197
▁constrained	-5198
▁coordinated	-5199
▁devaluation	-5200
▁encouraging	-5201
▁importantly	-5202
▁improvement	-5203
▁instability	-5204
▁perspective	-5205
▁remittances	-5206
▁sovereignty	-5207
▁undermining	-5208
▁willingness	-5209
▁availability	-5210
▁compensation	-5211
▁insufficient	-5212
▁strengthened	-5213
▁macroeconomic	-5214
▁understanding	-5215
▁unsustainable	-5216
▁transportation	-5217
▁recommendations	-5218
3,	-5219
6.	-5220
AD	-5221
DR	-5222
EO	-5223
IS	-5224
gu	-5225
TEM	-5226
amb	-5227
arn	-5228
bas	-5229
eda	-5230
gel	-5231
oes	-5232
rip	-5233
run	-5234
see	-5235
▁1%	-5236
▁25	-5237
▁3%	-5238
▁40	-5239
▁Mu	-5240
▁Ne	-5241
adow	-5242
gent	-5243
hand	-5244
isan	-5245
lict	-5246
lish	-5247
llor	-5248
need	-5249
ocks	-5250
olly	-5251
room	-5252
sent	-5253
tect	-5254
time	-5255
ulum	-5256
unis	-5257
view	-5258
▁40%	-5259
▁Col	-5260
▁Cup	-5261
▁Day	-5262
▁Mad	-5263
▁Mor	-5264
▁Naz	-5265
▁Pri	-5266
▁Sud	-5267
▁Ter	-5268
▁bub	-5269
▁der	-5270
▁got	-5271
▁hor	-5272
▁hot	-5273
▁lob	-5274
▁sac	-5275
▁tom	-5276
▁tur	-5277
added	-5278
agues	-5279
ailed	-5280
alian	-5281
anish	-5282
ashed	-5283
asone	-5284
ffick	-5285
ghter	-5286
hetic	-5287
ician	-5288
icism	-5289
ijing	-5290
inism	-5291
ipped	-5292
lades	-5293
oples	-5294
orrow	-5295
sight	-5296
▁2010	-5297
▁2018	-5298
▁Bosn	-5299
▁Deal	-5300
▁Educ	-5301
▁Food	-5302
▁Grow	-5303
▁Jews	-5304
▁Once	-5305
▁Spec	-5306
▁arch	-5307
▁born	-5308
▁dark	-5309
▁drop	-5310
▁emot	-5311
▁exce	-5312
▁gave	-5313
▁hike	-5314
▁ones	-5315
▁orth	-5316
▁rail	-5317
▁room	-5318
▁sort	-5319
▁spir	-5320
▁tell	-5321
▁text	-5322
▁trem	-5323
Africa	-5324
angers	-5325
arters	-5326
ervice	-5327
establ	-5328
govern	-5329
icious	-5330
isions	-5331
itably	-5332
reness	-5333
rition	-5334
ultane	-5335
urally	-5336
▁2008,	-5337
▁2015,	-5338
▁Basel	-5339
▁Polit	-5340
▁Tunis	-5341
▁alarm	-5342
▁alike	-5343
▁altru	-5344
▁asked	-5345
▁aspir	-5346
▁check	-5347
▁democ	-5348
▁exact	-5349
▁gases	-5350
▁guide	-5351
▁heard	-5352
▁inher	-5353
▁intra	-5354
▁knows	-5355
▁leads	-5356
▁links	-5357
▁marri	-5358
▁medic	-5359
▁overh	-5360
▁plant	-5361
▁ready	-5362
▁recru	-5363
▁remov	-5364
▁repay	-5365
▁schem	-5366
▁scope	-5367
▁seeks	-5368
▁seize	-5369
▁stall	-5370
▁table	-5371
▁weeks	-5372
rategic	-5373
ressing	-5374
▁Across	-5375
▁Angola	-5376
▁August	-5377
▁Poland	-5378
▁Senate	-5379
▁absent	-5380
▁advert	-5381
▁albedo	-5382
▁appeal	-5383
▁aspect	-5384
▁brutal	-5385
▁charge	-5386
▁conver	-5387
▁defend	-5388
▁equity	-5389
▁escape	-5390
▁estate	-5391
▁except	-5392
▁fourth	-5393
▁friend	-5394
▁gather	-5395
▁opened	-5396
▁panels	-5397
▁plenty	-5398
▁saying	-5399
▁soccer	-5400
▁taught	-5401
▁volunt	-5402
▁wanted	-5403
ffective	-5404
function	-5405
lessness	-5406
oubtedly	-5407
▁Italian	-5408
▁Twitter	-5409
▁adverse	-5410
▁applied	-5411
▁budgets	-5412
▁causing	-5413
▁charged	-5414
▁cleaner	-5415
▁compris	-5416
▁concent	-5417
▁decreas	-5418
▁enhance	-5419
▁greatly	-5420
▁harvest	-5421
▁ignored	-5422
▁lasting	-5423
▁machine	-5424
▁managed	-5425
▁mission	-5426
▁operate	-5427
▁opposed	-5428
▁package	-5429
▁pension	-5430
▁peoples	-5431
▁possess	-5432
▁profits	-5433
▁refused	-5434
▁regimes	-5435
▁renewed	-5436
▁streets	-5437
▁subsequ	-5438
▁towards	-5439
▁trigger	-5440
▁undersc	-5441
▁unequal	-5442
▁version	-5443
▁visible	-5444
connected	-5445
stitution	-5446
▁Business	-5447
▁Nakasone	-5448
▁anything	-5449
▁audience	-5450
▁autonomy	-5451
▁champion	-5452
▁circumst	-5453
▁colonial	-5454
▁extraord	-5455
▁financed	-5456
▁globally	-5457
▁historic	-5458
▁humanity	-5459
▁identify	-5460
▁invested	-5461
▁involves	-5462
▁multiple	-5463
▁networks	-5464
▁orthodox	-5465
▁outbreak	-5466
▁patterns	-5467
▁payments	-5468
▁possibly	-5469
▁proposal	-5470
▁purchase	-5471
▁pursuing	-5472
▁rational	-5473
▁sacrific	-5474
▁shortage	-5475
▁threaten	-5476
▁Banglades	-5477
▁acknowled	-5478
▁customers	-5479
▁equipment	-5480
▁explained	-5481
▁expressed	-5482
▁favorable	-5483
▁interpret	-5484
▁isolation	-5485
▁liquidity	-5486
▁mechanism	-5487
▁observers	-5488
▁ourselves	-5489
▁producing	-5490
▁professor	-5491
▁regarding	-5492
▁renewable	-5493
▁similarly	-5494
▁statement	-5495
▁beneficial	-5496
▁candidates	-5497
▁commission	-5498
▁components	-5499
▁fertilizer	-5500
▁fragmented	-5501
▁impressive	-5502
▁indicators	-5503
▁innovators	-5504
▁mainstream	-5505
▁membership	-5506
▁objectives	-5507
▁perception	-5508
▁processing	-5509
▁reflecting	-5510
▁supporting	-5511
▁trajectory	-5512
▁unemployed	-5513
▁Nonetheless	-5514
▁commissions	-5515
▁democracies	-5516
▁frustration	-5517
▁immediately	-5518
▁institution	-5519
▁participate	-5520
▁regulations	-5521
▁Palestinians	-5522
▁conventional	-5523
▁demonstrated	-5524
▁improvements	-5525
▁policymaking	-5526
▁temperatures	-5527
▁authoritarian	-5528
▁contributions	-5529
▁implementation	-5530
-3	-5531
.5	-5532
60	-5533
9,	-5534
9.	-5535
DA	-5536
US	-5537
ky	-5538
The	-5539
dec	-5540
gry	-5541
hab	-5542
mar	-5543
mon	-5544
tax	-5545
uct	-5546
ume	-5547
ums	-5548
yan	-5549
▁6%	-5550
▁Gu	-5551
▁Me	-5552
▁Os	-5553
▁ey	-5554
▁kn	-5555
aded	-5556
aeda	-5557
eled	-5558
empl	-5559
eter	-5560
iece	-5561
mbol	-5562
mind	-5563
offs	-5564
omin	-5565
otic	-5566
ourt	-5567
port	-5568
ques	-5569
ragm	-5570
real	-5571
resp	-5572
righ	-5573
xide	-5574
zech	-5575
▁Ban	-5576
▁Big	-5577
▁CEO	-5578
▁Car	-5579
▁Cyp	-5580
▁Dis	-5581
▁Equ	-5582
▁Far	-5583
▁Kyi	-5584
▁Let	-5585
▁Mer	-5586
▁Nic	-5587
▁Suu	-5588
▁Two	-5589
▁bol	-5590
▁bur	-5591
▁cop	-5592
▁gay	-5593
▁hyd	-5594
▁luc	-5595
▁obt	-5596
▁pet	-5597
▁raw	-5598
▁sal	-5599
▁sun	-5600
▁sus	-5601
▁twe	-5602
0,000	-5603
China	-5604
acing	-5605
ading	-5606
asive	-5607
chang	-5608
elect	-5609
enses	-5610
ernal	-5611
etric	-5612
iders	-5613
ifies	-5614
itect	-5615
licit	-5616
onent	-5617
oning	-5618
ouris	-5619
ourse	-5620
riven	-5621
urers	-5622
▁1960	-5623
▁2004	-5624
▁2011	-5625
▁2012	-5626
▁Clos	-5627
▁Cont	-5628
▁Farm	-5629
▁Free	-5630
▁STEM	-5631
▁Sein	-5632
▁Stal	-5633
▁agro	-5634
▁aver	-5635
▁ball	-5636
▁cate	-5637
▁cogn	-5638
▁earn	-5639
▁expl	-5640
▁fate	-5641
▁hurt	-5642
▁irri	-5643
▁pact	-5644
▁phil	-5645
▁pipe	-5646
▁pose	-5647
▁root	-5648
▁shut	-5649
▁sole	-5650
▁stor	-5651
▁symp	-5652
▁tact	-5653
▁tool	-5654
▁uses	-5655
ceived	-5656
contro	-5657
elling	-5658
endous	-5659
energy	-5660
eville	-5661
iances	-5662
icated	-5663
irical	-5664
lessly	-5665
minded	-5666
needed	-5667
orient	-5668
ounded	-5669
▁2014.	-5670
▁2017,	-5671
▁2017.	-5672
▁2050,	-5673
▁Abbas	-5674
▁Czech	-5675
▁Never	-5676
▁Sudan	-5677
▁Thein	-5678
▁abuse	-5679
▁align	-5680
▁cover	-5681
▁crime	-5682
▁delib	-5683
▁drawn	-5684
▁fails	-5685
▁fresh	-5686
▁helps	-5687
▁minds	-5688
▁monet	-5689
▁norms	-5690
▁polls	-5691
▁scand	-5692
▁twice	-5693
▁vehic	-5694
General	-5695
develop	-5696
dumping	-5697
overing	-5698
parents	-5699
quality	-5700
reaking	-5701
termine	-5702
theless	-5703
▁Center	-5704
▁Chance	-5705
▁Master	-5706
▁Public	-5707
▁Swaraj	-5708
▁Sweden	-5709
▁Terror	-5710
▁UNAIDS	-5711
▁advice	-5712
▁assert	-5713
▁define	-5714
▁deploy	-5715
▁fueled	-5716
▁harder	-5717
▁incumb	-5718
▁injust	-5719
▁insurg	-5720
▁leaves	-5721
▁losing	-5722
▁marked	-5723
▁missed	-5724
▁obtain	-5725
▁openly	-5726
▁paying	-5727
▁profit	-5728
▁resent	-5729
▁retire	-5730
▁scarce	-5731
▁sheets	-5732
▁taxpay	-5733
▁viable	-5734
▁weight	-5735
▁wonder	-5736
ifically	-5737
specific	-5738
▁Beijing	-5739
▁English	-5740
▁Nuclear	-5741
▁Project	-5742
▁Spanish	-5743
▁Whether	-5744
▁amounts	-5745
▁comfort	-5746
▁consist	-5747
▁consult	-5748
▁destroy	-5749
▁exploit	-5750
▁fragile	-5751
▁impover	-5752
▁intense	-5753
▁keeping	-5754
▁lenders	-5755
▁linking	-5756
▁persist	-5757
▁prepare	-5758
▁privile	-5759
▁proceed	-5760
▁ratings	-5761
▁setting	-5762
▁shaping	-5763
▁student	-5764
▁talking	-5765
▁tourism	-5766
▁trained	-5767
▁underst	-5768
▁written	-5769
▁accompan	-5770
▁approval	-5771
▁convince	-5772
▁declined	-5773
▁distinct	-5774
▁entering	-5775
▁epidemic	-5776
▁extended	-5777
▁focusing	-5778
▁generous	-5779
▁included	-5780
▁inherent	-5781
▁interven	-5782
▁limiting	-5783
▁managers	-5784
▁managing	-5785
▁maximize	-5786
▁numerous	-5787
▁platform	-5788
▁populism	-5789
▁pressing	-5790
▁publicly	-5791
▁realized	-5792
▁religion	-5793
▁returned	-5794
▁software	-5795
▁standing	-5796
▁steadily	-5797
▁tensions	-5798
▁traffick	-5799
▁unaccept	-5800
productive	-5801
▁aggregate	-5802
▁architect	-5803
▁attitudes	-5804
▁awareness	-5805
▁ceasefire	-5806
▁centuries	-5807
▁concerned	-5808
▁concerted	-5809
▁determine	-5810
▁disappear	-5811
▁diversity	-5812
▁employees	-5813
▁guarantee	-5814
▁hospitals	-5815
▁mortgages	-5816
▁motivated	-5817
▁obstacles	-5818
▁operating	-5819
▁orthodoxy	-5820
▁pressures	-5821
▁prevailed	-5822
▁provision	-5823
▁responses	-5824
▁simultane	-5825
▁territory	-5826
▁threatens	-5827
forestation	-5828
▁Parliament	-5829
▁assessment	-5830
▁colleagues	-5831
▁compensate	-5832
▁controvers	-5833
▁criticized	-5834
▁dependence	-5835
▁deterrence	-5836
▁frameworks	-5837
▁interested	-5838
▁liberation	-5839
▁presidents	-5840
▁repression	-5841
▁resolution	-5842
▁sanitation	-5843
▁tremendous	-5844
▁accordingly	-5845
▁accountable	-5846
▁catastrophe	-5847
▁centralized	-5848
▁disarmament	-5849
▁negotiating	-5850
▁neighboring	-5851
▁temperature	-5852
▁undoubtedly	-5853
▁alternatives	-5854
▁constitution	-5855
▁coordination	-5856
▁grandparents	-5857
▁implications	-5858
▁impoverished	-5859
▁restrictions	-5860
▁circumstances	-5861
▁communication	-5862
▁effectiveness	-5863
▁extraordinary	-5864
..	-5865
3.	-5866
AG	-5867
As	-5868
HI	-5869
HO	-5870
NP	-5871
OS	-5872
UN	-5873
We	-5874
va	-5875
vo	-5876
zh	-5877
aby	-5878
ads	-5879
ala	-5880
alf	-5881
ami	-5882
emb	-5883
erg	-5884
gia	-5885
ift	-5886
ino	-5887
isf	-5888
lad	-5889
law	-5890
ley	-5891
ney	-5892
oly	-5893
oud	-5894
ped	-5895
uit	-5896
uty	-5897
▁Em	-5898
▁Pr	-5899
▁Ro	-5900
agen	-5901
amin	-5902
band	-5903
born	-5904
face	-5905
fare	-5906
free	-5907
gery	-5908
hery	-5909
hips	-5910
iest	-5911
ihad	-5912
iled	-5913
imir	-5914
irac	-5915
long	-5916
made	-5917
nedy	-5918
ocqu	-5919
ords	-5920
pora	-5921
pril	-5922
rans	-5923
reme	-5924
sych	-5925
urch	-5926
well	-5927
▁$40	-5928
▁Adv	-5929
▁Ann	-5930
▁BER	-5931
▁Bet	-5932
▁CAP	-5933
▁Dec	-5934
▁Her	-5935
▁Hol	-5936
▁Lar	-5937
▁Mod	-5938
▁Off	-5939
▁Red	-5940
▁Rel	-5941
▁SDR	-5942
▁Tam	-5943
▁bea	-5944
▁bid	-5945
▁bon	-5946
▁bra	-5947
▁ded	-5948
▁dys	-5949
▁fal	-5950
▁fle	-5951
▁ice	-5952
▁inj	-5953
▁los	-5954
▁lux	-5955
▁mur	-5956
▁mus	-5957
▁quo	-5958
▁rid	-5959
▁sat	-5960
▁saw	-5961
▁swe	-5962
▁tim	-5963
▁upd	-5964
▁upg	-5965
adays	-5966
aired	-5967
asing	-5968
cious	-5969
eless	-5970
ellow	-5971
enced	-5972
icate	-5973
idden	-5974
inate	-5975
liers	-5976
ocent	-5977
ophob	-5978
orted	-5979
ounce	-5980
prime	-5981
ratic	-5982
ronts	-5983
▁1970	-5984
▁1980	-5985
▁2005	-5986
▁Coop	-5987
▁Fail	-5988
▁Gulf	-5989
▁Hill	-5990
▁Iron	-5991
▁Lead	-5992
▁Much	-5993
▁NCDs	-5994
▁Year	-5995
▁alle	-5996
▁ampl	-5997
▁bail	-5998
▁code	-5999
▁curb	-6000
▁date	-6001
▁didn	-6002
▁died	-6003
▁erad	-6004
▁grav	-6005
▁hear	-6006
▁kept	-6007
▁nets	-6008
▁none	-6009
▁outd	-6010
▁quot	-6011
▁reap	-6012
▁runs	-6013
▁seat	-6014
▁sets	-6015
▁stif	-6016
▁sums	-6017
▁wage	-6018
▁wake	-6019
arctic	-6020
ashion	-6021
aspora	-6022
depend	-6023
driven	-6024
estern	-6025
ieties	-6026
igrant	-6027
ioxide	-6028
ivered	-6029
rights	-6030
thirds	-6031
urance	-6032
▁1980’	-6033
▁2002,	-6034
▁2007,	-6035
▁2009,	-6036
▁2015.	-6037
▁2030,	-6038
▁Again	-6039
▁April	-6040
▁Chair	-6041
▁Court	-6042
▁Impro	-6043
▁Moroc	-6044
▁Prize	-6045
▁Tocqu	-6046
▁Worse	-6047
▁added	-6048
▁armed	-6049
▁badly	-6050
▁bolst	-6051
▁categ	-6052
▁chair	-6053
▁coast	-6054
▁embod	-6055
▁foods	-6056
▁holds	-6057
▁lacks	-6058
▁lived	-6059
▁logic	-6060
▁multi	-6061
▁novel	-6062
▁perip	-6063
▁pragm	-6064
▁react	-6065
▁recip	-6066
▁risen	-6067
▁risky	-6068
▁ruled	-6069
▁south	-6070
▁staff	-6071
gentina	-6072
ishment	-6073
ladimir	-6074
lihoods	-6075
raction	-6076
ultural	-6077
▁Academ	-6078
▁Depart	-6079
▁Korean	-6080
▁applic	-6081
▁apprec	-6082
▁assist	-6083
▁attrib	-6084
▁bigger	-6085
▁brings	-6086
▁cataly	-6087
▁denied	-6088
▁disast	-6089
▁ending	-6090
▁floods	-6091
▁houses	-6092
▁illust	-6093
▁invent	-6094
▁issued	-6095
▁latter	-6096
▁multin	-6097
▁namely	-6098
▁oppose	-6099
▁poorer	-6100
▁raises	-6101
▁relies	-6102
▁rescue	-6103
▁retail	-6104
▁senior	-6105
▁symbol	-6106
▁underw	-6107
▁unions	-6108
▁united	-6109
▁uphold	-6110
▁upward	-6111
▁voices	-6112
▁voting	-6113
▁weaker	-6114
cription	-6115
national	-6116
▁Affairs	-6117
▁Capital	-6118
▁Kennedy	-6119
▁Nicolas	-6120
▁Tunisia	-6121
▁broadly	-6122
▁calling	-6123
▁cheaper	-6124
▁collaps	-6125
▁declare	-6126
▁details	-6127
▁distrib	-6128
▁element	-6129
▁ethical	-6130
▁exposed	-6131
▁finding	-6132
▁focuses	-6133
▁imagine	-6134
▁joining	-6135
▁mindset	-6136
▁minimum	-6137
▁neglect	-6138
▁partial	-6139
▁pledged	-6140
▁secular	-6141
▁sharply	-6142
▁spectac	-6143
▁statist	-6144
▁treated	-6145
▁unknown	-6146
▁violent	-6147
▁wealthy	-6148
▁worried	-6149
Americans	-6150
▁accepted	-6151
▁actively	-6152
▁admitted	-6153
▁advances	-6154
▁boosting	-6155
▁chemical	-6156
▁coherent	-6157
▁dominate	-6158
▁elements	-6159
▁enduring	-6160
▁exercise	-6161
▁explicit	-6162
▁finances	-6163
▁flooding	-6164
▁informed	-6165
▁leverage	-6166
▁literacy	-6167
▁lowering	-6168
▁memories	-6169
▁mitigate	-6170
▁moderate	-6171
▁mortgage	-6172
▁released	-6173
▁soldiers	-6174
▁targeted	-6175
▁tendency	-6176
▁tomorrow	-6177
▁underest	-6178
▁underpin	-6179
▁Antarctic	-6180
▁Argentina	-6181
▁Countries	-6182
▁Education	-6183
▁Institute	-6184
▁Political	-6185
▁Represent	-6186
▁affecting	-6187
▁alliances	-6188
▁cognitive	-6189
▁construct	-6190
▁delivered	-6191
▁depressed	-6192
▁diversify	-6193
▁economist	-6194
▁emergency	-6195
▁emphasize	-6196
▁empirical	-6197
▁exclusive	-6198
▁expanding	-6199
▁happening	-6200
▁healthier	-6201
▁initially	-6202
▁integrate	-6203
▁involving	-6204
▁lawmakers	-6205
▁mortality	-6206
▁populists	-6207
▁positions	-6208
▁practical	-6209
▁processed	-6210
▁projected	-6211
▁prominent	-6212
▁sentiment	-6213
▁stabilize	-6214
▁succeeded	-6215
▁taxpayers	-6216
▁Bangladesh	-6217
▁Depression	-6218
▁accounting	-6219
▁affordable	-6220
▁apparently	-6221
▁curriculum	-6222
▁delivering	-6223
▁depression	-6224
▁disruption	-6225
▁exacerbate	-6226
▁foundation	-6227
▁identified	-6228
▁irrigation	-6229
▁meaningful	-6230
▁preventing	-6231
▁regulators	-6232
▁solidarity	-6233
▁stagnation	-6234
▁undermined	-6235
▁understood	-6236
governmental	-6237
▁Tocqueville	-6238
▁accompanied	-6239
▁affirmative	-6240
▁combination	-6241
▁contributed	-6242
▁destructive	-6243
▁dysfunction	-6244
▁enterprises	-6245
▁ideological	-6246
▁inefficient	-6247
▁influential	-6248
▁liabilities	-6249
▁livelihoods	-6250
▁nationalism	-6251
▁nationalist	-6252
▁possibility	-6253
▁territorial	-6254
▁historically	-6255
▁implementing	-6256
▁independence	-6257
▁sufficiently	-6258
▁characterized	-6259
▁determination	-6260
▁indispensable	-6261
▁multinational	-6262
▁professionals	-6263
▁proliferation	-6264
▁vulnerability	-6265
▁administrative	-6266
25	-6267
80	-6268
BI	-6269
ET	-6270
Sh	-6271
Th	-6272
iu	-6273
sm	-6274
zb	-6275
cla	-6276
cut	-6277
eth	-6278
gen	-6279
ham	-6280
hev	-6281
iar	-6282
kel	-6283
map	-6284
mpt	-6285
ocu	-6286
rif	-6287
rud	-6288
rue	-6289
sch	-6290
sey	-6291
sts	-6292
xic	-6293
ymm	-6294
▁$8	-6295
▁14	-6296
▁6.	-6297
▁IT	-6298
▁Us	-6299
abwe	-6300
adly	-6301
athy	-6302
card	-6303
case	-6304
coni	-6305
enom	-6306
enry	-6307
eron	-6308
gain	-6309
igor	-6310
ikes	-6311
ilty	-6312
itor	-6313
kish	-6314
mans	-6315
moil	-6316
ocal	-6317
oked	-6318
oles	-6319
pple	-6320
rase	-6321
rete	-6322
rown	-6323
ruck	-6324
soft	-6325
ught	-6326
unch	-6327
wood	-6328
▁$10	-6329
▁$20	-6330
▁20%	-6331
▁25%	-6332
▁ACA	-6333
▁Abd	-6334
▁Arm	-6335
▁Bro	-6336
▁Cal	-6337
▁Cle	-6338
▁Cop	-6339
▁Dar	-6340
▁Dav	-6341
▁Don	-6342
▁Ice	-6343
▁Imm	-6344
▁Inc	-6345
▁Job	-6346
▁Liu	-6347
▁MAD	-6348
▁Out	-6349
▁Reg	-6350
▁Rom	-6351
▁Sol	-6352
▁Sup	-6353
▁Too	-6354
▁Who	-6355
▁Yes	-6356
▁You	-6357
▁ben	-6358
▁bes	-6359
▁die	-6360
▁hab	-6361
▁hub	-6362
▁lag	-6363
▁mel	-6364
▁nav	-6365
▁ran	-6366
Japan	-6367
abled	-6368
agger	-6369
archy	-6370
arely	-6371
eling	-6372
epend	-6373
ested	-6374
hemat	-6375
ifest	-6376
iling	-6377
inces	-6378
lande	-6379
mptom	-6380
okest	-6381
ollah	-6382
orpor	-6383
otics	-6384
ource	-6385
style	-6386
unity	-6387
vered	-6388
▁$100	-6389
▁1930	-6390
▁1945	-6391
▁Hezb	-6392
▁Hong	-6393
▁Kong	-6394
▁Mand	-6395
▁Marx	-6396
▁Paul	-6397
▁Rudd	-6398
▁Sino	-6399
▁True	-6400
▁Wall	-6401
▁Wang	-6402
▁cong	-6403
▁cool	-6404
▁dign	-6405
▁drag	-6406
▁ease	-6407
▁east	-6408
▁ends	-6409
▁film	-6410
▁forg	-6411
▁fulf	-6412
▁gets	-6413
▁gold	-6414
▁grim	-6415
▁heat	-6416
▁hier	-6417
▁lock	-6418
▁loom	-6419
▁ment	-6420
▁pick	-6421
▁pref	-6422
▁reck	-6423
▁roll	-6424
▁roof	-6425
▁sake	-6426
▁sons	-6427
▁unus	-6428
▁vent	-6429
▁wild	-6430
itated	-6431
mitted	-6432
mother	-6433
onesia	-6434
pected	-6435
rading	-6436
rators	-6437
redict	-6438
uggish	-6439
undera	-6440
urbing	-6441
▁2004,	-6442
▁2005,	-6443
▁2016,	-6444
▁Among	-6445
▁Armen	-6446
▁Congo	-6447
▁Elect	-6448
▁Hamas	-6449
▁White	-6450
▁accum	-6451
▁annex	-6452
▁asymm	-6453
▁cycle	-6454
▁defin	-6455
▁dimin	-6456
▁eager	-6457
▁enlar	-6458
▁escal	-6459
▁gives	-6460
▁imped	-6461
▁kinds	-6462
▁night	-6463
▁overn	-6464
▁penal	-6465
▁plays	-6466
▁quiet	-6467
▁rebal	-6468
▁secur	-6469
▁sheet	-6470
▁signs	-6471
▁spill	-6472
▁spoke	-6473
▁teach	-6474
▁thres	-6475
▁usual	-6476
▁voice	-6477
▁wider	-6478
comings	-6479
enhagen	-6480
enomics	-6481
erately	-6482
imbabwe	-6483
istence	-6484
mission	-6485
ortions	-6486
riendly	-6487
roughts	-6488
society	-6489
▁Chirac	-6490
▁Cyprus	-6491
▁Malays	-6492
▁Merkel	-6493
▁Nether	-6494
▁Others	-6495
▁Prince	-6496
▁Rather	-6497
▁Resear	-6498
▁School	-6499
▁Syrian	-6500
▁absorb	-6501
▁approx	-6502
▁attain	-6503
▁attend	-6504
▁bubble	-6505
▁circle	-6506
▁cooper	-6507
▁courts	-6508
▁crimin	-6509
▁decide	-6510
▁dispos	-6511
▁fixing	-6512
▁flight	-6513
▁forget	-6514
▁guilty	-6515
▁hiring	-6516
▁joined	-6517
▁killed	-6518
▁legisl	-6519
▁lifest	-6520
▁listen	-6521
▁looked	-6522
▁metric	-6523
▁modest	-6524
▁occurs	-6525
▁pestic	-6526
▁poison	-6527
▁presum	-6528
▁prompt	-6529
▁proven	-6530
▁redist	-6531
▁refuse	-6532
▁relent	-6533
▁relief	-6534
▁remote	-6535
▁satisf	-6536
▁series	-6537
▁shares	-6538
▁silent	-6539
▁slowed	-6540
▁spring	-6541
▁strict	-6542
▁thanks	-6543
▁tragic	-6544
▁writer	-6545
levision	-6546
okestack	-6547
ollywood	-6548
quarters	-6549
▁Against	-6550
▁Environ	-6551
▁Francis	-6552
▁Indians	-6553
▁Kundera	-6554
▁Morocco	-6555
▁Supreme	-6556
▁Through	-6557
▁Turkish	-6558
▁Whereas	-6559
▁ancient	-6560
▁arguing	-6561
▁artific	-6562
▁binding	-6563
▁capture	-6564
▁claimed	-6565
▁college	-6566
▁concept	-6567
▁content	-6568
▁courage	-6569
▁disrupt	-6570
▁diverse	-6571
▁enemies	-6572
▁engaged	-6573
▁exactly	-6574
▁immense	-6575
▁inherit	-6576
▁initial	-6577
▁inspire	-6578
▁install	-6579
▁intract	-6580
▁missing	-6581
▁outlook	-6582
▁planned	-6583
▁pursuit	-6584
▁ranging	-6585
▁regular	-6586
▁removed	-6587
▁reports	-6588
▁reserve	-6589
▁restric	-6590
▁someone	-6591
▁symptom	-6592
▁turmoil	-6593
▁utility	-6594
▁variety	-6595
▁wedding	-6596
ederation	-6597
▁Assembly	-6598
▁Hollande	-6599
▁Northern	-6600
▁adopting	-6601
▁anywhere	-6602
▁appeared	-6603
▁believes	-6604
▁concrete	-6605
▁creative	-6606
▁damaging	-6607
▁discoura	-6608
▁distingu	-6609
▁dividend	-6610
▁dominant	-6611
▁droughts	-6612
▁extremes	-6613
▁failures	-6614
▁features	-6615
▁feminism	-6616
▁frequent	-6617
▁imperial	-6618
▁imposing	-6619
▁indicate	-6620
▁innocent	-6621
▁instance	-6622
▁intended	-6623
▁invasion	-6624
▁mobility	-6625
▁neighbor	-6626
▁nowadays	-6627
▁observed	-6628
▁occasion	-6629
▁opinions	-6630
▁overlook	-6631
▁preserve	-6632
▁produces	-6633
▁reaction	-6634
▁regarded	-6635
▁replaced	-6636
▁resident	-6637
▁resulted	-6638
▁reversed	-6639
▁sluggish	-6640
▁strongly	-6641
▁tackling	-6642
▁teaching	-6643
▁treaties	-6644
▁visiting	-6645
▁worrying	-6646
▁Hezbollah	-6647
▁Indonesia	-6648
▁Palestine	-6649
▁algorithm	-6650
▁arguments	-6651
▁attracted	-6652
▁borrowers	-6653
▁civilians	-6654
▁component	-6655
▁concluded	-6656
▁diagnosed	-6657
▁dictators	-6658
▁discourse	-6659
▁dividends	-6660
▁electoral	-6661
▁equitable	-6662
▁exclusion	-6663
▁exporters	-6664
▁generated	-6665
▁injustice	-6666
▁intention	-6667
▁landscape	-6668
▁medicines	-6669
▁nutrition	-6670
▁organized	-6671
▁overnight	-6672
▁oversight	-6673
▁ownership	-6674
▁proposals	-6675
▁successes	-6676
▁surpluses	-6677
▁threshold	-6678
▁workplace	-6679
▁Chancellor	-6680
▁Conference	-6681
▁Copenhagen	-6682
▁Developing	-6683
▁Mastercard	-6684
▁aggression	-6685
▁aggressive	-6686
▁assumption	-6687
▁compelling	-6688
▁executives	-6689
▁expectancy	-6690
▁extremists	-6691
▁inevitably	-6692
▁infectious	-6693
▁insecurity	-6694
▁mobilizing	-6695
▁persistent	-6696
▁phenomenon	-6697
▁reasonable	-6698
▁reassuring	-6699
▁reinforced	-6700
▁resentment	-6701
▁suggesting	-6702
▁telecommun	-6703
▁violations	-6704
▁Cooperation	-6705
▁Netherlands	-6706
▁arrangement	-6707
▁aspirations	-6708
▁consequence	-6709
▁enforcement	-6710
▁grandmother	-6711
▁journalists	-6712
▁maintaining	-6713
▁nonetheless	-6714
▁operational	-6715
▁predictable	-6716
▁revolutions	-6717
▁statistical	-6718
▁transformed	-6719
▁underscores	-6720
▁architecture	-6721
▁capabilities	-6722
▁deleveraging	-6723
▁devaluations	-6724
▁economically	-6725
▁expectations	-6726
▁fundamentals	-6727
▁generational	-6728
▁geopolitical	-6729
▁humanitarian	-6730
▁predecessors	-6731
▁shortcomings	-6732
▁surprisingly	-6733
▁unacceptable	-6734
▁urbanization	-6735
▁approximately	-6736
▁breakthroughs	-6737
▁collaborative	-6738
▁deforestation	-6739
▁dysfunctional	-6740
▁revolutionary	-6741
▁transatlantic	-6742
▁demonstrations	-6743
▁interconnected	-6744
▁representation	-6745
▁understandable	-6746
▁superconductors	-6747
6,	-6748
8.	-6749
CE	-6750
CP	-6751
EU	-6752
IT	-6753
NA	-6754
TA	-6755
eu	-6756
kj	-6757
na	-6758
oo	-6759
po	-6760
GBT	-6761
Ivo	-6762
Kin	-6763
aug	-6764
bod	-6765
bra	-6766
bur	-6767
dem	-6768
eff	-6769
egu	-6770
ein	-6771
ela	-6772
era	-6773
fol	-6774
ili	-6775
ilk	-6776
iph	-6777
isc	-6778
ius	-6779
jud	-6780
ole	-6781
olf	-6782
osc	-6783
ply	-6784
roc	-6785
she	-6786
sum	-6787
tun	-6788
vis	-6789
yal	-6790
ykj	-6791
▁(1	-6792
▁17	-6793
▁5.	-6794
▁70	-6795
▁Bh	-6796
▁El	-6797
▁PR	-6798
▁Ph	-6799
▁Sm	-6800
aden	-6801
ador	-6802
alog	-6803
arks	-6804
asty	-6805
avik	-6806
bond	-6807
book	-6808
cked	-6809
cost	-6810
eing	-6811
elta	-6812
emed	-6813
etic	-6814
feld	-6815
fuel	-6816
fund	-6817
gedy	-6818
gers	-6819
gred	-6820
greg	-6821
happ	-6822
iful	-6823
inst	-6824
ione	-6825
lude	-6826
math	-6827
ocol	-6828
ogle	-6829
pass	-6830
prof	-6831
rand	-6832
rank	-6833
rity	-6834
rive	-6835
rous	-6836
such	-6837
turn	-6838
uber	-6839
ults	-6840
▁$50	-6841
▁1.7	-6842
▁11,	-6843
▁202	-6844
▁350	-6845
▁90%	-6846
▁Age	-6847
▁Are	-6848
▁Ben	-6849
▁Cur	-6850
▁Def	-6851
▁Few	-6852
▁ICT	-6853
▁Law	-6854
▁Sea	-6855
▁WHO	-6856
▁ast	-6857
▁cab	-6858
▁cha	-6859
▁cyn	-6860
▁dog	-6861
▁dub	-6862
▁fan	-6863
▁fro	-6864
▁fru	-6865
▁hat	-6866
▁mag	-6867
▁pul	-6868
▁sad	-6869
▁unb	-6870
▁vac	-6871
▁via	-6872
backs	-6873
craft	-6874
dered	-6875
emics	-6876
endas	-6877
ilemm	-6878
inery	-6879
kesov	-6880
lined	-6881
nting	-6882
olera	-6883
opoly	-6884
oston	-6885
osure	-6886
ounds	-6887
perts	-6888
point	-6889
print	-6890
redit	-6891
rible	-6892
rives	-6893
stems	-6894
trans	-6895
vable	-6896
yield	-6897
▁$500	-6898
▁2030	-6899
▁Alex	-6900
▁Camb	-6901
▁Cher	-6902
▁Emer	-6903
▁Good	-6904
▁Hist	-6905
▁Hung	-6906
▁Kamp	-6907
▁Krem	-6908
▁Land	-6909
▁Next	-6910
▁Sing	-6911
▁aris	-6912
▁arts	-6913
▁baby	-6914
▁biod	-6915
▁boys	-6916
▁brib	-6917
▁bust	-6918
▁cart	-6919
▁corn	-6920
▁coun	-6921
▁cycl	-6922
▁desp	-6923
▁docu	-6924
▁elim	-6925
▁enth	-6926
▁evil	-6927
▁exit	-6928
▁felt	-6929
▁flaw	-6930
▁gaps	-6931
▁girl	-6932
▁gras	-6933
▁grid	-6934
▁guid	-6935
▁hell	-6936
▁hire	-6937
▁kick	-6938
▁leak	-6939
▁lobb	-6940
▁melt	-6941
▁mira	-6942
▁myth	-6943
▁nine	-6944
▁pict	-6945
▁pret	-6946
▁puts	-6947
▁rock	-6948
▁spot	-6949
▁star	-6950
▁subt	-6951
▁tons	-6952
▁toug	-6953
▁trap	-6954
▁triv	-6955
▁turb	-6956
▁unit	-6957
▁unle	-6958
▁unne	-6959
▁vice	-6960
▁warm	-6961
Ivoire	-6962
Kinsey	-6963
acking	-6964
adjust	-6965
econom	-6966
elines	-6967
ewater	-6968
gments	-6969
growth	-6970
imated	-6971
iments	-6972
liance	-6973
mentia	-6974
nesses	-6975
orious	-6976
ptions	-6977
recogn	-6978
tering	-6979
urable	-6980
ureate	-6981
▁2006,	-6982
▁2006.	-6983
▁2030.	-6984
▁Board	-6985
▁Delta	-6986
▁Doing	-6987
▁Inter	-6988
▁Labor	-6989
▁Major	-6990
▁Peace	-6991
▁Power	-6992
▁Reykj	-6993
▁Three	-6994
▁Water	-6995
▁breat	-6996
▁chief	-6997
▁cloud	-6998
▁clout	-6999
▁conce	-7000
▁digit	-7001
▁disag	-7002
▁doorm	-7003
▁earth	-7004
▁facts	-7005
▁farms	-7006
▁finds	-7007
▁forge	-7008
▁giant	-7009
▁grass	-7010
▁harsh	-7011
▁heavy	-7012
▁homes	-7013
▁honor	-7014
▁horiz	-7015
▁hydro	-7016
▁jihad	-7017
▁marry	-7018
▁match	-7019
▁moves	-7020
▁music	-7021
▁phone	-7022
▁pride	-7023
▁print	-7024
▁psych	-7025
▁remor	-7026
▁rival	-7027
▁roads	-7028
▁sheer	-7029
▁surge	-7030
▁tends	-7031
▁topic	-7032
▁train	-7033
▁trees	-7034
▁uncon	-7035
▁worry	-7036
Pacific	-7037
alities	-7038
ariably	-7039
ervices	-7040
igating	-7041
induced	-7042
largest	-7043
lusconi	-7044
ologist	-7045
onomics	-7046
ophobia	-7047
quarter	-7048
service	-7049
tection	-7050
verages	-7051
▁Before	-7052
▁Bosnia	-7053
▁Boston	-7054
▁Carter	-7055
▁Change	-7056
▁Growth	-7057
▁MADRID	-7058
▁Ronald	-7059
▁Scient	-7060
▁Unless	-7061
▁active	-7062
▁analog	-7063
▁argues	-7064
▁backed	-7065
▁blamed	-7066
▁bodies	-7067
▁consid	-7068
▁couple	-7069
▁dearth	-7070
▁decent	-7071
▁degrad	-7072
▁dispar	-7073
▁evolve	-7074
▁excell	-7075
▁exclus	-7076
▁fellow	-7077
▁funded	-7078
▁impair	-7079
▁ingred	-7080
▁inputs	-7081
▁letter	-7082
▁lifted	-7083
▁manner	-7084
▁oldest	-7085
▁permit	-7086
▁philos	-7087
▁poorly	-7088
▁preced	-7089
▁procla	-7090
▁racial	-7091
▁resemb	-7092
▁reveal	-7093
▁safegu	-7094
▁shaped	-7095
▁spirit	-7096
▁sports	-7097
▁stance	-7098
▁steady	-7099
▁string	-7100
▁struck	-7101
▁tackle	-7102
▁unrest	-7103
▁virtue	-7104
▁visits	-7105
▁waters	-7106
▁wisdom	-7107
▁wishes	-7108
adjusted	-7109
arations	-7110
chnology	-7111
imension	-7112
olerance	-7113
oriented	-7114
▁Clearly	-7115
▁Closing	-7116
▁Failure	-7117
▁Farmers	-7118
▁Germans	-7119
▁Hillary	-7120
▁Hungary	-7121
▁Increas	-7122
▁Iranian	-7123
▁Kampala	-7124
▁Kremlin	-7125
▁Malaria	-7126
▁Mandela	-7127
▁Mexican	-7128
▁Neither	-7129
▁Summers	-7130
▁agendas	-7131
▁aggress	-7132
▁assumes	-7133
▁backing	-7134
▁chances	-7135
▁charges	-7136
▁citizen	-7137
▁clients	-7138
▁compete	-7139
▁confirm	-7140
▁convinc	-7141
▁default	-7142
▁devices	-7143
▁devoted	-7144
▁dissent	-7145
▁distant	-7146
▁drivers	-7147
▁earning	-7148
▁employs	-7149
▁enables	-7150
▁enacted	-7151
▁erupted	-7152
▁fallout	-7153
▁forests	-7154
▁fueling	-7155
▁gaining	-7156
▁granted	-7157
▁harmful	-7158
▁islands	-7159
▁lacking	-7160
▁methods	-7161
▁metrics	-7162
▁painful	-7163
▁paradig	-7164
▁portfol	-7165
▁prolong	-7166
▁pursued	-7167
▁refugee	-7168
▁richest	-7169
▁rightly	-7170
▁scandal	-7171
▁serving	-7172
▁showing	-7173
▁strikes	-7174
▁teacher	-7175
▁tension	-7176
▁tragedy	-7177
▁trivial	-7178
▁utterly	-7179
▁waiting	-7180
▁warfare	-7181
ciliation	-7182
efficient	-7183
including	-7184
ressional	-7185
▁Atlantic	-7186
▁Islamist	-7187
▁Israelis	-7188
▁Malaysia	-7189
▁McKinsey	-7190
▁Medicaid	-7191
▁Progress	-7192
▁Research	-7193
▁academia	-7194
▁arrested	-7195
▁attempts	-7196
▁attitude	-7197
▁blocking	-7198
▁breaking	-7199
▁daunting	-7200
▁deprived	-7201
▁destined	-7202
▁deterior	-7203
▁diaspora	-7204
▁distance	-7205
▁emphasis	-7206
▁engineer	-7207
▁explains	-7208
▁exposure	-7209
▁governed	-7210
▁hegemony	-7211
▁imported	-7212
▁impunity	-7213
▁inaction	-7214
▁incident	-7215
▁integral	-7216
▁interact	-7217
▁laureate	-7218
▁manifest	-7219
▁marriage	-7220
▁monopoly	-7221
▁mounting	-7222
▁outdated	-7223
▁packages	-7224
▁rainfall	-7225
▁reliance	-7226
▁remember	-7227
▁restored	-7228
▁separate	-7229
▁stranger	-7230
▁striking	-7231
▁superior	-7232
▁systemic	-7233
▁terrible	-7234
▁troubled	-7235
▁unnecess	-7236
▁upcoming	-7237
▁whatever	-7238
▁Abenomics	-7239
▁Algerians	-7240
▁Cambridge	-7241
▁Cherkesov	-7242
▁Democracy	-7243
▁Islamists	-7244
▁Reykjavik	-7245
▁accepting	-7246
▁aftermath	-7247
▁appealing	-7248
▁certainty	-7249
▁childhood	-7250
▁combating	-7251
▁competing	-7252
▁computers	-7253
▁confident	-7254
▁conscious	-7255
▁contained	-7256
▁creditors	-7257
▁criminals	-7258
▁denounced	-7259
▁describes	-7260
▁directors	-7261
▁discussed	-7262
▁displaced	-7263
▁divisions	-7264
▁dominance	-7265
▁emotional	-7266
▁factories	-7267
▁gradually	-7268
▁historian	-7269
▁inability	-7270
▁initiated	-7271
▁machinery	-7272
▁operation	-7273
▁patriarch	-7274
▁perceived	-7275
▁platforms	-7276
▁presented	-7277
▁receiving	-7278
▁recovered	-7279
▁reflected	-7280
▁rejection	-7281
▁requiring	-7282
▁resolving	-7283
▁sectarian	-7284
▁seemingly	-7285
▁stimulate	-7286
▁suggested	-7287
▁suppliers	-7288
▁weakening	-7289
▁witnessed	-7290
development	-7291
▁Berlusconi	-7292
▁Convention	-7293
▁Department	-7294
▁accessible	-7295
▁accurately	-7296
▁advantages	-7297
▁artificial	-7298
▁asymmetric	-7299
▁collection	-7300
▁complexity	-7301
▁constitute	-7302
▁controlled	-7303
▁creativity	-7304
▁disturbing	-7305
▁ecological	-7306
▁encourages	-7307
▁experiment	-7308
▁globalized	-7309
▁guarantees	-7310
▁insurgents	-7311
▁invariably	-7312
▁politician	-7313
▁popularity	-7314
▁prevention	-7315
▁prosperous	-7316
▁rainforest	-7317
▁securities	-7318
▁television	-7319
withstanding	-7320
▁Agriculture	-7321
▁Governments	-7322
▁algorithmic	-7323
▁approaching	-7324
▁competitors	-7325
▁consolidate	-7326
▁contributes	-7327
▁controversy	-7328
▁desperately	-7329
▁experiences	-7330
▁flexibility	-7331
▁forthcoming	-7332
▁interdepend	-7333
▁involvement	-7334
▁obligations	-7335
▁problematic	-7336
▁recognizing	-7337
▁recommended	-7338
▁supervision	-7339
▁traffickers	-7340
▁transparent	-7341
▁vaccination	-7342
▁Constitution	-7343
▁Nevertheless	-7344
▁Trumponomics	-7345
▁achievements	-7346
▁aggressively	-7347
▁biodiversity	-7348
▁catastrophic	-7349
▁collectively	-7350
▁considerably	-7351
▁constructive	-7352
▁disabilities	-7353
▁entrepreneur	-7354
▁instrumental	-7355
▁overwhelming	-7356
▁participants	-7357
▁shareholders	-7358
▁transmission	-7359
▁demonstrating	-7360
▁disappointing	-7361
▁parliamentary	-7362
▁traditionally	-7363
▁communications	-7364
▁industrialized	-7365
▁overwhelmingly	-7366
▁reconciliation	-7367
▁simultaneously	-7368
▁unconventional	-7369
▁fundamentalists	-7370
▁representatives	-7371
99	-7372
AI	-7373
AT	-7374
Al	-7375
BU	-7376
CS	-7377
EY	-7378
Es	-7379
IR	-7380
PP	-7381
RA	-7382
RC	-7383
WI	-7384
dd	-7385
gs	-7386
no	-7387
tw	-7388
yo	-7389
CAO	-7390
CID	-7391
FTA	-7392
HAN	-7393
KEL	-7394
New	-7395
ani	-7396
aur	-7397
dig	-7398
eas	-7399
fur	-7400
gay	-7401
how	-7402
ife	-7403
inh	-7404
inz	-7405
ips	-7406
kin	-7407
lim	-7408
log	-7409
oha	-7410
rum	-7411
sky	-7412
tle	-7413
uba	-7414
uck	-7415
van	-7416
wed	-7417
zen	-7418
▁1,	-7419
▁21	-7420
▁35	-7421
▁4%	-7422
▁BE	-7423
▁BR	-7424
▁HA	-7425
▁Ki	-7426
▁Ol	-7427
▁sn	-7428
ARIS	-7429
Shia	-7430
anks	-7431
ball	-7432
cean	-7433
cend	-7434
cles	-7435
drop	-7436
emen	-7437
eted	-7438
fold	-7439
ford	-7440
ials	-7441
iary	-7442
iche	-7443
icon	-7444
imal	-7445
itiv	-7446
ivot	-7447
moon	-7448
okyo	-7449
ooth	-7450
orld	-7451
owed	-7452
pper	-7453
radu	-7454
rees	-7455
rine	-7456
risy	-7457
roll	-7458
sels	-7459
step	-7460
teen	-7461
uity	-7462
usal	-7463
▁$1.	-7464
▁101	-7465
▁15%	-7466
▁191	-7467
▁2.5	-7468
▁Air	-7469
▁Bel	-7470
▁BoJ	-7471
▁Del	-7472
▁Emp	-7473
▁Inf	-7474
▁Kim	-7475
▁Lag	-7476
▁Lee	-7477
▁Mat	-7478
▁PCA	-7479
▁Pat	-7480
▁Ren	-7481
▁San	-7482
▁WWI	-7483
▁aug	-7484
▁bed	-7485
▁cod	-7486
▁cra	-7487
▁cri	-7488
▁fed	-7489
▁fun	-7490
▁geo	-7491
▁ham	-7492
▁hed	-7493
▁hus	-7494
▁lad	-7495
▁lay	-7496
▁lit	-7497
▁meg	-7498
▁nom	-7499
▁pil	-7500
▁rig	-7501
▁spl	-7502
▁sta	-7503
▁tap	-7504
▁unm	-7505
▁vit	-7506
▁yes	-7507
KELEY	-7508
after	-7509
ander	-7510
apers	-7511
apore	-7512
chand	-7513
child	-7514
const	-7515
early	-7516
elong	-7517
ength	-7518
enter	-7519
eping	-7520
erved	-7521
euver	-7522
fired	-7523
front	-7524
gence	-7525
gered	-7526
iants	-7527
icing	-7528
ierce	-7529
iforn	-7530
inter	-7531
itage	-7532
oking	-7533
opher	-7534
ordan	-7535
oscow	-7536
ostic	-7537
othes	-7538
overs	-7539
owing	-7540
owned	-7541
parts	-7542
roots	-7543
trade	-7544
ullah	-7545
uracy	-7546
▁1991	-7547
▁2.5%	-7548
▁2001	-7549
▁2002	-7550
▁2007	-7551
▁3.5%	-7552
▁Alas	-7553
▁Bern	-7554
▁Bill	-7555
▁Bret	-7556
▁Coal	-7557
▁Doha	-7558
▁Each	-7559
▁Face	-7560
▁Gand	-7561
▁ICAO	-7562
▁Jobs	-7563
▁LGBT	-7564
▁Less	-7565
▁Mali	-7566
▁Maur	-7567
▁Mich	-7568
▁Mont	-7569
▁Muse	-7570
▁Path	-7571
▁Peru	-7572
▁Poor	-7573
▁Prom	-7574
▁Rich	-7575
▁Road	-7576
▁SCID	-7577
▁Stat	-7578
▁Wood	-7579
▁acts	-7580
▁aven	-7581
▁awak	-7582
▁bloc	-7583
▁blow	-7584
▁brid	-7585
▁cham	-7586
▁cope	-7587
▁coup	-7588
▁crus	-7589
▁diet	-7590
▁dust	-7591
▁elev	-7592
▁epic	-7593
▁epis	-7594
▁erod	-7595
▁eval	-7596
▁fade	-7597
▁fine	-7598
▁halt	-7599
▁hect	-7600
▁heed	-7601
▁irre	-7602
▁laid	-7603
▁lest	-7604
▁loan	-7605
▁mild	-7606
▁mood	-7607
▁note	-7608
▁onto	-7609
▁outs	-7610
▁perv	-7611
▁pill	-7612
▁pull	-7613
▁rare	-7614
▁sale	-7615
▁seas	-7616
▁suit	-7617
▁tail	-7618
▁tide	-7619
▁unex	-7620
▁vary	-7621
▁vind	-7622
▁wait	-7623
▁wors	-7624
alling	-7625
arians	-7626
engine	-7627
ictory	-7628
invest	-7629
ivable	-7630
ocrisy	-7631
panies	-7632
racted	-7633
rowley	-7634
school	-7635
▁1977,	-7636
▁1989,	-7637
▁2008.	-7638
▁2013.	-7639
▁Annan	-7640
▁Assad	-7641
▁Blair	-7642
▁Child	-7643
▁Dream	-7644
▁Einst	-7645
▁Engel	-7646
▁Fried	-7647
▁Hamid	-7648
▁James	-7649
▁Large	-7650
▁PARIS	-7651
▁Sadly	-7652
▁Shinz	-7653
▁Tokyo	-7654
▁Young	-7655
▁alien	-7656
▁apart	-7657
▁bills	-7658
▁blind	-7659
▁catch	-7660
▁depth	-7661
▁dozen	-7662
▁drove	-7663
▁dwell	-7664
▁elite	-7665
▁embar	-7666
▁enemy	-7667
▁flags	-7668
▁fraud	-7669
▁grave	-7670
▁guess	-7671
▁heads	-7672
▁inaug	-7673
▁loyal	-7674
▁midst	-7675
▁motor	-7676
▁north	-7677
▁noted	-7678
▁onset	-7679
▁ought	-7680
▁owned	-7681
▁peers	-7682
▁pharm	-7683
▁pione	-7684
▁plaus	-7685
▁plumm	-7686
▁poses	-7687
▁repud	-7688
▁reput	-7689
▁revel	-7690
▁route	-7691
▁skill	-7692
▁slack	-7693
▁socio	-7694
▁stret	-7695
▁strid	-7696
▁teams	-7697
▁touch	-7698
▁towns	-7699
▁toxic	-7700
▁trial	-7701
▁trump	-7702
▁types	-7703
▁unite	-7704
▁verge	-7705
▁voted	-7706
▁votes	-7707
▁weigh	-7708
▁wheat	-7709
African	-7710
athetic	-7711
atories	-7712
changed	-7713
culosis	-7714
economy	-7715
embered	-7716
forward	-7717
herence	-7718
ifornia	-7719
ilation	-7720
iration	-7721
lfriend	-7722
osition	-7723
ouncing	-7724
perform	-7725
product	-7726
ratives	-7727
reement	-7728
renched	-7729
support	-7730
tenance	-7731
version	-7732
▁Action	-7733
▁Almost	-7734
▁Author	-7735
▁Balkan	-7736
▁Colomb	-7737
▁Confuc	-7738
▁Crisis	-7739
▁Energy	-7740
▁Former	-7741
▁Google	-7742
▁Jordan	-7743
▁Kenyan	-7744
▁League	-7745
▁Moscow	-7746
▁Should	-7747
▁Simply	-7748
▁Stalin	-7749
▁Unlike	-7750
▁advent	-7751
▁ambass	-7752
▁anemic	-7753
▁asking	-7754
▁barely	-7755
▁behave	-7756
▁bloody	-7757
▁bought	-7758
▁bridge	-7759
▁bright	-7760
▁counts	-7761
▁cultiv	-7762
▁deemed	-7763
▁dilemm	-7764
▁doctor	-7765
▁domain	-7766
▁dozens	-7767
▁dreams	-7768
▁driver	-7769
▁enthus	-7770
▁exists	-7771
▁explan	-7772
▁explos	-7773
▁feared	-7774
▁fierce	-7775
▁filled	-7776
▁fronts	-7777
▁gained	-7778
▁grants	-7779
▁harmon	-7780
▁hatred	-7781
▁height	-7782
▁heroin	-7783
▁hidden	-7784
▁hungry	-7785
▁incarn	-7786
▁incite	-7787
▁indiff	-7788
▁intent	-7789
▁inward	-7790
▁island	-7791
▁jailed	-7792
▁judged	-7793
▁length	-7794
▁lowest	-7795
▁overse	-7796
▁plural	-7797
▁proced	-7798
▁ranked	-7799
▁ratify	-7800
▁relied	-7801
▁reluct	-7802
▁replic	-7803
▁review	-7804
▁richer	-7805
▁rolled	-7806
▁ruling	-7807
▁shocks	-7808
▁signal	-7809
▁smooth	-7810
▁sooner	-7811
▁stages	-7812
▁stream	-7813
▁street	-7814
▁strife	-7815
▁strike	-7816
▁subtle	-7817
▁suspic	-7818
▁unfair	-7819
▁unreal	-7820
▁versus	-7821
▁victim	-7822
▁volume	-7823
▁weaken	-7824
▁whites	-7825
▁worsen	-7826
building	-7827
chandise	-7828
changing	-7829
ervation	-7830
financed	-7831
friendly	-7832
interest	-7833
learning	-7834
regional	-7835
resource	-7836
▁Already	-7837
▁Armenia	-7838
▁Balkans	-7839
▁Banking	-7840
▁Cameron	-7841
▁Economy	-7842
▁Equally	-7843
▁Georgia	-7844
▁Iceland	-7845
▁Justice	-7846
▁Leaders	-7847
▁Liberal	-7848
▁Network	-7849
▁Science	-7850
▁Similar	-7851
▁Wangari	-7852
▁acquire	-7853
▁affects	-7854
▁alleged	-7855
▁answers	-7856
▁anxiety	-7857
▁arrived	-7858
▁aspects	-7859
▁assault	-7860
▁assured	-7861
▁avoided	-7862
▁bailout	-7863
▁brother	-7864
▁burdens	-7865
▁cabinet	-7866
▁careers	-7867
▁careful	-7868
▁carried	-7869
▁cartels	-7870
▁charter	-7871
▁cholera	-7872
▁closing	-7873
▁compact	-7874
▁condemn	-7875
▁confron	-7876
▁contest	-7877
▁convers	-7878
▁desired	-7879
▁destiny	-7880
▁dioxide	-7881
▁dismant	-7882
▁emulate	-7883
▁enabled	-7884
▁enlarge	-7885
▁ensuing	-7886
▁entered	-7887
▁expects	-7888
▁express	-7889
▁fashion	-7890
▁favored	-7891
▁forcing	-7892
▁foresee	-7893
▁handful	-7894
▁hegemon	-7895
▁herself	-7896
▁hostile	-7897
▁husband	-7898
▁killing	-7899
▁logging	-7900
▁logical	-7901
▁melting	-7902
▁millenn	-7903
▁offices	-7904
▁outrage	-7905
▁paralle	-7906
▁passing	-7907
▁periods	-7908
▁picture	-7909
▁plaques	-7910
▁pricing	-7911
▁publish	-7912
▁restaur	-7913
▁revival	-7914
▁schemes	-7915
▁shifted	-7916
▁sincere	-7917
▁soaring	-7918
▁stagger	-7919
▁stalled	-7920
▁stories	-7921
▁suffers	-7922
▁	-7923
e	-7924
t	-7925
a	-7926
i	-7927
n	-7928
o	-7929
r	-7930
s	-7931
l	-7932
h	-7933
c	-7934
d	-7935
u	-7936
m	-7937
p	-7938
f	-7939
g	-7940
y	-7941
w	-7942
b	-7943
,	-7944
v	-7945
.	-7946
k	-7947
A	-7948
T	-7949
-	-7950
I	-7951
’	-7952
S	-7953
x	-7954
0	-7955
B	-7956
C	-7957
E	-7958
U	-7959
–	-7960
z	-7961
1	-7962
M	-7963
W	-7964
P	-7965
2	-7966
j	-7967
D	-7968
q	-7969
N	-7970
F	-7971
G	-7972
O	-7973
R	-7974
“	-7975
”	-7976
H	-7977
9	-7978
5	-7979
J	-7980
%	-7981
K	-7982
L	-7983
(	-7984
)	-7985
3	-7986
:	-7987
8	-7988
;	-7989
6	-7990
4	-7991
7	-7992
Y	-7993
$	-7994
?	-7995
