<pad>	0
<unk>	0
<s>	0
</s>	0
▁t	-0
in	-1
▁a	-2
he	-3
re	-4
on	-5
▁the	-6
er	-7
at	-8
en	-9
▁c	-10
▁s	-11
it	-12
▁o	-13
es	-14
an	-15
is	-16
▁w	-17
al	-18
▁p	-19
or	-20
▁b	-21
▁in	-22
▁f	-23
ed	-24
ing	-25
▁to	-26
nd	-27
▁m	-28
ic	-29
ar	-30
▁of	-31
ion	-32
ro	-33
▁d	-34
ou	-35
▁th	-36
▁and	-37
le	-38
▁e	-39
st	-40
▁h	-41
ent	-42
▁re	-43
▁n	-44
om	-45
il	-46
as	-47
ly	-48
ve	-49
▁be	-50
▁is	-51
▁l	-52
ut	-53
▁T	-54
▁g	-55
ct	-56
ol	-57
▁that	-58
ation	-59
im	-60
▁A	-61
ot	-62
se	-63
ce	-64
ver	-65
▁de	-66
▁I	-67
ur	-68
ad	-69
ld	-70
▁it	-71
ow	-72
▁for	-73
ig	-74
▁on	-75
id	-76
et	-77
▁C	-78
ment	-79
▁st	-80
ies	-81
▁B	-82
ill	-83
▁u	-84
ch	-85
nt	-86
▁The	-87
ra	-88
▁pro	-89
▁E	-90
ir	-91
ul	-92
▁con	-93
ate	-94
ore	-95
pe	-96
▁S	-97
ers	-98
▁as	-99
▁al	-100
▁are	-101
est	-102
▁r	-103
ith	-104
ould	-105
ay	-106
ity	-107
▁su	-108
her	-109
▁ex	-110
▁–	-111
ge	-112
ort	-113
▁wh	-114
▁ne	-115
lo	-116
ess	-117
▁an	-118
▁not	-119
con	-120
▁with	-121
▁ha	-122
ist	-123
ab	-124
ain	-125
▁U	-126
th	-127
ial	-128
ive	-129
us	-130
if	-131
▁we	-132
ter	-133
res	-134
▁has	-135
ke	-136
ount	-137
am	-138
▁com	-139
iv	-140
▁have	-141
▁Ch	-142
▁will	-143
conom	-144
▁sh	-145
▁M	-146
ac	-147
em	-148
pp	-149
▁W	-150
▁se	-151
ust	-152
▁wor	-153
▁by	-154
▁le	-155
▁pol	-156
uro	-157
▁econom	-158
qu	-159
▁Chin	-160
and	-161
▁v	-162
um	-163
igh	-164
oc	-165
▁F	-166
▁en	-167
▁count	-168
▁P	-169
ost	-170
rom	-171
op	-172
ant	-173
over	-174
▁im	-175
▁But	-176
ical	-177
▁more	-178
▁at	-179
▁countr	-180
▁y	-181
ap	-182
▁ch	-183
▁G	-184
od	-185
os	-186
▁from	-187
▁its	-188
ome	-189
▁he	-190
ia	-191
ions	-192
▁tr	-193
ong	-194
▁Euro	-195
art	-196
▁China	-197
▁their	-198
▁or	-199
ast	-200
ure	-201
iz	-202
▁Europe	-203
▁this	-204
▁In	-205
▁“	-206
▁can	-207
ib	-208
un	-209
ans	-210
row	-211
▁imp	-212
▁un	-213
ear	-214
ther	-215
ff	-216
▁int	-217
▁res	-218
▁would	-219
▁inc	-220
ak	-221
▁was	-222
el	-223
red	-224
▁R	-225
▁N	-226
end	-227
pt	-228
▁Th	-229
ight	-230
▁ab	-231
mer	-232
all	-233
ect	-234
▁they	-235
▁ad	-236
gh	-237
anc	-238
▁than	-239
▁US	-240
▁O	-241
ric	-242
▁ag	-243
▁cont	-244
able	-245
overn	-246
ance	-247
ary	-248
out	-249
▁countries	-250
ru	-251
▁all	-252
ous	-253
ard	-254
ich	-255
cc	-256
▁do	-257
▁fin	-258
▁grow	-259
▁world	-260
▁govern	-261
▁D	-262
▁year	-263
▁comp	-264
ip	-265
reat	-266
ere	-267
ark	-268
ign	-269
rou	-270
du	-271
▁fa	-272
ult	-273
our	-274
ational	-275
ie	-276
▁man	-277
one	-278
▁exp	-279
bal	-280
ates	-281
▁j	-282
▁whe	-283
ks	-284
ations	-285
ven	-286
ress	-287
▁rec	-288
ike	-289
▁H	-290
ud	-291
▁but	-292
ide	-293
▁economic	-294
▁polic	-295
▁been	-296
▁government	-297
▁which	-298
lic	-299
▁dis	-300
orm	-301
lobal	-302
ated	-303
▁polit	-304
ence	-305
▁pl	-306
▁new	-307
▁bec	-308
▁out	-309
▁part	-310
▁so	-311
ris	-312
ag	-313
▁pe	-314
ade	-315
▁As	-316
▁inv	-317
▁me	-318
▁other	-319
ue	-320
▁reg	-321
▁dec	-322
▁L	-323
og	-324
ub	-325
ime	-326
▁global	-327
ine	-328
so	-329
ree	-330
▁one	-331
age	-332
arket	-333
▁growth	-334
▁over	-335
ll	-336
ors	-337
ction	-338
ep	-339
▁lead	-340
▁need	-341
ile	-342
▁should	-343
are	-344
▁also	-345
ally	-346
ower	-347
lop	-348
meric	-349
velop	-350
ose	-351
▁ris	-352
▁It	-353
form	-354
ake	-355
▁Un	-356
▁no	-357
▁dem	-358
▁only	-359
▁Americ	-360
▁und	-361
ren	-362
ens	-363
▁ind	-364
▁could	-365
erm	-366
▁eff	-367
▁(	-368
▁inter	-369
▁like	-370
▁J	-371
ition	-372
▁market	-373
ian	-374
ack	-375
▁about	-376
cy	-377
▁financ	-378
ities	-379
▁now	-380
▁political	-381
ern	-382
ility	-383
▁K	-384
ople	-385
reas	-386
▁cons	-387
▁there	-388
au	-389
▁invest	-390
▁This	-391
▁most	-392
▁ban	-393
▁develop	-394
▁long	-395
▁go	-396
▁comm	-397
ble	-398
▁And	-399
fic	-400
ire	-401
uch	-402
▁such	-403
▁pre	-404
▁str	-405
▁per	-406
▁Af	-407
▁policy	-408
▁bet	-409
▁people	-410
▁must	-411
▁EU	-412
▁years	-413
ange	-414
▁acc	-415
low	-416
▁qu	-417
▁up	-418
ach	-419
ism	-420
▁many	-421
▁rem	-422
▁sp	-423
▁cl	-424
▁Ind	-425
ident	-426
▁even	-427
▁European	-428
ative	-429
▁some	-430
▁these	-431
▁were	-432
▁them	-433
ord	-434
rit	-435
old	-436
▁supp	-437
ments	-438
▁financial	-439
ew	-440
▁cap	-441
▁increas	-442
ious	-443
ublic	-444
gy	-445
▁who	-446
▁economy	-447
ited	-448
▁work	-449
ame	-450
bt	-451
▁cur	-452
▁pr	-453
▁if	-454
ces	-455
ert	-456
▁app	-457
very	-458
▁may	-459
yst	-460
illion	-461
▁em	-462
▁country	-463
▁k	-464
▁cris	-465
ital	-466
int	-467
ang	-468
ution	-469
▁inf	-470
ish	-471
erv	-472
▁ar	-473
act	-474
ough	-475
▁how	-476
lect	-477
▁rel	-478
av	-479
ause	-480
▁St	-481
▁power	-482
▁ro	-483
ons	-484
amp	-485
▁us	-486
▁his	-487
ace	-488
▁under	-489
und	-490
pect	-491
▁what	-492
▁time	-493
ber	-494
▁when	-495
ystem	-496
own	-497
arly	-498
▁produ	-499
▁fir	-500
▁much	-501
▁lar	-502
▁po	-503
▁sc	-504
ms	-505
▁tw	-506
vent	-507
erest	-508
▁leaders	-509
ory	-510
ese	-511
▁crisis	-512
alth	-513
▁proble	-514
▁ra	-515
▁cent	-516
▁system	-517
ating	-518
uc	-519
cess	-520
rough	-521
▁into	-522
▁am	-523
eral	-524
▁any	-525
▁dif	-526
▁soc	-527
▁far	-528
ond	-529
▁pos	-530
▁act	-531
▁real	-532
ind	-533
▁had	-534
we	-535
▁rep	-536
ful	-537
.”	-538
▁just	-539
▁att	-540
ible	-541
▁te	-542
ass	-543
▁intern	-544
▁import	-545
king	-546
ild	-547
per	-548
▁interest	-549
ced	-550
uss	-551
▁public	-552
ob	-553
ual	-554
its	-555
urn	-556
▁ow	-557
ists	-558
▁fore	-559
▁way	-560
▁conf	-561
▁high	-562
▁inst	-563
▁remain	-564
ase	-565
get	-566
▁Y	-567
▁co	-568
imate	-569
ific	-570
ient	-571
ov	-572
oth	-573
▁mon	-574
▁For	-575
▁again	-576
▁well	-577
read	-578
▁too	-579
▁war	-580
olog	-581
ics	-582
ral	-583
▁pric	-584
▁contin	-585
ise	-586
▁less	-587
▁fact	-588
hip	-589
▁trans	-590
▁recent	-591
eed	-592
hen	-593
ives	-594
▁ref	-595
hed	-596
resident	-597
vers	-598
▁international	-599
▁On	-600
ry	-601
ied	-602
▁debt	-603
ption	-604
ruct	-605
▁prov	-606
▁two	-607
sel	-608
ward	-609
any	-610
▁because	-611
▁ac	-612
iet	-613
▁America	-614
▁Afric	-615
ization	-616
ject	-617
▁gen	-618
▁Chinese	-619
ite	-620
ax	-621
▁Wh	-622
▁end	-623
iss	-624
opul	-625
iven	-626
▁def	-627
▁those	-628
ove	-629
uring	-630
▁our	-631
rent	-632
ef	-633
▁United	-634
allen	-635
oll	-636
▁dep	-637
lear	-638
ict	-639
itt	-640
ound	-641
vel	-642
▁add	-643
▁mod	-644
ice	-645
ween	-646
ration	-647
▁support	-648
pec	-649
▁ent	-650
▁opp	-651
ues	-652
▁hel	-653
ize	-654
▁sim	-655
lud	-656
▁effect	-657
▁right	-658
▁Tr	-659
ail	-660
▁own	-661
ump	-662
▁prog	-663
▁sur	-664
▁between	-665
▁des	-666
ings	-667
▁popul	-668
▁first	-669
▁result	-670
▁cost	-671
▁off	-672
▁change	-673
▁euro	-674
▁seem	-675
▁help	-676
round	-677
ures	-678
▁Russ	-679
ince	-680
ential	-681
chn	-682
▁If	-683
term	-684
▁requ	-685
▁resp	-686
▁capital	-687
aj	-688
ural	-689
▁ob	-690
▁investment	-691
▁That	-692
▁trade	-693
▁last	-694
▁banks	-695
▁sec	-696
▁large	-697
day	-698
▁both	-699
▁adv	-700
▁kn	-701
▁become	-702
fere	-703
▁national	-704
▁challen	-705
aw	-706
▁examp	-707
▁current	-708
aking	-709
ability	-710
▁good	-711
not	-712
▁appro	-713
▁while	-714
DP	-715
▁does	-716
▁reform	-717
ergy	-718
inist	-719
ortun	-720
▁sign	-721
▁$	-722
▁important	-723
▁mem	-724
cal	-725
rib	-726
▁make	-727
ri	-728
▁fund	-729
led	-730
les	-731
▁bo	-732
▁democ	-733
▁state	-734
▁ass	-735
lation	-736
▁af	-737
▁redu	-738
▁great	-739
ajor	-740
▁you	-741
▁techn	-742
▁Is	-743
utions	-744
▁markets	-745
loy	-746
orts	-747
▁sub	-748
gest	-749
ically	-750
▁cour	-751
▁More	-752
▁conc	-753
▁ke	-754
ood	-755
ready	-756
▁example	-757
▁hum	-758
iness	-759
▁still	-760
rat	-761
▁ben	-762
▁health	-763
▁tax	-764
xt	-765
ging	-766
▁lo	-767
ract	-768
▁region	-769
▁against	-770
ays	-771
ized	-772
▁major	-773
▁partic	-774
ually	-775
▁demand	-776
▁ext	-777
▁Germ	-778
▁through	-779
▁today	-780
▁fut	-781
▁every	-782
▁sol	-783
▁where	-784
▁problem	-785
▁GDP	-786
ron	-787
▁governments	-788
▁cor	-789
ilit	-790
▁foreign	-791
▁aut	-792
▁already	-793
▁economies	-794
ten	-795
▁future	-796
▁emer	-797
▁fail	-798
ram	-799
ank	-800
▁Se	-801
▁after	-802
▁energy	-803
▁rates	-804
▁policies	-805
ting	-806
▁same	-807
▁strate	-808
ok	-809
▁includ	-810
▁bu	-811
▁back	-812
ather	-813
ending	-814
▁development	-815
ty	-816
ts	-817
less	-818
ater	-819
usiness	-820
▁social	-821
▁iss	-822
▁risk	-823
ense	-824
▁est	-825
▁Africa	-826
apan	-827
ices	-828
ning	-829
▁emp	-830
▁Brit	-831
▁To	-832
urity	-833
fore	-834
▁differe	-835
ever	-836
▁strong	-837
ath	-838
▁val	-839
▁Indeed	-840
als	-841
iew	-842
▁Trump	-843
ision	-844
▁instit	-845
▁sa	-846
gan	-847
▁prom	-848
▁rate	-849
▁serv	-850
▁Japan	-851
▁dom	-852
▁consum	-853
▁use	-854
▁rest	-855
▁ret	-856
ingly	-857
▁likely	-858
▁cannot	-859
▁take	-860
▁offic	-861
▁short	-862
ians	-863
▁technolog	-864
eg	-865
▁prot	-866
▁Russia	-867
ants	-868
▁might	-869
▁We	-870
▁being	-871
zone	-872
▁tra	-873
iscal	-874
▁benef	-875
▁level	-876
eration	-877
▁There	-878
▁equ	-879
▁made	-880
ared	-881
▁business	-882
▁human	-883
▁course	-884
other	-885
▁prop	-886
ccess	-887
ft	-888
ably	-889
ined	-890
etary	-891
▁reas	-892
ily	-893
▁el	-894
▁bas	-895
▁States	-896
▁ed	-897
▁indust	-898
ran	-899
▁billion	-900
▁With	-901
▁cred	-902
ially	-903
▁They	-904
▁low	-905
▁main	-906
▁set	-907
hing	-908
ality	-909
▁better	-910
▁central	-911
▁West	-912
▁since	-913
▁American	-914
▁So	-915
▁Asia	-916
▁sm	-917
▁ins	-918
▁leg	-919
▁point	-920
tern	-921
ges	-922
▁ord	-923
omm	-924
▁see	-925
pl	-926
oss	-927
ider	-928
imes	-929
▁term	-930
ieve	-931
▁down	-932
▁product	-933
▁without	-934
▁fiscal	-935
▁disc	-936
▁At	-937
▁br	-938
ctor	-939
▁pur	-940
▁elect	-941
▁op	-942
▁know	-943
▁prices	-944
ness	-945
ately	-946
ved	-947
▁success	-948
ell	-949
▁quest	-950
▁V	-951
rast	-952
▁expect	-953
ertain	-954
▁milit	-955
▁bel	-956
▁es	-957
▁climate	-958
cond	-959
ouse	-960
▁did	-961
▁regul	-962
ged	-963
▁poss	-964
iron	-965
▁const	-966
inc	-967
▁ann	-968
▁ser	-969
▁decl	-970
▁often	-971
abor	-972
▁start	-973
▁President	-974
ger	-975
▁vot	-976
ss	-977
▁hard	-978
▁impro	-979
▁commun	-980
ior	-981
▁med	-982
▁hist	-983
here	-984
▁priv	-985
▁approach	-986
▁particul	-987
▁educ	-988
▁eurozone	-989
ck	-990
▁ide	-991
ving	-992
mental	-993
▁job	-994
▁India	-995
▁threat	-996
ience	-997
▁stand	-998
ades	-999
hold	-1000
ink	-1001
▁aff	-1002
,”	-1003
▁another	-1004
ines	-1005
racy	-1006
▁eas	-1007
▁ap	-1008
▁ev	-1009
cept	-1010
▁call	-1011
ered	-1012
ency	-1013
▁fac	-1014
▁view	-1015
▁million	-1016
ollow	-1017
▁creat	-1018
ex	-1019
bers	-1020
▁compet	-1021
▁very	-1022
▁Moreover	-1023
▁past	-1024
▁pers	-1025
outh	-1026
▁neg	-1027
▁Germany	-1028
ars	-1029
▁imm	-1030
uel	-1031
stain	-1032
▁bank	-1033
▁process	-1034
self	-1035
anies	-1036
▁turn	-1037
▁arg	-1038
▁env	-1039
▁dist	-1040
▁before	-1041
▁put	-1042
▁then	-1043
▁few	-1044
▁sustain	-1045
▁child	-1046
▁needs	-1047
▁toward	-1048
▁pot	-1049
▁pay	-1050
▁states	-1051
▁three	-1052
li	-1053
▁hig	-1054
▁military	-1055
idd	-1056
▁account	-1057
▁agree	-1058
hor	-1059
ources	-1060
ivity	-1061
▁av	-1062
ents	-1063
▁ter	-1064
stand	-1065
orth	-1066
▁clo	-1067
▁chang	-1068
ocus	-1069
▁ine	-1070
▁move	-1071
▁least	-1072
omen	-1073
▁around	-1074
▁address	-1075
land	-1076
▁opportun	-1077
ittle	-1078
lement	-1079
ivers	-1080
▁Union	-1081
▁Wor	-1082
iving	-1083
▁Yet	-1084
oney	-1085
loyment	-1086
ves	-1087
▁order	-1088
▁follow	-1089
▁companies	-1090
▁remains	-1091
ury	-1092
ute	-1093
▁role	-1094
▁contro	-1095
▁rev	-1096
ead	-1097
most	-1098
▁ach	-1099
▁case	-1100
▁ant	-1101
▁little	-1102
▁next	-1103
▁pres	-1104
▁rul	-1105
▁mat	-1106
▁dire	-1107
▁environ	-1108
▁focus	-1109
▁problems	-1110
▁potential	-1111
▁lim	-1112
▁Iran	-1113
urther	-1114
▁increase	-1115
▁monetary	-1116
▁security	-1117
▁curren	-1118
ening	-1119
▁plan	-1120
abl	-1121
ross	-1122
▁among	-1123
arch	-1124
▁exper	-1125
▁play	-1126
uge	-1127
rug	-1128
akes	-1129
osed	-1130
▁allow	-1131
▁meas	-1132
▁Al	-1133
▁income	-1134
▁cre	-1135
▁lif	-1136
io	-1137
aps	-1138
▁law	-1139
▁Bank	-1140
▁Fr	-1141
ficult	-1142
▁however	-1143
▁trad	-1144
▁difficult	-1145
▁happ	-1146
▁rise	-1147
▁gr	-1148
road	-1149
▁East	-1150
▁inflation	-1151
).	-1152
cing	-1153
▁press	-1154
▁different	-1155
ng	-1156
▁loc	-1157
▁tar	-1158
ivid	-1159
▁De	-1160
▁Int	-1161
▁ens	-1162
▁why	-1163
▁money	-1164
▁official	-1165
ructure	-1166
ued	-1167
▁inn	-1168
▁clear	-1169
rem	-1170
▁weak	-1171
▁defic	-1172
gin	-1173
▁num	-1174
▁When	-1175
▁prof	-1176
▁reason	-1177
▁model	-1178
▁private	-1179
▁institutions	-1180
▁car	-1181
▁labor	-1182
▁needed	-1183
▁simp	-1184
▁protect	-1185
▁come	-1186
▁societ	-1187
por	-1188
ages	-1189
ances	-1190
estic	-1191
▁run	-1192
uclear	-1193
ibility	-1194
▁One	-1195
▁beh	-1196
itions	-1197
▁big	-1198
▁share	-1199
▁ful	-1200
▁author	-1201
aly	-1202
▁vi	-1203
▁Fed	-1204
ix	-1205
ick	-1206
▁progress	-1207
▁effective	-1208
▁president	-1209
ying	-1210
▁South	-1211
▁continue	-1212
iddle	-1213
▁form	-1214
▁though	-1215
lu	-1216
pid	-1217
▁means	-1218
▁signific	-1219
ted	-1220
▁gu	-1221
▁whether	-1222
▁Re	-1223
▁yet	-1224
▁key	-1225
▁doll	-1226
▁developing	-1227
ird	-1228
ner	-1229
▁including	-1230
▁adm	-1231
ened	-1232
lection	-1233
▁domestic	-1234
vere	-1235
▁These	-1236
rop	-1237
aim	-1238
ling	-1239
▁bal	-1240
ining	-1241
▁pros	-1242
▁get	-1243
▁crit	-1244
▁fall	-1245
ON	-1246
▁rather	-1247
▁World	-1248
▁find	-1249
▁spec	-1250
▁concern	-1251
ratic	-1252
oun	-1253
ases	-1254
olution	-1255
formation	-1256
▁education	-1257
te	-1258
▁question	-1259
roup	-1260
▁higher	-1261
▁sector	-1262
▁decades	-1263
acy	-1264
ering	-1265
idence	-1266
pecially	-1267
▁hal	-1268
▁costs	-1269
▁project	-1270
▁asse	-1271
▁deep	-1272
ush	-1273
▁Comm	-1274
▁credit	-1275
▁further	-1276
▁growing	-1277
▁fe	-1278
itive	-1279
▁appe	-1280
▁seems	-1281
▁By	-1282
▁ren	-1283
▁show	-1284
▁treat	-1285
for	-1286
▁poor	-1287
▁price	-1288
▁dr	-1289
▁spending	-1290
▁significant	-1291
▁best	-1292
change	-1293
▁longer	-1294
▁emerging	-1295
▁cut	-1296
▁requi	-1297
▁suff	-1298
▁After	-1299
▁innov	-1300
▁especially	-1301
▁He	-1302
up	-1303
ides	-1304
aus	-1305
ished	-1306
▁gain	-1307
▁slow	-1308
▁nuclear	-1309
com	-1310
air	-1311
▁say	-1312
▁month	-1313
▁ph	-1314
imin	-1315
▁want	-1316
▁serious	-1317
arm	-1318
▁par	-1319
▁itself	-1320
▁increasingly	-1321
sequ	-1322
▁services	-1323
ama	-1324
▁ago	-1325
▁peace	-1326
ave	-1327
▁gener	-1328
▁access	-1329
▁almost	-1330
ogn	-1331
▁Kore	-1332
▁members	-1333
▁challenges	-1334
itional	-1335
anced	-1336
▁currency	-1337
▁democracy	-1338
▁relations	-1339
ash	-1340
▁Ob	-1341
▁free	-1342
▁efforts	-1343
▁UK	-1344
▁women	-1345
itiz	-1346
▁small	-1347
▁shif	-1348
ock	-1349
▁meet	-1350
omet	-1351
▁care	-1352
▁conflic	-1353
▁prevent	-1354
▁require	-1355
way	-1356
icient	-1357
▁comple	-1358
▁establ	-1359
▁reforms	-1360
cies	-1361
pris	-1362
rael	-1363
▁enough	-1364
▁hold	-1365
▁event	-1366
▁second	-1367
▁integ	-1368
▁respons	-1369
▁non	-1370
▁Of	-1371
pite	-1372
▁build	-1373
▁An	-1374
▁cho	-1375
ission	-1376
▁return	-1377
ror	-1378
▁Even	-1379
rab	-1380
vious	-1381
▁mean	-1382
▁target	-1383
▁control	-1384
▁viol	-1385
▁consider	-1386
lam	-1387
▁never	-1388
ators	-1389
▁claim	-1390
▁What	-1391
▁during	-1392
▁benefits	-1393
▁eng	-1394
izing	-1395
▁depend	-1396
▁resources	-1397
▁citiz	-1398
▁fam	-1399
istan	-1400
▁group	-1401
▁Intern	-1402
▁given	-1403
▁Israel	-1404
▁understand	-1405
▁pred	-1406
ope	-1407
▁population	-1408
▁oil	-1409
ata	-1410
akers	-1411
▁init	-1412
▁cond	-1413
reng	-1414
▁stud	-1415
▁nat	-1416
▁within	-1417
▁strateg	-1418
wh	-1419
ale	-1420
▁rapid	-1421
▁industr	-1422
oid	-1423
oura	-1424
selves	-1425
yn	-1426
reed	-1427
▁lib	-1428
hes	-1429
ither	-1430
▁simil	-1431
where	-1432
▁recogn	-1433
epend	-1434
▁local	-1435
▁er	-1436
▁my	-1437
▁rese	-1438
▁risks	-1439
▁others	-1440
udget	-1441
▁house	-1442
▁streng	-1443
▁greater	-1444
ool	-1445
ork	-1446
▁common	-1447
▁cle	-1448
ences	-1449
▁terms	-1450
▁impact	-1451
verage	-1452
rate	-1453
▁bor	-1454
▁col	-1455
▁Rep	-1456
▁While	-1457
ention	-1458
▁Britain	-1459
▁certain	-1460
▁children	-1461
oti	-1462
▁recently	-1463
acc	-1464
▁strategy	-1465
lus	-1466
come	-1467
gent	-1468
▁challenge	-1469
▁ur	-1470
▁half	-1471
▁home	-1472
like	-1473
▁pat	-1474
▁hand	-1475
▁Obama	-1476
▁sug	-1477
▁each	-1478
ession	-1479
▁possible	-1480
nce	-1481
ased	-1482
▁Gree	-1483
▁face	-1484
▁post	-1485
▁War	-1486
▁Ar	-1487
atic	-1488
▁particularly	-1489
▁Pol	-1490
▁Tur	-1491
▁sav	-1492
▁budget	-1493
▁Fin	-1494
▁France	-1495
▁member	-1496
inister	-1497
ier	-1498
▁camp	-1499
▁step	-1500
▁Arab	-1501
▁sure	-1502
▁improve	-1503
▁her	-1504
▁life	-1505
▁mass	-1506
▁lower	-1507
▁contrib	-1508
rastructure	-1509
▁coll	-1510
▁found	-1511
ivil	-1512
makers	-1513
▁workers	-1514
▁interests	-1515
▁investors	-1516
▁used	-1517
▁citizens	-1518
▁leadership	-1519
ipl	-1520
haps	-1521
▁caus	-1522
▁lack	-1523
▁suggest	-1524
ned	-1525
ording	-1526
▁action	-1527
▁election	-1528
cent	-1529
▁dou	-1530
▁begin	-1531
▁bond	-1532
ners	-1533
▁organ	-1534
▁number	-1535
▁report	-1536
▁Con	-1537
▁value	-1538
ceed	-1539
▁she	-1540
▁coop	-1541
▁news	-1542
▁provide	-1543
▁deb	-1544
ived	-1545
▁Be	-1546
irst	-1547
▁thus	-1548
▁ensure	-1549
▁negoti	-1550
ret	-1551
empt	-1552
just	-1553
onal	-1554
▁dang	-1555
▁place	-1556
▁consequ	-1557
▁relative	-1558
),	-1559
▁ever	-1560
RI	-1561
▁New	-1562
▁data	-1563
▁left	-1564
overty	-1565
aken	-1566
be	-1567
iqu	-1568
ield	-1569
▁rising	-1570
ways	-1571
▁jobs	-1572
▁fear	-1573
▁true	-1574
atives	-1575
▁reduce	-1576
tain	-1577
▁rights	-1578
▁politics	-1579
uation	-1580
▁force	-1581
▁rules	-1582
▁implement	-1583
▁infrastructure	-1584
▁occ	-1585
▁history	-1586
lf	-1587
▁spe	-1588
▁create	-1589
ai	-1590
▁Part	-1591
rex	-1592
▁Sp	-1593
▁dev	-1594
▁broad	-1595
▁reflect	-1596
iod	-1597
side	-1598
▁enc	-1599
▁min	-1600
▁open	-1601
▁Some	-1602
▁mult	-1603
▁once	-1604
▁British	-1605
ided	-1606
yond	-1607
▁land	-1608
▁themselves	-1609
▁direct	-1610
▁cr	-1611
▁deal	-1612
▁oper	-1613
▁Western	-1614
▁similar	-1615
ateral	-1616
▁Korea	-1617
▁civil	-1618
ified	-1619
▁cult	-1620
▁regional	-1621
▁avoid	-1622
aged	-1623
ront	-1624
▁administ	-1625
▁Cent	-1626
▁somet	-1627
yr	-1628
▁tal	-1629
▁expl	-1630
▁dollar	-1631
▁exchange	-1632
CB	-1633
▁bl	-1634
vention	-1635
▁levels	-1636
urd	-1637
chool	-1638
▁systems	-1639
ntil	-1640
▁che	-1641
▁fuel	-1642
▁consumption	-1643
▁times	-1644
istic	-1645
▁funda	-1646
▁him	-1647
▁stat	-1648
▁terror	-1649
igration	-1650
▁All	-1651
▁measures	-1652
▁stability	-1653
▁Econom	-1654
▁simply	-1655
yp	-1656
▁struct	-1657
▁balance	-1658
▁entire	-1659
▁issues	-1660
▁Sh	-1661
▁achieve	-1662
▁necess	-1663
▁wealth	-1664
▁productivity	-1665
kra	-1666
reak	-1667
ression	-1668
▁poverty	-1669
▁met	-1670
▁society	-1671
put	-1672
ised	-1673
▁sense	-1674
▁making	-1675
▁believe	-1676
rexit	-1677
ban	-1678
▁becom	-1679
▁exist	-1680
ug	-1681
▁politic	-1682
▁fight	-1683
▁issue	-1684
ards	-1685
veral	-1686
▁young	-1687
▁decision	-1688
%.	-1689
▁four	-1690
▁purs	-1691
▁agreement	-1692
bon	-1693
▁sit	-1694
▁Ukra	-1695
abil	-1696
ortunately	-1697
▁ear	-1698
▁head	-1699
▁firms	-1700
▁influ	-1701
▁finance	-1702
ming	-1703
▁able	-1704
▁dest	-1705
▁always	-1706
▁top	-1707
▁boost	-1708
▁ru	-1709
oday	-1710
▁char	-1711
▁across	-1712
▁household	-1713
mm	-1714
igr	-1715
quality	-1716
raz	-1717
▁Today	-1718
▁commit	-1719
▁export	-1720
▁increased	-1721
▁technology	-1722
emp	-1723
▁ECB	-1724
▁sing	-1725
▁bring	-1726
▁annual	-1727
▁individ	-1728
▁tot	-1729
▁decade	-1730
▁old	-1731
▁done	-1732
▁hope	-1733
▁accept	-1734
ys	-1735
aign	-1736
▁requires	-1737
▁bad	-1738
▁early	-1739
▁alone	-1740
▁pract	-1741
▁Such	-1742
▁else	-1743
▁food	-1744
▁danger	-1745
omp	-1746
▁recover	-1747
ah	-1748
isions	-1749
▁opportunity	-1750
▁blo	-1751
▁emb	-1752
▁saf	-1753
ilateral	-1754
key	-1755
aster	-1756
▁period	-1757
▁century	-1758
▁campaign	-1759
▁conflict	-1760
▁Islam	-1761
▁community	-1762
▁amount	-1763
▁modern	-1764
▁Republic	-1765
▁individual	-1766
pped	-1767
▁net	-1768
▁anti	-1769
arent	-1770
ource	-1771
▁repres	-1772
▁policymakers	-1773
emoc	-1774
gether	-1775
▁together	-1776
ean	-1777
raw	-1778
cial	-1779
oint	-1780
light	-1781
▁dam	-1782
▁refuge	-1783
raq	-1784
▁effects	-1785
▁X	-1786
rong	-1787
ively	-1788
▁dise	-1789
▁borrow	-1790
▁manage	-1791
▁independ	-1792
▁industry	-1793
▁officials	-1794
▁information	-1795
az	-1796
the	-1797
▁Syr	-1798
▁Iraq	-1799
▁Many	-1800
▁working	-1801
then	-1802
▁unc	-1803
▁bord	-1804
▁union	-1805
▁deficit	-1806
ph	-1807
rupt	-1808
▁North	-1809
issions	-1810
ruption	-1811
▁Turkey	-1812
▁extrem	-1813
▁single	-1814
ins	-1815
ival	-1816
onse	-1817
ination	-1818
acity	-1819
aring	-1820
▁five	-1821
▁average	-1822
▁encoura	-1823
▁developed	-1824
▁keep	-1825
▁reach	-1826
▁total	-1827
▁water	-1828
▁regime	-1829
▁program	-1830
ief	-1831
rend	-1832
▁loss	-1833
▁areas	-1834
▁media	-1835
▁changes	-1836
▁pressure	-1837
▁sk	-1838
▁Inst	-1839
▁lear	-1840
▁rece	-1841
▁predict	-1842
dom	-1843
wise	-1844
▁ess	-1845
▁Central	-1846
iation	-1847
▁largest	-1848
sw	-1849
ina	-1850
razil	-1851
▁close	-1852
▁several	-1853
▁test	-1854
rag	-1855
rench	-1856
▁taken	-1857
▁supply	-1858
▁unlike	-1859
▁African	-1860
▁initi	-1861
▁response	-1862
▁don	-1863
▁position	-1864
though	-1865
▁based	-1866
▁forces	-1867
▁said	-1868
▁oppos	-1869
▁maintain	-1870
▁research	-1871
▁la	-1872
▁day	-1873
ify	-1874
ler	-1875
▁comb	-1876
▁rule	-1877
▁ways	-1878
▁Brazil	-1879
▁Brexit	-1880
▁advanced	-1881
▁strengthen	-1882
ds	-1883
lt	-1884
min	-1885
▁think	-1886
▁liberal	-1887
▁consequences	-1888
ik	-1889
rodu	-1890
▁Now	-1891
▁Italy	-1892
ee	-1893
▁adop	-1894
▁makes	-1895
▁Americans	-1896
gypt	-1897
▁corpor	-1898
fact	-1899
▁gre	-1900
▁led	-1901
▁Ukraine	-1902
▁cooperation	-1903
▁administration	-1904
wide	-1905
▁Egypt	-1906
▁ident	-1907
▁histor	-1908
▁abs	-1909
▁look	-1910
illions	-1911
▁innovation	-1912
▁politicians	-1913
▁Pr	-1914
arian	-1915
utional	-1916
▁parties	-1917
▁Middle	-1918
▁democratic	-1919
▁environmental	-1920
man	-1921
▁Cl	-1922
▁effort	-1923
▁school	-1924
▁conditions	-1925
▁assum	-1926
▁Greece	-1927
▁voters	-1928
▁created	-1929
erve	-1930
uing	-1931
▁shift	-1932
▁production	-1933
to	-1934
iplom	-1935
▁vict	-1936
▁cause	-1937
▁despite	-1938
oment	-1939
▁Cons	-1940
▁former	-1941
▁expected	-1942
cil	-1943
ring	-1944
iting	-1945
▁unemp	-1946
utin	-1947
▁Par	-1948
ently	-1949
▁norm	-1950
ium	-1951
▁UN	-1952
incip	-1953
▁subst	-1954
▁wrong	-1955
▁Sec	-1956
while	-1957
▁full	-1958
▁Given	-1959
▁death	-1960
head	-1961
ighb	-1962
imul	-1963
▁coal	-1964
ctions	-1965
▁Asian	-1966
▁essential	-1967
line	-1968
▁perform	-1969
down	-1970
ented	-1971
▁failed	-1972
▁regard	-1973
lia	-1974
▁kind	-1975
▁trend	-1976
▁employment	-1977
ufact	-1978
inking	-1979
▁First	-1980
▁doing	-1981
▁altern	-1982
▁exports	-1983
▁princip	-1984
▁authorities	-1985
▁sustainable	-1986
▁prob	-1987
▁drug	-1988
ricult	-1989
▁invol	-1990
▁French	-1991
▁beyond	-1992
▁expand	-1993
▁nearly	-1994
▁sovere	-1995
▁environment	-1996
lev	-1997
rec	-1998
▁decline	-1999
▁AI	-2000
acks	-2001
▁Res	-2002
▁aim	-2003
ended	-2004
▁banking	-2005
▁prosper	-2006
▁establish	-2007
▁Or	-2008
aging	-2009
▁Democ	-2010
▁diplom	-2011
▁economists	-2012
▁mar	-2013
ising	-2014
market	-2015
%,	-2016
▁cy	-2017
▁How	-2018
▁ill	-2019
thing	-2020
▁clos	-2021
▁powerful	-2022
▁vis	-2023
oral	-2024
▁stimul	-2025
▁prec	-2026
▁lives	-2027
ape	-2028
cut	-2029
enda	-2030
▁Acc	-2031
▁dig	-2032
▁opt	-2033
▁idea	-2034
▁soon	-2035
▁moment	-2036
▁experience	-2037
cl	-2038
▁fl	-2039
▁quick	-2040
▁capacity	-2041
▁manufact	-2042
ends	-2043
▁Pro	-2044
itted	-2045
▁promot	-2046
ured	-2047
▁self	-2048
▁Global	-2049
▁respect	-2050
▁mis	-2051
▁answ	-2052
▁structural	-2053
▁successful	-2054
▁vol	-2055
▁strategic	-2056
▁inequality	-2057
▁fav	-2058
based	-2059
rated	-2060
▁prior	-2061
▁trillion	-2062
▁bar	-2063
▁until	-2064
▁respond	-2065
▁emissions	-2066
▁flow	-2067
▁lost	-2068
▁Party	-2069
▁debate	-2070
▁surpris	-2071
▁ten	-2072
▁comes	-2073
▁neighb	-2074
▁largely	-2075
bi	-2076
cer	-2077
ched	-2078
▁called	-2079
▁cities	-2080
▁object	-2081
▁opportunities	-2082
lim	-2083
▁ge	-2084
ises	-2085
▁Cong	-2086
▁King	-2087
▁massive	-2088
lies	-2089
▁agg	-2090
iding	-2091
ories	-2092
▁incent	-2093
▁industrial	-2094
▁technologies	-2095
▁vir	-2096
▁easy	-2097
▁rich	-2098
▁adjust	-2099
ills	-2100
ensive	-2101
▁excess	-2102
▁values	-2103
▁contrast	-2104
▁unp	-2105
▁path	-2106
▁poll	-2107
▁affect	-2108
▁violence	-2109
▁particular	-2110
▁Le	-2111
arily	-2112
ternal	-2113
▁transp	-2114
▁perhaps	-2115
▁integration	-2116
ien	-2117
▁mov	-2118
AN	-2119
▁Afgh	-2120
liament	-2121
▁behind	-2122
▁unemployment	-2123
ream	-2124
▁goal	-2125
▁leading	-2126
▁popular	-2127
alest	-2128
▁reality	-2129
▁obs	-2130
▁Bush	-2131
▁disp	-2132
▁bonds	-2133
▁break	-2134
▁assets	-2135
▁months	-2136
▁scient	-2137
▁recovery	-2138
▁Europeans	-2139
▁fundamental	-2140
icy	-2141
▁began	-2142
▁estim	-2143
ltimate	-2144
▁Afghan	-2145
▁things	-2146
▁solution	-2147
edi	-2148
▁goods	-2149
ored	-2150
▁argu	-2151
▁Putin	-2152
▁natural	-2153
irc	-2154
rams	-2155
▁win	-2156
▁funds	-2157
▁probably	-2158
▁-	-2159
▁Q	-2160
▁Like	-2161
ruction	-2162
▁ability	-2163
▁influence	-2164
▁situation	-2165
de	-2166
MF	-2167
aced	-2168
▁fram	-2169
▁nothing	-2170
ym	-2171
▁Ag	-2172
▁cat	-2173
▁feel	-2174
▁relationship	-2175
fer	-2176
▁aid	-2177
▁away	-2178
▁live	-2179
▁worse	-2180
▁coming	-2181
▁constit	-2182
▁univers	-2183
ctors	-2184
▁third	-2185
▁Instead	-2186
▁actually	-2187
▁partners	-2188
▁Commission	-2189
▁leader	-2190
▁agricult	-2191
▁necessary	-2192
▁International	-2193
▁reven	-2194
▁increasing	-2195
atory	-2196
verse	-2197
▁later	-2198
▁stock	-2199
▁Argent	-2200
▁having	-2201
▁complex	-2202
▁evidence	-2203
▁investments	-2204
reg	-2205
sid	-2206
nect	-2207
▁IMF	-2208
▁May	-2209
▁attempt	-2210
▁attention	-2211
▁mob	-2212
▁living	-2213
▁underm	-2214
▁According	-2215
▁sl	-2216
▁sw	-2217
reedom	-2218
▁cases	-2219
▁indic	-2220
iveness	-2221
▁external	-2222
▁governance	-2223
▁Most	-2224
▁give	-2225
▁advant	-2226
▁particip	-2227
ulner	-2228
▁seen	-2229
istance	-2230
▁determ	-2231
▁elections	-2232
▁recession	-2233
ne	-2234
force	-2235
lying	-2236
ously	-2237
▁words	-2238
▁traditional	-2239
omb	-2240
▁agenda	-2241
▁counter	-2242
▁cru	-2243
▁del	-2244
minbi	-2245
▁pass	-2246
▁achie	-2247
▁class	-2248
igrants	-2249
▁benefit	-2250
▁Minister	-2251
▁Xi	-2252
▁along	-2253
▁party	-2254
▁German	-2255
▁Palest	-2256
▁propos	-2257
▁programs	-2258
▁amb	-2259
▁exc	-2260
▁gas	-2261
▁farm	-2262
▁really	-2263
▁Russian	-2264
▁uncertain	-2265
DG	-2266
▁Fund	-2267
▁occur	-2268
▁projects	-2269
hood	-2270
itable	-2271
aving	-2272
▁Syria	-2273
▁highly	-2274
▁status	-2275
agn	-2276
▁ign	-2277
▁nar	-2278
▁ahead	-2279
▁contr	-2280
▁design	-2281
▁prospect	-2282
fortunately	-2283
olit	-2284
▁var	-2285
alled	-2286
ledge	-2287
▁wide	-2288
▁activ	-2289
▁middle	-2290
▁record	-2291
EW	-2292
▁eth	-2293
▁domin	-2294
▁attract	-2295
▁discuss	-2296
▁solutions	-2297
oh	-2298
▁Pe	-2299
▁rad	-2300
▁tem	-2301
▁prim	-2302
▁groups	-2303
ember	-2304
▁vulner	-2305
uted	-2306
▁read	-2307
▁taking	-2308
▁Develop	-2309
▁Kingdom	-2310
▁decisions	-2311
set	-2312
ters	-2313
▁Can	-2314
▁lat	-2315
▁avail	-2316
▁answer	-2317
▁matter	-2318
▁certainly	-2319
▁something	-2320
chan	-2321
▁NEW	-2322
▁rat	-2323
▁san	-2324
right	-2325
▁Mean	-2326
▁took	-2327
▁indeed	-2328
▁renminbi	-2329
▁financing	-2330
illed	-2331
▁weap	-2332
▁thing	-2333
▁whose	-2334
ulation	-2335
▁digital	-2336
▁Congress	-2337
▁majority	-2338
▁Meanwhile	-2339
mber	-2340
▁Sim	-2341
▁deli	-2342
▁shar	-2343
ouncil	-2344
▁using	-2345
▁became	-2346
▁z	-2347
med	-2348
▁jo	-2349
▁mist	-2350
▁unlikely	-2351
▁competition	-2352
rugg	-2353
ception	-2354
▁failure	-2355
▁relatively	-2356
▁revolution	-2357
ene	-2358
▁Bar	-2359
▁demon	-2360
▁favor	-2361
▁taxes	-2362
▁obvious	-2363
▁quickly	-2364
▁willing	-2365
▁huge	-2366
▁continent	-2367
▁worldwide	-2368
rep	-2369
erves	-2370
▁collect	-2371
▁substant	-2372
go	-2373
▁air	-2374
uslim	-2375
▁circ	-2376
▁elsewhere	-2377
OR	-2378
▁Ex	-2379
▁den	-2380
▁pow	-2381
▁strugg	-2382
▁extreme	-2383
▁limited	-2384
▁corruption	-2385
▁generation	-2386
▁Z	-2387
het	-2388
▁Per	-2389
▁resol	-2390
▁vision	-2391
▁explain	-2392
▁Since	-2393
▁doubt	-2394
akistan	-2395
▁ground	-2396
iment	-2397
▁mind	-2398
▁miss	-2399
▁legit	-2400
TO	-2401
▁held	-2402
▁asset	-2403
▁reasons	-2404
income	-2405
▁renew	-2406
▁expans	-2407
▁framew	-2408
▁produce	-2409
▁becoming	-2410
▁concerns	-2411
pr	-2412
▁No	-2413
ries	-2414
ached	-2415
▁behav	-2416
▁enter	-2417
▁immedi	-2418
izations	-2419
▁positive	-2420
tle	-2421
plus	-2422
▁Lat	-2423
▁wee	-2424
▁rein	-2425
▁vote	-2426
▁sharp	-2427
▁larger	-2428
▁general	-2429
▁Mon	-2430
▁conv	-2431
▁owing	-2432
uster	-2433
rought	-2434
▁relig	-2435
itarian	-2436
▁Council	-2437
arant	-2438
▁near	-2439
▁employ	-2440
▁corporate	-2441
ext	-2442
uth	-2443
▁di	-2444
year	-2445
▁arr	-2446
osing	-2447
▁boom	-2448
▁perm	-2449
▁tool	-2450
ancing	-2451
▁Muslim	-2452
▁powers	-2453
▁science	-2454
▁businesses	-2455
▁Unfortunately	-2456
rel	-2457
▁ve	-2458
arter	-2459
chanism	-2460
▁source	-2461
▁alternative	-2462
ired	-2463
▁legal	-2464
▁subsid	-2465
▁reducing	-2466
▁ultimate	-2467
▁Argentina	-2468
▁beginning	-2469
▁confidence	-2470
▁Afghanistan	-2471
▁globalization	-2472
▁div	-2473
▁offer	-2474
▁severe	-2475
▁Nations	-2476
▁clearly	-2477
▁Pakistan	-2478
▁fed	-2479
▁dram	-2480
▁expert	-2481
▁defense	-2482
▁demonst	-2483
▁meeting	-2484
▁deficits	-2485
ots	-2486
▁En	-2487
▁ask	-2488
▁typ	-2489
▁side	-2490
▁carbon	-2491
ological	-2492
▁freedom	-2493
▁outcome	-2494
▁manufacturing	-2495
ung	-2496
rats	-2497
ensus	-2498
▁either	-2499
▁funding	-2500
▁guarant	-2501
▁results	-2502
▁refugees	-2503
by	-2504
apse	-2505
▁fig	-2506
▁late	-2507
▁prep	-2508
▁Great	-2509
▁Spain	-2510
▁imposs	-2511
▁Finally	-2512
▁disease	-2513
▁everyone	-2514
▁age	-2515
econom	-2516
▁factors	-2517
▁National	-2518
▁represent	-2519
▁dyn	-2520
▁let	-2521
▁sent	-2522
▁stop	-2523
▁known	-2524
▁crises	-2525
▁forward	-2526
▁overall	-2527
▁surplus	-2528
▁continues	-2529
▁performance	-2530
dd	-2531
leg	-2532
▁ir	-2533
ault	-2534
vest	-2535
onald	-2536
▁heav	-2537
▁Second	-2538
▁refere	-2539
▁prosperity	-2540
erty	-2541
▁jud	-2542
▁Other	-2543
▁leave	-2544
▁Internet	-2545
▁currently	-2546
IN	-2547
bol	-2548
ets	-2549
▁fair	-2550
▁inev	-2551
▁trou	-2552
▁purch	-2553
SE	-2554
orn	-2555
▁uns	-2556
▁came	-2557
▁hous	-2558
▁tend	-2559
▁Latin	-2560
▁below	-2561
▁consumer	-2562
▁critical	-2563
▁expansion	-2564
▁gains	-2565
▁worth	-2566
▁previous	-2567
▁available	-2568
▁recognize	-2569
▁impossible	-2570
▁mere	-2571
ification	-2572
▁commitment	-2573
ane	-2574
erb	-2575
ody	-2576
use	-2577
raph	-2578
▁line	-2579
▁Prime	-2580
▁protection	-2581
urs	-2582
▁Sc	-2583
▁fle	-2584
oring	-2585
▁attack	-2586
ya	-2587
▁Ge	-2588
▁Des	-2589
▁helped	-2590
ero	-2591
ilt	-2592
▁Ab	-2593
▁suc	-2594
oking	-2595
▁mess	-2596
unction	-2597
▁afford	-2598
▁collapse	-2599
ites	-2600
▁det	-2601
▁above	-2602
▁commod	-2603
▁succeed	-2604
▁Palestin	-2605
▁additional	-2606
kn	-2607
▁green	-2608
▁imper	-2609
▁choice	-2610
iversity	-2611
▁behavior	-2612
▁following	-2613
▁mechanism	-2614
ular	-2615
▁art	-2616
▁six	-2617
oviet	-2618
making	-2619
▁dynam	-2620
▁trust	-2621
▁output	-2622
▁won	-2623
▁host	-2624
▁surv	-2625
usterity	-2626
▁movement	-2627
▁stronger	-2628
▁transition	-2629
sh	-2630
ici	-2631
ones	-2632
rict	-2633
▁repl	-2634
▁cover	-2635
▁territ	-2636
▁Economic	-2637
▁products	-2638
▁responsibility	-2639
has	-2640
loc	-2641
▁scale	-2642
▁facing	-2643
▁spread	-2644
▁standards	-2645
erc	-2646
enty	-2647
▁cal	-2648
ature	-2649
action	-2650
▁weapons	-2651
▁households	-2652
▁negotiations	-2653
bo	-2654
hem	-2655
▁gap	-2656
iance	-2657
ograph	-2658
ressive	-2659
▁models	-2660
▁continued	-2661
oph	-2662
▁burd	-2663
▁grad	-2664
ension	-2665
▁sectors	-2666
aid	-2667
hest	-2668
inary	-2669
▁urban	-2670
▁Govern	-2671
▁include	-2672
▁incentives	-2673
▁established	-2674
ees	-2675
lin	-2676
▁jour	-2677
illing	-2678
▁reached	-2679
▁economics	-2680
▁framework	-2681
▁Development	-2682
ili	-2683
uly	-2684
▁harm	-2685
ressed	-2686
▁sound	-2687
▁announ	-2688
▁simple	-2689
▁introdu	-2690
▁presidential	-2691
care	-2692
crib	-2693
▁story	-2694
▁implic	-2695
▁rapidly	-2696
▁Japanese	-2697
▁contract	-2698
▁reserves	-2699
▁industries	-2700
mp	-2701
app	-2702
▁Tw	-2703
ustr	-2704
▁basic	-2705
▁chance	-2706
▁existing	-2707
▁opposition	-2708
▁technological	-2709
aud	-2710
pol	-2711
une	-2712
▁Sw	-2713
omes	-2714
rain	-2715
arity	-2716
ients	-2717
▁distrib	-2718
▁outside	-2719
▁millions	-2720
▁suggests	-2721
▁questions	-2722
▁ce	-2723
omin	-2724
▁nor	-2725
▁Over	-2726
▁area	-2727
▁summ	-2728
▁quality	-2729
▁advantage	-2730
▁sanctions	-2731
▁societies	-2732
▁organizations	-2733
af	-2734
ator	-2735
ology	-2736
▁raise	-2737
▁saving	-2738
▁company	-2739
▁negative	-2740
▁dangerous	-2741
▁efficient	-2742
acter	-2743
▁laun	-2744
▁mort	-2745
▁road	-2746
▁damage	-2747
▁events	-2748
▁institutional	-2749
ware	-2750
▁fast	-2751
▁rough	-2752
▁cancer	-2753
▁matters	-2754
emic	-2755
▁rob	-2756
▁cand	-2757
▁virt	-2758
account	-2759
▁Although	-2760
exic	-2761
iquid	-2762
lling	-2763
▁From	-2764
▁repe	-2765
▁legis	-2766
▁caused	-2767
▁equity	-2768
gr	-2769
▁NA	-2770
acro	-2771
iter	-2772
aries	-2773
▁corre	-2774
▁ideas	-2775
▁loans	-2776
▁vital	-2777
▁Donald	-2778
▁Soviet	-2779
▁shared	-2780
▁deliver	-2781
oks	-2782
aper	-2783
▁men	-2784
▁Mexic	-2785
▁argue	-2786
▁divid	-2787
▁forced	-2788
▁borders	-2789
▁crucial	-2790
ech	-2791
▁bub	-2792
▁cuts	-2793
▁scen	-2794
▁writ	-2795
called	-2796
▁emphas	-2797
▁allowed	-2798
▁biggest	-2799
▁federal	-2800
▁service	-2801
off	-2802
itud	-2803
nces	-2804
▁fix	-2805
gence	-2806
▁savings	-2807
▁consumers	-2808
cle	-2809
▁days	-2810
▁special	-2811
▁contrary	-2812
▁stimulus	-2813
▁thinking	-2814
equ	-2815
ender	-2816
▁game	-2817
▁pain	-2818
opolit	-2819
▁building	-2820
▁austerity	-2821
▁sovereign	-2822
▁treatment	-2823
▁effectively	-2824
▁independence	-2825
of	-2826
sp	-2827
▁Nor	-2828
▁mot	-2829
▁red	-2830
ought	-2831
▁mark	-2832
ortion	-2833
▁explo	-2834
▁protest	-2835
▁My	-2836
lier	-2837
part	-2838
▁Ken	-2839
▁hop	-2840
▁mid	-2841
ensions	-2842
▁candid	-2843
▁engage	-2844
▁normal	-2845
▁Despite	-2846
▁compared	-2847
▁creation	-2848
▁referend	-2849
▁eventually	-2850
hel	-2851
lig	-2852
ossil	-2853
lusion	-2854
▁basis	-2855
▁belie	-2856
▁flows	-2857
▁limit	-2858
▁focused	-2859
▁migration	-2860
▁sym	-2861
▁here	-2862
▁clean	-2863
▁extra	-2864
▁skills	-2865
▁contain	-2866
▁Monetary	-2867
aces	-2868
iated	-2869
▁soft	-2870
▁faces	-2871
▁poore	-2872
ilities	-2873
▁transform	-2874
▁management	-2875
▁regulation	-2876
▁Not	-2877
isely	-2878
▁seek	-2879
▁fully	-2880
▁super	-2881
▁critic	-2882
▁falling	-2883
▁reduced	-2884
▁sources	-2885
▁complete	-2886
▁creating	-2887
▁experien	-2888
▁minister	-2889
iff	-2890
▁bi	-2891
iety	-2892
▁appear	-2893
▁center	-2894
▁scenar	-2895
▁warming	-2896
▁personal	-2897
▁required	-2898
▁difference	-2899
▁communities	-2900
do	-2901
nal	-2902
cast	-2903
▁Its	-2904
▁Simil	-2905
▁wants	-2906
▁points	-2907
▁reject	-2908
▁widely	-2909
▁dollars	-2910
▁housing	-2911
▁immigration	-2912
tr	-2913
oot	-2914
rest	-2915
vert	-2916
▁Lib	-2917
▁Mar	-2918
▁Only	-2919
▁link	-2920
urance	-2921
▁cross	-2922
▁happen	-2923
▁liquid	-2924
▁office	-2925
▁thought	-2926
▁electric	-2927
▁Col	-2928
▁flo	-2929
▁ste	-2930
▁victory	-2931
▁consensus	-2932
ustom	-2933
▁deter	-2934
▁truth	-2935
▁elimin	-2936
▁losses	-2937
▁option	-2938
▁regions	-2939
▁BE	-2940
angu	-2941
hens	-2942
▁steps	-2943
▁pursue	-2944
▁committed	-2945
▁knowledge	-2946
ott	-2947
▁lot	-2948
▁core	-2949
ishing	-2950
ustain	-2951
▁going	-2952
▁family	-2953
▁fossil	-2954
▁roughly	-2955
▁internal	-2956
▁encourage	-2957
▁expectations	-2958
co	-2959
rowth	-2960
▁Just	-2961
▁assoc	-2962
▁macro	-2963
▁yield	-2964
▁assess	-2965
▁person	-2966
▁attacks	-2967
▁supposed	-2968
▁direction	-2969
▁intervention	-2970
osp	-2971
▁CA	-2972
▁tas	-2973
celer	-2974
▁list	-2975
ancial	-2976
ptember	-2977
▁actions	-2978
▁brought	-2979
▁according	-2980
unt	-2981
urm	-2982
▁Go	-2983
▁exe	-2984
andon	-2985
▁tell	-2986
▁Polit	-2987
▁seemed	-2988
▁changed	-2989
▁competit	-2990
used	-2991
▁lose	-2992
▁State	-2993
▁instead	-2994
▁Security	-2995
▁accounts	-2996
ann	-2997
▁moral	-2998
▁whole	-2999
iciency	-3000
▁People	-3001
atically	-3002
economic	-3003
▁context	-3004
▁neighbors	-3005
▁parliament	-3006
▁wat	-3007
▁Geor	-3008
▁frag	-3009
▁analy	-3010
fficient	-3011
▁farmers	-3012
▁meaning	-3013
▁Consider	-3014
▁proposed	-3015
▁September	-3016
oy	-3017
els	-3018
ita	-3019
ton	-3020
▁opin	-3021
▁save	-3022
▁goals	-3023
▁claims	-3024
▁secure	-3025
▁urgent	-3026
▁II	-3027
ibly	-3028
▁era	-3029
erate	-3030
▁Last	-3031
encies	-3032
▁Paris	-3033
▁embra	-3034
▁heart	-3035
▁withd	-3036
▁Commun	-3037
▁Federal	-3038
▁abandon	-3039
▁default	-3040
▁confront	-3041
▁ultimately	-3042
▁vulnerable	-3043
umb	-3044
war	-3045
augh	-3046
▁NATO	-3047
▁adap	-3048
▁draw	-3049
▁Their	-3050
▁front	-3051
▁burden	-3052
▁Islamic	-3053
▁connect	-3054
▁neither	-3055
ventional	-3056
▁argument	-3057
▁happened	-3058
▁enterpris	-3059
gn	-3060
mb	-3061
fect	-3062
work	-3063
▁vacc	-3064
▁autom	-3065
▁worry	-3066
abilities	-3067
▁geopolit	-3068
▁commodity	-3069
▁therefore	-3070
▁importance	-3071
▁independent	-3072
CD	-3073
OND	-3074
oup	-3075
rus	-3076
▁Pl	-3077
▁Why	-3078
▁Both	-3079
▁imbal	-3080
▁study	-3081
▁capita	-3082
▁latest	-3083
▁trying	-3084
▁targets	-3085
▁trading	-3086
▁followed	-3087
▁provided	-3088
▁regulatory	-3089
ls	-3090
aul	-3091
val	-3092
▁reb	-3093
ONDON	-3094
▁drive	-3095
▁parts	-3096
▁LONDON	-3097
▁turned	-3098
▁Likewise	-3099
▁activities	-3100
▁referendum	-3101
▁uncertainty	-3102
edly	-3103
▁Dep	-3104
▁Eng	-3105
▁bro	-3106
▁buy	-3107
fully	-3108
▁recon	-3109
▁shows	-3110
▁increases	-3111
▁individuals	-3112
ING	-3113
ORK	-3114
▁Ke	-3115
atever	-3116
▁Chile	-3117
▁easily	-3118
▁factor	-3119
▁minist	-3120
▁Reserve	-3121
▁culture	-3122
yl	-3123
rust	-3124
▁YORK	-3125
▁quant	-3126
▁exceed	-3127
▁becomes	-3128
▁apparent	-3129
hic	-3130
▁fri	-3131
▁hit	-3132
▁pus	-3133
antic	-3134
▁Anot	-3135
▁purp	-3136
▁vast	-3137
▁zero	-3138
racies	-3139
▁displ	-3140
▁surve	-3141
▁Another	-3142
▁legitim	-3143
▁pattern	-3144
▁anything	-3145
▁prospects	-3146
DS	-3147
MB	-3148
ony	-3149
requ	-3150
▁bat	-3151
rehens	-3152
▁coord	-3153
▁minim	-3154
▁takes	-3155
▁volat	-3156
▁engine	-3157
▁nature	-3158
▁primary	-3159
▁membership	-3160
▁sufficient	-3161
ij	-3162
▁enh	-3163
▁field	-3164
▁tight	-3165
▁commer	-3166
▁partly	-3167
▁stable	-3168
▁Perhaps	-3169
▁promise	-3170
▁cultural	-3171
▁withdraw	-3172
▁bilateral	-3173
ox	-3174
nder	-3175
oman	-3176
ried	-3177
▁gra	-3178
order	-3179
ashing	-3180
sector	-3181
▁minor	-3182
▁abroad	-3183
▁border	-3184
▁nation	-3185
▁Climate	-3186
▁journal	-3187
▁radical	-3188
▁property	-3189
▁precisely	-3190
▁historical	-3191
▁strategies	-3192
hern	-3193
ique	-3194
▁mal	-3195
▁Comp	-3196
▁trig	-3197
▁wind	-3198
levant	-3199
▁serve	-3200
▁stagn	-3201
▁Barack	-3202
▁constra	-3203
▁depends	-3204
▁directly	-3205
▁terrorism	-3206
▁politically	-3207
auc	-3208
hers	-3209
ocks	-3210
pping	-3211
▁fell	-3212
▁imag	-3213
▁Indian	-3214
▁circum	-3215
▁limits	-3216
▁appears	-3217
▁students	-3218
ats	-3219
nam	-3220
anda	-3221
ethe	-3222
olid	-3223
▁Ham	-3224
▁Rev	-3225
▁lies	-3226
▁push	-3227
policy	-3228
▁sides	-3229
▁wages	-3230
▁extent	-3231
▁faster	-3232
▁bankers	-3233
▁comprom	-3234
▁finally	-3235
ustainable	-3236
▁character	-3237
▁providing	-3238
▁throughout	-3239
▁significantly	-3240
lled	-3241
▁mut	-3242
▁unf	-3243
third	-3244
▁talks	-3245
▁agreed	-3246
▁argued	-3247
▁custom	-3248
▁entirely	-3249
EN	-3250
sc	-3251
eng	-3252
▁sal	-3253
▁mand	-3254
▁size	-3255
▁shown	-3256
▁tools	-3257
▁theory	-3258
▁conserv	-3259
▁estimated	-3260
men	-3261
ellig	-3262
▁sens	-3263
▁Mexico	-3264
▁describ	-3265
▁seeking	-3266
▁forecast	-3267
elt	-3268
ands	-3269
duct	-3270
▁Cam	-3271
▁His	-3272
▁wel	-3273
▁flex	-3274
▁hour	-3275
▁phys	-3276
▁learn	-3277
▁meant	-3278
actions	-3279
aterial	-3280
▁margin	-3281
▁produced	-3282
▁reflects	-3283
▁deflation	-3284
▁profession	-3285
▁transformation	-3286
uck	-3287
airs	-3288
anks	-3289
▁sup	-3290
▁rare	-3291
ulated	-3292
▁allies	-3293
▁subject	-3294
▁responsible	-3295
▁construction	-3296
▁understanding	-3297
▁Do	-3298
eria	-3299
oric	-3300
ulate	-3301
▁cash	-3302
▁orig	-3303
▁safe	-3304
▁went	-3305
▁your	-3306
▁Treat	-3307
▁barri	-3308
▁final	-3309
▁acceler	-3310
▁achieved	-3311
▁standard	-3312
▁multilateral	-3313
aff	-3314
par	-3315
▁Bo	-3316
▁Ph	-3317
▁Mac	-3318
ilies	-3319
▁laws	-3320
▁rhet	-3321
▁enorm	-3322
▁light	-3323
▁mortg	-3324
▁planet	-3325
▁demands	-3326
▁improved	-3327
▁migrants	-3328
▁provides	-3329
▁agriculture	-3330
▁Am	-3331
▁Joh	-3332
aches	-3333
▁Thus	-3334
▁name	-3335
▁langu	-3336
▁plans	-3337
▁causes	-3338
▁activity	-3339
▁sometimes	-3340
▁diplomatic	-3341
pro	-3342
SEAN	-3343
rist	-3344
reced	-3345
▁Saud	-3346
▁city	-3347
▁port	-3348
onents	-3349
undred	-3350
▁adopt	-3351
▁carry	-3352
▁optim	-3353
▁solid	-3354
related	-3355
▁lesson	-3356
▁summit	-3357
▁elected	-3358
▁imports	-3359
▁material	-3360
▁populist	-3361
▁scenario	-3362
▁Ad	-3363
aled	-3364
▁Mer	-3365
gency	-3366
▁John	-3367
▁Those	-3368
▁prove	-3369
▁deaths	-3370
▁online	-3371
▁families	-3372
▁strength	-3373
recedented	-3374
▁religious	-3375
my	-3376
TON	-3377
ugh	-3378
cont	-3379
rene	-3380
ynes	-3381
▁BRI	-3382
risis	-3383
▁reve	-3384
lusive	-3385
▁House	-3386
▁built	-3387
▁worst	-3388
holders	-3389
▁easier	-3390
▁hardly	-3391
▁measure	-3392
▁slowdown	-3393
▁immediate	-3394
▁efficiency	-3395
▁unprecedented	-3396
▁ty	-3397
▁Sen	-3398
▁try	-3399
comes	-3400
ether	-3401
house	-3402
ondon	-3403
▁London	-3404
▁execut	-3405
▁trends	-3406
▁leaving	-3407
▁lessons	-3408
▁Financial	-3409
▁Similarly	-3410
▁sustained	-3411
▁initiative	-3412
▁competitive	-3413
aves	-3414
oses	-3415
▁Gen	-3416
▁log	-3417
▁sett	-3418
▁fuels	-3419
▁Treaty	-3420
▁merely	-3421
▁narrow	-3422
▁revenues	-3423
▁rhetoric	-3424
▁reduction	-3425
▁initiatives	-3426
▁geopolitical	-3427
▁Ro	-3428
▁Med	-3429
▁Sing	-3430
idency	-3431
istent	-3432
▁Trade	-3433
▁spent	-3434
▁views	-3435
reprene	-3436
▁double	-3437
▁police	-3438
▁unable	-3439
etheless	-3440
▁changing	-3441
▁Republican	-3442
▁inevitable	-3443
▁possibility	-3444
add	-3445
ains	-3446
kept	-3447
know	-3448
vail	-3449
going	-3450
▁spend	-3451
▁thous	-3452
▁compar	-3453
▁enable	-3454
▁advance	-3455
▁opinion	-3456
reciation	-3457
▁commercial	-3458
▁everywhere	-3459
▁substantial	-3460
ety	-3461
kel	-3462
ote	-3463
sec	-3464
▁Non	-3465
▁dead	-3466
retary	-3467
raction	-3468
▁Though	-3469
▁running	-3470
▁borrowing	-3471
▁subsidies	-3472
▁regulators	-3473
▁hy	-3474
iagn	-3475
izes	-3476
ading	-3477
iable	-3478
▁goes	-3479
▁advoc	-3480
▁debts	-3481
▁rural	-3482
▁anyone	-3483
▁viewed	-3484
▁promote	-3485
▁diseases	-3486
▁greatest	-3487
EL	-3488
sy	-3489
nty	-3490
▁wa	-3491
▁esc	-3492
▁Here	-3493
▁coup	-3494
▁meth	-3495
▁ASEAN	-3496
▁places	-3497
▁payments	-3498
▁democracies	-3499
▁Gu	-3500
icro	-3501
▁pan	-3502
ables	-3503
ignty	-3504
lands	-3505
state	-3506
urren	-3507
▁capt	-3508
▁paid	-3509
▁week	-3510
▁Still	-3511
▁Third	-3512
▁Under	-3513
▁manip	-3514
▁driven	-3515
▁stabil	-3516
rehensive	-3517
▁outcomes	-3518
▁specific	-3519
▁exception	-3520
▁principle	-3521
▁agreements	-3522
▁contribute	-3523
▁legitimacy	-3524
lar	-3525
bles	-3526
▁sum	-3527
ching	-3528
▁book	-3529
▁dism	-3530
porary	-3531
▁block	-3532
▁depos	-3533
ovember	-3534
▁Merkel	-3535
▁infect	-3536
▁perman	-3537
▁lending	-3538
▁intellig	-3539
▁remained	-3540
▁announced	-3541
▁conflicts	-3542
▁liquidity	-3543
▁addressing	-3544
▁Palestinian	-3545
▁ec	-3546
ares	-3547
▁pun	-3548
▁Then	-3549
▁dict	-3550
▁pace	-3551
▁plat	-3552
▁adopted	-3553
▁received	-3554
▁authority	-3555
▁resulting	-3556
▁scientific	-3557
▁Fortunately	-3558
DGE	-3559
anu	-3560
▁Bl	-3561
MBRI	-3562
fall	-3563
▁Mal	-3564
asion	-3565
▁compl	-3566
MBRIDGE	-3567
orthern	-3568
▁offers	-3569
▁suffer	-3570
▁Without	-3571
▁broader	-3572
▁present	-3573
▁circumst	-3574
▁designed	-3575
▁disaster	-3576
▁CAMBRIDGE	-3577
▁electricity	-3578
.)	-3579
arc	-3580
orb	-3581
see	-3582
icip	-3583
▁Ire	-3584
▁June	-3585
▁insp	-3586
▁Count	-3587
▁bound	-3588
▁quite	-3589
▁acknow	-3590
▁proper	-3591
▁Ireland	-3592
▁message	-3593
▁prevail	-3594
▁started	-3595
▁November	-3596
▁improving	-3597
ubl	-3598
ull	-3599
cers	-3600
stit	-3601
▁beg	-3602
▁har	-3603
cause	-3604
▁Cold	-3605
▁defe	-3606
▁mach	-3607
▁spur	-3608
▁task	-3609
apital	-3610
▁adapt	-3611
▁stake	-3612
▁belief	-3613
▁proved	-3614
▁revers	-3615
▁worked	-3616
standing	-3617
▁facilit	-3618
▁managed	-3619
▁fighting	-3620
▁collective	-3621
▁everything	-3622
CS	-3623
hib	-3624
isc	-3625
upp	-3626
utes	-3627
▁Cal	-3628
▁deg	-3629
▁enj	-3630
▁drop	-3631
coming	-3632
idered	-3633
lantic	-3634
▁Keynes	-3635
▁destro	-3636
▁origin	-3637
▁experts	-3638
▁enormous	-3639
▁estimates	-3640
▁practices	-3641
Ch	-3642
enth	-3643
more	-3644
idesp	-3645
ights	-3646
uting	-3647
▁tack	-3648
▁range	-3649
▁works	-3650
century	-3651
▁choose	-3652
▁easing	-3653
▁earlier	-3654
▁mistake	-3655
idespread	-3656
ructuring	-3657
▁addition	-3658
▁function	-3659
▁promises	-3660
▁pollution	-3661
▁universal	-3662
▁assistance	-3663
▁considered	-3664
▁agricultural	-3665
IV	-3666
car	-3667
pay	-3668
sis	-3669
▁CO	-3670
itting	-3671
▁Saudi	-3672
▁calls	-3673
▁equal	-3674
▁frequ	-3675
▁ratio	-3676
▁Rather	-3677
▁closer	-3678
▁crimin	-3679
▁remark	-3680
▁safety	-3681
▁Eastern	-3682
▁conclud	-3683
▁hundred	-3684
▁incomes	-3685
▁returns	-3686
▁highlight	-3687
▁sovereignty	-3688
▁circumstances	-3689
lif	-3690
ops	-3691
▁Er	-3692
cale	-3693
itig	-3694
ogue	-3695
whel	-3696
▁Will	-3697
▁gone	-3698
▁sell	-3699
▁wage	-3700
▁deeply	-3701
▁prefer	-3702
▁emerged	-3703
▁quarter	-3704
▁barriers	-3705
▁struggle	-3706
▁excessive	-3707
▁structure	-3708
▁scientists	-3709
ray	-3710
▁Whe	-3711
▁room	-3712
▁Greek	-3713
▁moving	-3714
▁victim	-3715
▁amounts	-3716
▁concent	-3717
▁concept	-3718
▁correct	-3719
▁highest	-3720
▁refugee	-3721
▁revenue	-3722
▁platform	-3723
▁priority	-3724
▁starters	-3725
▁entreprene	-3726
▁Republicans	-3727
AS	-3728
ira	-3729
urb	-3730
▁squ	-3731
▁Aust	-3732
▁obst	-3733
▁publ	-3734
▁wast	-3735
rative	-3736
▁aware	-3737
▁blame	-3738
▁ended	-3739
▁oblig	-3740
▁prime	-3741
itative	-3742
▁During	-3743
▁Invest	-3744
▁inform	-3745
▁complic	-3746
▁receive	-3747
▁schools	-3748
▁fundament	-3749
▁capitalism	-3750
▁principles	-3751
▁widespread	-3752
▁implemented	-3753
▁instability	-3754
▁regulations	-3755
▁considerable	-3756
pri	-3757
▁Ma	-3758
iate	-3759
▁Ass	-3760
ijing	-3761
scale	-3762
▁spir	-3763
aching	-3764
iction	-3765
▁separ	-3766
▁speak	-3767
▁fallen	-3768
▁played	-3769
▁resist	-3770
▁allowing	-3771
▁perspect	-3772
▁profound	-3773
▁presidency	-3774
▁implications	-3775
uct	-3776
▁wond	-3777
▁aimed	-3778
▁fears	-3779
▁knows	-3780
ference	-3781
▁gender	-3782
▁instru	-3783
▁Because	-3784
▁justice	-3785
▁overwhel	-3786
▁transport	-3787
▁experienced	-3788
mar	-3789
mark	-3790
▁tro	-3791
orial	-3792
▁wars	-3793
▁drugs	-3794
▁eight	-3795
▁faced	-3796
▁hopes	-3797
▁space	-3798
▁temper	-3799
▁useful	-3800
▁Beijing	-3801
▁confere	-3802
▁decided	-3803
▁thereby	-3804
▁usually	-3805
▁diplomacy	-3806
▁associated	-3807
▁developments	-3808
nic	-3809
wor	-3810
yle	-3811
▁team	-3812
outher	-3813
ureauc	-3814
▁tried	-3815
▁insist	-3816
▁raised	-3817
▁tensions	-3818
▁insurance	-3819
▁currencies	-3820
▁comprehensive	-3821
▁€	-3822
urt	-3823
▁gl	-3824
enez	-3825
inet	-3826
inton	-3827
▁stay	-3828
ietnam	-3829
istics	-3830
▁lines	-3831
▁visit	-3832
▁mostly	-3833
▁speech	-3834
▁stands	-3835
▁unique	-3836
▁getting	-3837
▁medical	-3838
▁partner	-3839
▁typically	-3840
▁imbalances	-3841
▁credibility	-3842
▁enterprises	-3843
▁macroeconomic	-3844
fuel	-3845
lied	-3846
uild	-3847
▁Sea	-3848
▁Two	-3849
▁der	-3850
▁mer	-3851
▁unw	-3852
ottom	-3853
▁told	-3854
atures	-3855
enezuel	-3856
▁George	-3857
▁intens	-3858
▁owners	-3859
▁unless	-3860
▁conduct	-3861
▁driving	-3862
▁profits	-3863
▁appropri	-3864
▁repeated	-3865
▁competitiveness	-3866
ode	-3867
inks	-3868
look	-3869
▁Har	-3870
▁Our	-3871
▁root	-3872
▁stra	-3873
▁talk	-3874
▁exact	-3875
▁resil	-3876
▁seven	-3877
▁Vietnam	-3878
▁options	-3879
▁Venezuel	-3880
▁launched	-3881
▁weakness	-3882
▁productive	-3883
▁resistance	-3884
▁differences	-3885
ios	-3886
oil	-3887
Euro	-3888
alle	-3889
back	-3890
ronic	-3891
▁rele	-3892
▁diagn	-3893
▁shape	-3894
itation	-3895
outhern	-3896
▁deeper	-3897
▁explan	-3898
▁figure	-3899
▁treaty	-3900
▁Clinton	-3901
▁helping	-3902
▁himself	-3903
▁communic	-3904
▁overcome	-3905
▁practice	-3906
▁training	-3907
▁Secretary	-3908
▁adjustment	-3909
▁legislation	-3910
▁partnership	-3911
▁restructuring	-3912
uses	-3913
▁dro	-3914
▁mor	-3915
aling	-3916
antly	-3917
▁bail	-3918
▁diss	-3919
▁grew	-3920
▁rely	-3921
▁adequ	-3922
▁mount	-3923
▁obser	-3924
▁Colomb	-3925
▁Policy	-3926
▁Austral	-3927
▁affairs	-3928
▁happens	-3929
▁declared	-3930
▁patients	-3931
▁terrorist	-3932
▁Parliament	-3933
▁dramatically	-3934
run	-3935
▁DC	-3936
atis	-3937
ores	-3938
▁Ber	-3939
▁Nig	-3940
▁pack	-3941
▁prem	-3942
▁vers	-3943
Europe	-3944
▁asked	-3945
▁hands	-3946
▁bubble	-3947
▁robust	-3948
▁bureauc	-3949
▁dynamic	-3950
▁poorest	-3951
▁smaller	-3952
▁involved	-3953
▁expensive	-3954
▁operations	-3955
ev	-3956
doğ	-3957
los	-3958
ods	-3959
▁gir	-3960
doğan	-3961
endit	-3962
itude	-3963
▁firm	-3964
▁isol	-3965
▁stem	-3966
▁welf	-3967
acific	-3968
ellect	-3969
▁devast	-3970
▁disput	-3971
▁Erdoğan	-3972
▁disrupt	-3973
▁equally	-3974
▁sharply	-3975
▁generate	-3976
▁Democrats	-3977
▁guarantee	-3978
▁otherwise	-3979
▁volatility	-3980
gen	-3981
▁Co	-3982
ager	-3983
dden	-3984
iles	-3985
▁sex	-3986
▁sil	-3987
adequ	-3988
iring	-3989
rimin	-3990
rison	-3991
▁Swed	-3992
▁cheap	-3993
▁dimin	-3994
▁trial	-3995
▁accomp	-3996
▁defend	-3997
▁confron	-3998
▁implies	-3999
▁threats	-4000
▁trouble	-4001
▁planning	-4002
▁virtually	-4003
▁intelligence	-4004
long	-4005
▁Eth	-4006
▁bul	-4007
aught	-4008
▁Hong	-4009
▁Kong	-4010
▁acqu	-4011
▁Until	-4012
▁begun	-4013
▁occup	-4014
▁remov	-4015
▁solve	-4016
▁sought	-4017
▁absence	-4018
▁numbers	-4019
▁percent	-4020
▁welfare	-4021
▁resource	-4022
ded	-4023
▁vo	-4024
lows	-4025
reet	-4026
▁Soc	-4027
▁pen	-4028
adesh	-4029
▁Port	-4030
▁arms	-4031
▁evol	-4032
▁feed	-4033
▁ones	-4034
ifying	-4035
▁dream	-4036
▁perce	-4037
▁Growth	-4038
▁giving	-4039
▁tariff	-4040
▁arrange	-4041
▁credible	-4042
▁expendit	-4043
▁language	-4044
▁suffering	-4045
DGs	-4046
umm	-4047
▁ep	-4048
▁HIV	-4049
▁deval	-4050
▁multip	-4051
▁inadequ	-4052
▁raising	-4053
▁controls	-4054
▁undermine	-4055
oz	-4056
book	-4057
level	-4058
▁Dece	-4059
▁base	-4060
astrop	-4061
itious	-4062
▁solar	-4063
▁Beyond	-4064
▁sudden	-4065
▁choices	-4066
▁enforce	-4067
▁resolve	-4068
▁agencies	-4069
▁collabor	-4070
▁objectives	-4071
wan	-4072
▁Def	-4073
▁cra	-4074
▁hor	-4075
▁pled	-4076
herent	-4077
inated	-4078
▁Every	-4079
▁looks	-4080
▁stage	-4081
▁Christ	-4082
▁forest	-4083
▁medium	-4084
▁heavily	-4085
▁proposal	-4086
▁objective	-4087
▁supported	-4088
▁immigrants	-4089
..	-4090
ECD	-4091
leb	-4092
▁ut	-4093
bola	-4094
fers	-4095
ints	-4096
▁Dav	-4097
▁ric	-4098
apore	-4099
▁ready	-4100
▁Poland	-4101
▁aggreg	-4102
▁desper	-4103
▁losing	-4104
▁remind	-4105
▁destroy	-4106
▁ongoing	-4107
▁perfect	-4108
▁studies	-4109
▁underst	-4110
▁consolid	-4111
▁relevant	-4112
▁addressed	-4113
▁creditors	-4114
▁declining	-4115
▁intellect	-4116
▁thousands	-4117
▁Revolution	-4118
▁priorities	-4119
▁generations	-4120
▁distribution	-4121
▁"	-4122
let	-4123
pet	-4124
▁ey	-4125
ames	-4126
fort	-4127
ieth	-4128
sels	-4129
▁sto	-4130
▁unt	-4131
inent	-4132
power	-4133
uries	-4134
▁Canad	-4135
▁accum	-4136
▁cycle	-4137
▁forms	-4138
▁grown	-4139
ialogue	-4140
▁summer	-4141
▁underp	-4142
▁purpose	-4143
ashington	-4144
▁December	-4145
▁catastrop	-4146
▁economist	-4147
▁represents	-4148
US	-4149
ift	-4150
rich	-4151
uine	-4152
▁Any	-4153
▁due	-4154
▁wis	-4155
nings	-4156
▁OECD	-4157
▁Serb	-4158
▁cell	-4159
▁type	-4160
▁upon	-4161
▁Ebola	-4162
▁Organ	-4163
▁faith	-4164
▁hours	-4165
▁signs	-4166
▁decide	-4167
▁travel	-4168
▁involve	-4169
▁opposite	-4170
▁rational	-4171
▁determine	-4172
▁investing	-4173
▁authoritarian	-4174
ken	-4175
ancy	-4176
ffect	-4177
▁Janu	-4178
▁sold	-4179
▁March	-4180
▁chann	-4181
▁motiv	-4182
▁round	-4183
ivalent	-4184
▁ethnic	-4185
▁January	-4186
▁cutting	-4187
▁genuine	-4188
▁offered	-4189
▁believed	-4190
▁whatever	-4191
▁Singapore	-4192
▁generally	-4193
▁processes	-4194
▁discussion	-4195
▁surprising	-4196
▁Governments	-4197
▁potentially	-4198
aut	-4199
ikes	-4200
▁BER	-4201
▁Tai	-4202
▁dri	-4203
first	-4204
ipher	-4205
owned	-4206
usion	-4207
▁calc	-4208
▁flaw	-4209
▁none	-4210
▁Again	-4211
▁spect	-4212
flation	-4213
reasury	-4214
▁elites	-4215
▁obstac	-4216
ographic	-4217
▁compens	-4218
▁critics	-4219
▁healthy	-4220
▁ordinary	-4221
▁starting	-4222
▁expanding	-4223
▁positions	-4224
▁conference	-4225
▁innovative	-4226
▁organization	-4227
ns	-4228
bit	-4229
aren	-4230
bank	-4231
eenth	-4232
▁army	-4233
▁bear	-4234
▁bold	-4235
▁join	-4236
▁lend	-4237
▁susp	-4238
carbon	-4239
▁heavy	-4240
▁leads	-4241
▁shock	-4242
uations	-4243
▁battle	-4244
▁gained	-4245
▁twenty	-4246
▁General	-4247
▁learning	-4248
▁aggregate	-4249
▁producers	-4250
▁commitments	-4251
▁transactions	-4252
AR	-4253
The	-4254
aria	-4255
uman	-4256
atisf	-4257
▁Bang	-4258
▁Leban	-4259
▁board	-4260
▁tough	-4261
▁vehic	-4262
lements	-4263
ructive	-4264
▁Taiwan	-4265
▁detail	-4266
▁modest	-4267
▁discipl	-4268
▁learned	-4269
▁hundreds	-4270
▁prepared	-4271
▁promised	-4272
▁Communist	-4273
▁Countries	-4274
▁integrated	-4275
▁populations	-4276
▁strengthening	-4277
▁unsustainable	-4278
enh	-4279
▁Man	-4280
heast	-4281
▁AIDS	-4282
▁aris	-4283
▁fulf	-4284
▁Hamas	-4285
▁alloc	-4286
▁schem	-4287
▁weeks	-4288
entieth	-4289
▁Health	-4290
▁formal	-4291
▁Israeli	-4292
▁divided	-4293
▁exactly	-4294
▁holding	-4295
▁turning	-4296
▁various	-4297
▁includes	-4298
▁restrict	-4299
▁ministers	-4300
▁observers	-4301
▁Washington	-4302
▁mechanisms	-4303
▁recognized	-4304
▁Nonetheless	-4305
▁perspective	-4306
▁entrepreneurs	-4307
uk	-4308
▁Ne	-4309
ogle	-4310
sych	-4311
ylum	-4312
▁bre	-4313
▁York	-4314
▁anim	-4315
▁foot	-4316
stream	-4317
▁Kenya	-4318
▁court	-4319
▁medic	-4320
▁truly	-4321
▁Portug	-4322
▁actors	-4323
▁arrest	-4324
▁plants	-4325
▁undert	-4326
▁reinfor	-4327
▁identity	-4328
▁criticism	-4329
▁Democratic	-4330
▁University	-4331
▁experiment	-4332
▁underlying	-4333
▁($	-4334
time	-4335
▁quo	-4336
▁colle	-4337
▁joint	-4338
▁mitig	-4339
▁mobil	-4340
▁stead	-4341
▁Arabia	-4342
▁Google	-4343
▁assume	-4344
▁bottom	-4345
▁comput	-4346
▁degree	-4347
▁deploy	-4348
▁emerge	-4349
▁friends	-4350
▁playing	-4351
▁regimes	-4352
▁replace	-4353
▁analysis	-4354
▁leverage	-4355
▁movements	-4356
▁permanent	-4357
▁renewable	-4358
▁necessarily	-4359
▁Organization	-4360
▁economically	-4361
▁participation	-4362
imb	-4363
iot	-4364
oubt	-4365
▁hon	-4366
▁mix	-4367
ested	-4368
▁Once	-4369
Americ	-4370
rowing	-4371
▁delay	-4372
▁react	-4373
▁track	-4374
▁assert	-4375
▁reluct	-4376
▁figures	-4377
▁billions	-4378
▁ambitious	-4379
▁technical	-4380
▁counterpart	-4381
▁territorial	-4382
gu	-4383
rap	-4384
rue	-4385
udd	-4386
ires	-4387
wing	-4388
▁Ant	-4389
▁sen	-4390
acerb	-4391
▁Ital	-4392
▁July	-4393
▁peak	-4394
▁ties	-4395
arency	-4396
govern	-4397
▁accur	-4398
▁doesn	-4399
▁liter	-4400
▁accord	-4401
▁costly	-4402
▁legacy	-4403
▁mainly	-4404
▁exacerb	-4405
▁annually	-4406
▁combined	-4407
▁historic	-4408
▁peripher	-4409
▁southern	-4410
▁surprise	-4411
▁intellectual	-4412
Es	-4413
ery	-4414
eth	-4415
lad	-4416
son	-4417
eron	-4418
osis	-4419
uous	-4420
▁irre	-4421
icious	-4422
▁fewer	-4423
▁girls	-4424
connect	-4425
▁ignore	-4426
▁troops	-4427
▁nations	-4428
▁violent	-4429
▁bankrupt	-4430
▁ensuring	-4431
▁seriously	-4432
▁percentage	-4433
▁appropriate	-4434
▁establishment	-4435
DR	-4436
aza	-4437
cto	-4438
era	-4439
rud	-4440
▁Me	-4441
ague	-4442
itter	-4443
▁Octo	-4444
▁bene	-4445
▁shap	-4446
▁tact	-4447
▁whom	-4448
icking	-4449
idents	-4450
▁aging	-4451
▁youth	-4452
▁asylum	-4453
▁confir	-4454
▁humans	-4455
▁parent	-4456
▁symbol	-4457
▁October	-4458
▁mention	-4459
▁welcome	-4460
▁dialogue	-4461
▁pursuing	-4462
▁reaching	-4463
▁twentieth	-4464
▁equivalent	-4465
▁introduced	-4466
▁immediately	-4467
asc	-4468
aded	-4469
iers	-4470
reen	-4471
▁Bro	-4472
▁Kos	-4473
▁Sil	-4474
adays	-4475
anted	-4476
▁Cour	-4477
INGTON	-4478
ground	-4479
▁imped	-4480
▁users	-4481
▁Korean	-4482
▁Sweden	-4483
▁mobile	-4484
▁recomm	-4485
▁stress	-4486
exchange	-4487
▁towards	-4488
▁dramatic	-4489
▁identify	-4490
▁reflected	-4491
▁approaches	-4492
▁continuing	-4493
▁li	-4494
lete	-4495
▁dow	-4496
▁fal	-4497
▁anal	-4498
▁fire	-4499
▁trip	-4500
▁exerc	-4501
▁active	-4502
▁impose	-4503
▁killed	-4504
▁surely	-4505
▁causing	-4506
▁failing	-4507
▁Colombia	-4508
▁Australia	-4509
▁employees	-4510
▁attractive	-4511
▁inadequate	-4512
▁proportion	-4513
▁conventional	-4514
▁quantitative	-4515
ASH	-4516
ife	-4517
▁QE	-4518
▁Cle	-4519
▁Cor	-4520
▁got	-4521
▁thr	-4522
asing	-4523
chang	-4524
illeg	-4525
▁phen	-4526
▁Bangl	-4527
▁elite	-4528
▁enjoy	-4529
▁psych	-4530
▁tempt	-4531
ASHINGTON	-4532
ibilities	-4533
▁affected	-4534
▁underpin	-4535
▁coalition	-4536
▁contracts	-4537
▁Depression	-4538
▁candidates	-4539
alk	-4540
▁BR	-4541
ison	-4542
llor	-4543
opia	-4544
▁Nob	-4545
▁ver	-4546
acing	-4547
agers	-4548
igned	-4549
▁fert	-4550
overed	-4551
roduct	-4552
▁BRICS	-4553
▁persu	-4554
▁Energy	-4555
▁incomp	-4556
▁issued	-4557
▁profit	-4558
▁ruling	-4559
▁Whether	-4560
▁creates	-4561
▁putting	-4562
▁gradually	-4563
▁sentiment	-4564
▁temporary	-4565
▁WASHINGTON	-4566
▁structures	-4567
▁understood	-4568
▁substantially	-4569
BO	-4570
itz	-4571
ovo	-4572
adow	-4573
axim	-4574
ches	-4575
cons	-4576
etic	-4577
iant	-4578
igor	-4579
resp	-4580
▁Jew	-4581
▁Sch	-4582
▁aud	-4583
erous	-4584
iforn	-4585
ittee	-4586
▁Vlad	-4587
▁phil	-4588
▁added	-4589
▁decis	-4590
▁downt	-4591
▁earth	-4592
▁fixed	-4593
▁applic	-4594
▁preced	-4595
▁shocks	-4596
▁wanted	-4597
▁Further	-4598
▁centers	-4599
▁embrace	-4600
▁mandate	-4601
▁related	-4602
▁whereas	-4603
▁Californ	-4604
▁reported	-4605
▁achieving	-4606
▁promising	-4607
▁Bangladesh	-4608
▁nationalism	-4609
dr	-4610
▁·	-4611
mon	-4612
▁Te	-4613
appe	-4614
iled	-4615
▁wid	-4616
▁Fore	-4617
▁acad	-4618
▁bloc	-4619
▁born	-4620
▁race	-4621
▁rose	-4622
orient	-4623
ourage	-4624
▁celeb	-4625
▁compe	-4626
▁grand	-4627
▁revol	-4628
aration	-4629
russels	-4630
▁conver	-4631
▁placed	-4632
▁Cameron	-4633
▁However	-4634
▁Lebanon	-4635
▁anticip	-4636
▁pension	-4637
▁species	-4638
▁bringing	-4639
▁globally	-4640
▁phenomen	-4641
▁Venezuela	-4642
▁proposals	-4643
▁greenhouse	-4644
▁imperative	-4645
ana	-4646
acco	-4647
arth	-4648
pril	-4649
urch	-4650
▁Mod	-4651
break	-4652
count	-4653
▁fate	-4654
itably	-4655
▁Court	-4656
▁illeg	-4657
ospital	-4658
urities	-4659
▁Kosovo	-4660
▁Macron	-4661
▁defeat	-4662
▁observ	-4663
oubtedly	-4664
▁initial	-4665
▁although	-4666
▁occurred	-4667
▁suffered	-4668
▁concerned	-4669
▁purchases	-4670
▁remaining	-4671
▁accounting	-4672
▁journalists	-4673
EO	-4674
oud	-4675
rid	-4676
▁TB	-4677
ahar	-4678
▁Bel	-4679
▁Big	-4680
▁Sub	-4681
▁fem	-4682
▁shr	-4683
class	-4684
oming	-4685
ugust	-4686
▁Ethi	-4687
▁Turk	-4688
▁bomb	-4689
▁fost	-4690
▁says	-4691
▁cyber	-4692
▁ideal	-4693
▁rival	-4694
▁smart	-4695
▁uncon	-4696
urrency	-4697
▁Syrian	-4698
▁desire	-4699
▁joined	-4700
▁paying	-4701
▁raises	-4702
reaching	-4703
▁England	-4704
▁Indones	-4705
▁appoint	-4706
▁imposed	-4707
▁looking	-4708
▁reports	-4709
▁victims	-4710
▁weather	-4711
▁Brussels	-4712
▁Portugal	-4713
▁accompan	-4714
▁downturn	-4715
▁momentum	-4716
▁protests	-4717
▁supplies	-4718
▁transfer	-4719
▁electoral	-4720
▁inclusive	-4721
▁compromise	-4722
▁remarkable	-4723
▁nationalist	-4724
▁transparency	-4725
rog	-4726
arsh	-4727
atal	-4728
bled	-4729
free	-4730
ifth	-4731
imir	-4732
ping	-4733
▁Road	-4734
▁epid	-4735
▁kill	-4736
iences	-4737
mented	-4738
▁Trans	-4739
▁apart	-4740
▁nomin	-4741
▁showed	-4742
▁survey	-4743
▁budgets	-4744
▁restore	-4745
▁secular	-4746
▁sharing	-4747
▁Treasury	-4748
▁Vladimir	-4749
▁criminal	-4750
▁described	-4751
▁emergence	-4752
▁perceived	-4753
▁promoting	-4754
▁territory	-4755
▁engagement	-4756
▁supporters	-4757
▁accompanied	-4758
▁encouraging	-4759
▁sustainability	-4760
ih	-4761
oke	-4762
ula	-4763
onom	-4764
pted	-4765
▁eru	-4766
▁sea	-4767
anish	-4768
ibiot	-4769
ipped	-4770
uable	-4771
works	-4772
▁crop	-4773
▁gave	-4774
▁iron	-4775
igrant	-4776
▁champ	-4777
▁maxim	-4778
▁reput	-4779
ressing	-4780
▁Chance	-4781
▁Market	-4782
▁disast	-4783
▁leaves	-4784
▁rating	-4785
▁consist	-4786
▁exposed	-4787
▁opening	-4788
▁operate	-4789
▁mortgage	-4790
▁physical	-4791
▁centuries	-4792
▁tradition	-4793
▁transfers	-4794
▁aggressive	-4795
▁combination	-4796
▁contributed	-4797
▁undoubtedly	-4798
▁implementation	-4799
▁liberalization	-4800
fin	-4801
ipe	-4802
ney	-4803
▁Are	-4804
▁Car	-4805
▁die	-4806
ilipp	-4807
licit	-4808
lines	-4809
▁body	-4810
▁crow	-4811
▁east	-4812
crisis	-4813
lihood	-4814
▁April	-4815
▁Never	-4816
▁armed	-4817
▁logic	-4818
▁monit	-4819
▁paper	-4820
▁parad	-4821
▁risky	-4822
▁skept	-4823
cession	-4824
nership	-4825
▁reward	-4826
▁signed	-4827
▁Philipp	-4828
▁chronic	-4829
▁defined	-4830
▁peaceful	-4831
▁condition	-4832
▁incentive	-4833
▁practical	-4834
▁California	-4835
▁protecting	-4836
▁solidarity	-4837
▁stagnation	-4838
▁devastating	-4839
▁explanation	-4840
▁humanitarian	-4841
▁constitutional	-4842
GO	-4843
la	-4844
gas	-4845
gic	-4846
inct	-4847
pass	-4848
ties	-4849
▁Abe	-4850
▁Act	-4851
▁App	-4852
▁cha	-4853
▁tim	-4854
point	-4855
secut	-4856
▁murd	-4857
arters	-4858
▁scope	-4859
▁twice	-4860
appoint	-4861
ogether	-4862
▁August	-4863
▁wonder	-4864
▁Clearly	-4865
▁content	-4866
▁engaged	-4867
▁coverage	-4868
▁interven	-4869
▁possibly	-4870
▁Indonesia	-4871
▁candidate	-4872
▁essentially	-4873
▁recognition	-4874
▁conservative	-4875
▁corporations	-4876
▁accountability	-4877
IC	-4878
ze	-4879
ume	-4880
unn	-4881
▁Kh	-4882
▁Su	-4883
what	-4884
▁Rom	-4885
▁lay	-4886
abled	-4887
arely	-4888
▁None	-4889
▁Wall	-4890
▁exit	-4891
▁wake	-4892
▁apply	-4893
▁disag	-4894
▁guide	-4895
▁tests	-4896
▁Social	-4897
▁rarely	-4898
▁weight	-4899
▁benefic	-4900
▁distort	-4901
▁ethical	-4902
▁tariffs	-4903
▁trigger	-4904
▁boosting	-4905
▁disputes	-4906
▁downward	-4907
▁intended	-4908
▁investig	-4909
▁survival	-4910
▁Political	-4911
▁eliminate	-4912
▁preventing	-4913
▁destruction	-4914
AI	-4915
idel	-4916
▁Off	-4917
▁Yes	-4918
▁asp	-4919
ained	-4920
bling	-4921
▁Bern	-4922
▁Burm	-4923
▁Face	-4924
▁fort	-4925
▁magn	-4926
▁sort	-4927
driven	-4928
inding	-4929
▁toler	-4930
▁closed	-4931
▁Iranian	-4932
▁Muslims	-4933
▁imagine	-4934
▁painful	-4935
▁demonstr	-4936
▁populism	-4937
▁targeted	-4938
▁ownership	-4939
▁legitimate	-4940
▁Partnership	-4941
rs	-4942
enn	-4943
angh	-4944
▁Bet	-4945
▁alt	-4946
▁Lead	-4947
▁Prot	-4948
itness	-4949
lected	-4950
▁enact	-4951
▁Canada	-4952
▁Recent	-4953
▁fueled	-4954
▁offset	-4955
▁prison	-4956
▁satisf	-4957
▁superv	-4958
▁pushing	-4959
▁antibiot	-4960
▁extraord	-4961
▁regarded	-4962
▁customers	-4963
▁opponents	-4964
▁populists	-4965
▁innovations	-4966
▁universities	-4967
ulf	-4968
aily	-4969
▁You	-4970
▁cry	-4971
ament	-4972
▁Four	-4973
▁Gaza	-4974
▁brut	-4975
▁ment	-4976
border	-4977
▁Nobel	-4978
▁absol	-4979
▁holds	-4980
▁micro	-4981
▁phase	-4982
uilding	-4983
▁allows	-4984
▁attrib	-4985
▁entail	-4986
▁harder	-4987
▁search	-4988
▁tackle	-4989
national	-4990
▁Brother	-4991
▁wealthy	-4992
▁advances	-4993
▁neighbor	-4994
▁networks	-4995
▁outbreak	-4996
▁severely	-4997
▁vaccines	-4998
▁borrowers	-4999
▁dependent	-5000
▁resolution	-5001
▁willingness	-5002
▁Palestinians	-5003
▁constitution	-5004
▁parliamentary	-5005
ani	-5006
def	-5007
iny	-5008
ole	-5009
oly	-5010
uit	-5011
ibet	-5012
▁Cub	-5013
iling	-5014
irect	-5015
▁reck	-5016
▁sole	-5017
▁tour	-5018
aining	-5019
anghai	-5020
▁Libya	-5021
▁Tibet	-5022
▁alarm	-5023
▁alike	-5024
▁flood	-5025
ishment	-5026
▁buying	-5027
▁escape	-5028
▁viable	-5029
European	-5030
▁Constit	-5031
▁claimed	-5032
▁enhance	-5033
▁Shanghai	-5034
▁failures	-5035
▁rejected	-5036
▁strongly	-5037
▁pressures	-5038
▁published	-5039
▁educational	-5040
▁alternatives	-5041
debt	-5042
reme	-5043
▁pie	-5044
▁Plan	-5045
▁enem	-5046
▁exam	-5047
▁deals	-5048
▁escal	-5049
▁index	-5050
▁reass	-5051
▁rebal	-5052
country	-5053
osystem	-5054
▁appeal	-5055
▁bigger	-5056
▁depart	-5057
▁legisl	-5058
▁slight	-5059
▁taxpay	-5060
function	-5061
ventions	-5062
▁Conserv	-5063
▁Nigeria	-5064
▁applied	-5065
▁finding	-5066
▁survive	-5067
▁destabil	-5068
▁discover	-5069
▁hospital	-5070
▁humanity	-5071
▁extremely	-5072
▁completely	-5073
▁demographic	-5074
▁institution	-5075
zz	-5076
cean	-5077
irth	-5078
rees	-5079
China	-5080
onent	-5081
▁Hung	-5082
▁Paul	-5083
ustrial	-5084
▁except	-5085
▁linked	-5086
▁served	-5087
▁collaps	-5088
▁compris	-5089
▁corrupt	-5090
▁ignored	-5091
▁Facebook	-5092
▁alliance	-5093
▁equality	-5094
▁examples	-5095
▁expanded	-5096
▁included	-5097
▁managing	-5098
▁marginal	-5099
▁returned	-5100
▁emergency	-5101
▁Investment	-5102
▁threatened	-5103
▁withdrawal	-5104
▁Furthermore	-5105
▁improvement	-5106
▁maintaining	-5107
▁transparent	-5108
▁depreciation	-5109
AV	-5110
PP	-5111
eb	-5112
ONG	-5113
iox	-5114
pric	-5115
▁Add	-5116
▁Reg	-5117
▁She	-5118
agger	-5119
itute	-5120
ommod	-5121
rence	-5122
▁True	-5123
▁nine	-5124
▁turm	-5125
▁wait	-5126
ultane	-5127
▁Human	-5128
▁defin	-5129
▁delib	-5130
▁diver	-5131
▁facts	-5132
through	-5133
ulative	-5134
▁Spring	-5135
▁mutual	-5136
▁wisdom	-5137
▁Through	-5138
▁broadly	-5139
▁notably	-5140
▁setting	-5141
▁subsequ	-5142
▁turmoil	-5143
▁warning	-5144
ufficient	-5145
▁accepted	-5146
▁offering	-5147
▁shifting	-5148
▁threaten	-5149
▁Democracy	-5150
▁ecosystem	-5151
▁evolution	-5152
▁primarily	-5153
▁stimulate	-5154
▁instruments	-5155
▁undermining	-5156
▁requirements	-5157
CC	-5158
IA	-5159
sk	-5160
den	-5161
how	-5162
imp	-5163
fare	-5164
rote	-5165
▁Rob	-5166
▁anc	-5167
▁lag	-5168
inced	-5169
▁arch	-5170
▁text	-5171
rights	-5172
urally	-5173
▁black	-5174
▁older	-5175
▁unity	-5176
▁woman	-5177
▁charge	-5178
▁intent	-5179
▁plenty	-5180
▁settle	-5181
▁sheets	-5182
levision	-5183
security	-5184
▁Italian	-5185
▁bubbles	-5186
▁disappe	-5187
▁fragile	-5188
▁network	-5189
▁players	-5190
▁researc	-5191
▁declined	-5192
▁deposits	-5193
▁minority	-5194
▁somewhat	-5195
▁straight	-5196
▁systemic	-5197
▁simultane	-5198
EY	-5199
ari	-5200
duc	-5201
uff	-5202
iang	-5203
olst	-5204
unis	-5205
▁Tal	-5206
▁anx	-5207
▁lie	-5208
▁saw	-5209
anmar	-5210
ilemm	-5211
▁Ange	-5212
▁Krem	-5213
▁hege	-5214
▁wish	-5215
itudes	-5216
luding	-5217
▁moved	-5218
▁norms	-5219
▁polls	-5220
▁votes	-5221
Pacific	-5222
▁prohib	-5223
▁pushed	-5224
▁shifts	-5225
▁slowly	-5226
ffective	-5227
oriented	-5228
▁Foreign	-5229
▁Kremlin	-5230
▁artific	-5231
▁comfort	-5232
▁persist	-5233
▁stopped	-5234
ineteenth	-5235
▁deterior	-5236
▁explicit	-5237
▁moderate	-5238
▁northern	-5239
▁displaced	-5240
▁operating	-5241
▁accelerate	-5242
▁encouraged	-5243
▁securities	-5244
▁strengthened	-5245
ha	-5246
att	-5247
ozy	-5248
uty	-5249
ingu	-5250
ompl	-5251
raft	-5252
▁flu	-5253
▁nav	-5254
Sahar	-5255
sight	-5256
▁puts	-5257
▁runs	-5258
clical	-5259
▁risen	-5260
▁sales	-5261
▁surge	-5262
▁waste	-5263
▁wrote	-5264
Saharan	-5265
osition	-5266
▁Unlike	-5267
▁actual	-5268
▁crimes	-5269
▁extend	-5270
▁relief	-5271
▁review	-5272
▁united	-5273
ophistic	-5274
▁closely	-5275
▁illegal	-5276
▁mission	-5277
▁stories	-5278
▁balanced	-5279
▁patterns	-5280
▁religion	-5281
▁arguments	-5282
▁narrative	-5283
▁platforms	-5284
▁dependence	-5285
▁previously	-5286
▁terrorists	-5287
▁flexibility	-5288
▁researchers	-5289
▁considerably	-5290
AD	-5291
We	-5292
che	-5293
oes	-5294
▁Ac	-5295
▁Cyp	-5296
▁Mor	-5297
▁tow	-5298
▁vac	-5299
being	-5300
ellow	-5301
▁Hist	-5302
▁burn	-5303
▁wors	-5304
arkozy	-5305
▁Tunis	-5306
▁heard	-5307
▁overh	-5308
▁speed	-5309
▁table	-5310
ulating	-5311
▁Strate	-5312
▁acting	-5313
▁caught	-5314
▁contem	-5315
▁father	-5316
▁interp	-5317
▁senior	-5318
▁Myanmar	-5319
▁autonom	-5320
▁calling	-5321
▁capable	-5322
▁proceed	-5323
▁realize	-5324
▁treated	-5325
▁disagree	-5326
▁managers	-5327
▁nowadays	-5328
▁vehicles	-5329
▁convinced	-5330
▁happening	-5331
▁periphery	-5332
▁Chancellor	-5333
▁disappoint	-5334
▁inevitably	-5335
mosp	-5336
uate	-5337
▁bit	-5338
▁bra	-5339
▁obt	-5340
▁via	-5341
style	-5342
▁Conf	-5343
▁Much	-5344
▁gold	-5345
▁kept	-5346
▁wave	-5347
ashion	-5348
contro	-5349
estate	-5350
iberal	-5351
▁catch	-5352
▁links	-5353
▁shale	-5354
▁usual	-5355
▁Should	-5356
▁Street	-5357
▁absorb	-5358
▁broken	-5359
▁conven	-5360
▁latter	-5361
▁shares	-5362
▁weaker	-5363
ifically	-5364
▁Capital	-5365
▁bailout	-5366
▁nominal	-5367
▁variety	-5368
intensive	-5369
▁Ethiopia	-5370
▁educated	-5371
▁mobility	-5372
▁properly	-5373
▁benefited	-5374
▁similarly	-5375
▁advantages	-5376
▁mainstream	-5377
▁Philippines	-5378
▁constraints	-5379
▁negotiating	-5380
▁threatening	-5381
▁demonstrated	-5382
▁successfully	-5383
?”	-5384
ket	-5385
now	-5386
comm	-5387
rown	-5388
▁Sud	-5389
▁bur	-5390
▁ple	-5391
▁sus	-5392
iders	-5393
known	-5394
ollah	-5395
oning	-5396
using	-5397
▁Each	-5398
▁gets	-5399
ivered	-5400
▁Austr	-5401
▁Blair	-5402
▁Franc	-5403
▁multi	-5404
▁night	-5405
▁Change	-5406
▁Public	-5407
▁advice	-5408
▁atmosp	-5409
▁donors	-5410
▁fourth	-5411
▁slower	-5412
▁stance	-5413
▁Sarkozy	-5414
▁command	-5415
▁keeping	-5416
▁opposed	-5417
▁someone	-5418
▁accommod	-5419
▁delivered	-5420
▁discrimin	-5421
▁expertise	-5422
▁expressed	-5423
▁controvers	-5424
▁determined	-5425
▁frequently	-5426
▁statistics	-5427
▁supporting	-5428
▁challenging	-5429
▁arrangements	-5430
▁counterparts	-5431
▁establishing	-5432
▁participants	-5433
▁contributions	-5434
▁interventions	-5435
RIS	-5436
ino	-5437
isp	-5438
oor	-5439
uan	-5440
▁Ky	-5441
face	-5442
mbly	-5443
olar	-5444
with	-5445
▁CEO	-5446
▁Exp	-5447
▁Imp	-5448
essim	-5449
rific	-5450
▁High	-5451
▁Spec	-5452
▁blam	-5453
▁tort	-5454
▁trap	-5455
ailand	-5456
ptions	-5457
▁Forum	-5458
▁bolst	-5459
▁plant	-5460
▁recip	-5461
▁apprec	-5462
▁aspect	-5463
▁poorer	-5464
▁strike	-5465
▁thanks	-5466
▁volunt	-5467
▁weaken	-5468
outheast	-5469
▁Turkish	-5470
▁adverse	-5471
▁compete	-5472
▁dispute	-5473
▁diverse	-5474
▁minimum	-5475
▁witness	-5476
inflation	-5477
▁adequate	-5478
▁released	-5479
▁revealed	-5480
▁standing	-5481
▁valuable	-5482
▁responded	-5483
▁sophistic	-5484
▁discipline	-5485
▁settlement	-5486
▁acknowledge	-5487
▁problematic	-5488
▁manipulation	-5489
OEs	-5490
ocu	-5491
utr	-5492
▁IP	-5493
▁Sm	-5494
size	-5495
ashed	-5496
▁rout	-5497
depend	-5498
pected	-5499
▁Sudan	-5500
▁minds	-5501
▁Serbia	-5502
▁decent	-5503
▁ending	-5504
▁female	-5505
▁unders	-5506
▁warned	-5507
▁prolong	-5508
▁worried	-5509
▁Thailand	-5510
▁absolute	-5511
▁outright	-5512
▁urgently	-5513
liferation	-5514
▁responses	-5515
▁bankruptcy	-5516
▁devaluation	-5517
▁ideological	-5518
▁capabilities	-5519
▁fundamentally	-5520
KEL	-5521
SEL	-5522
alf	-5523
eal	-5524
ias	-5525
▁Li	-5526
▁PA	-5527
adic	-5528
cles	-5529
lock	-5530
rete	-5531
view	-5532
▁Den	-5533
▁Jin	-5534
▁Naz	-5535
▁fil	-5536
▁gun	-5537
▁sac	-5538
iking	-5539
▁aver	-5540
▁chem	-5541
▁clin	-5542
▁felt	-5543
thirds	-5544
▁artic	-5545
▁coast	-5546
▁penal	-5547
▁posed	-5548
▁simpl	-5549
▁south	-5550
▁BERKEL	-5551
▁barely	-5552
▁divide	-5553
▁resort	-5554
▁Already	-5555
▁Spanish	-5556
▁contrad	-5557
▁evident	-5558
▁expense	-5559
▁removed	-5560
▁reverse	-5561
▁slowing	-5562
▁emphasis	-5563
▁underest	-5564
▁generated	-5565
▁inclusion	-5566
▁ourselves	-5567
▁workforce	-5568
▁phenomenon	-5569
▁prosperous	-5570
▁reasonable	-5571
▁repeatedly	-5572
▁struggling	-5573
▁complicated	-5574
▁improvements	-5575
▁professional	-5576
▁consolidation	-5577
▁relationships	-5578
bed	-5579
oon	-5580
ebru	-5581
▁Pen	-5582
▁doz	-5583
▁hot	-5584
gered	-5585
idden	-5586
otion	-5587
trade	-5588
▁Prog	-5589
▁SDGs	-5590
▁cars	-5591
▁dark	-5592
▁drag	-5593
▁seas	-5594
▁vill	-5595
iments	-5596
▁Peace	-5597
▁autoc	-5598
▁cells	-5599
▁gives	-5600
▁poses	-5601
ebruary	-5602
▁chains	-5603
▁cooper	-5604
▁courts	-5605
▁gather	-5606
▁opened	-5607
▁spirit	-5608
▁Jinping	-5609
▁dismiss	-5610
▁BERKELEY	-5611
▁concrete	-5612
▁damaging	-5613
▁flexible	-5614
▁multiple	-5615
▁presence	-5616
▁pressing	-5617
▁suddenly	-5618
▁shortfall	-5619
▁regardless	-5620
▁resilience	-5621
▁tightening	-5622
▁contribution	-5623
▁policymaking	-5624
▁extraordinary	-5625
egu	-5626
ips	-5627
iti	-5628
ple	-5629
▁aw	-5630
agen	-5631
body	-5632
▁Kim	-5633
▁Lab	-5634
▁Let	-5635
▁Sup	-5636
▁hyd	-5637
icial	-5638
▁Summ	-5639
▁cong	-5640
▁resc	-5641
adjust	-5642
lessly	-5643
▁acute	-5644
▁false	-5645
▁dilemm	-5646
▁perpet	-5647
▁rulers	-5648
▁secret	-5649
▁series	-5650
▁Against	-5651
▁dangers	-5652
▁killing	-5653
▁parents	-5654
▁traject	-5655
▁February	-5656
▁reaction	-5657
▁negotiate	-5658
▁reluctant	-5659
▁nineteenth	-5660
▁consequence	-5661
▁implementing	-5662
▁temperatures	-5663
na	-5664
she	-5665
SELS	-5666
ysts	-5667
▁Far	-5668
▁cul	-5669
place	-5670
▁BRUS	-5671
▁pret	-5672
▁qual	-5673
▁scre	-5674
abling	-5675
health	-5676
▁Burma	-5677
▁Roman	-5678
▁backl	-5679
▁blood	-5680
▁crime	-5681
▁enlar	-5682
▁match	-5683
▁ruled	-5684
▁turns	-5685
▁voted	-5686
▁brings	-5687
▁estate	-5688
▁philos	-5689
▁traged	-5690
▁comment	-5691
▁empower	-5692
▁express	-5693
▁inflows	-5694
▁renewed	-5695
▁Atlantic	-5696
▁BRUSSELS	-5697
▁acknowled	-5698
▁concluded	-5699
▁dominated	-5700
▁initially	-5701
▁seemingly	-5702
▁identified	-5703
▁indicators	-5704
▁maintained	-5705
▁repression	-5706
▁television	-5707
▁coordination	-5708
▁insufficient	-5709
▁effectiveness	-5710
▁understandable	-5711
ux	-5712
BOC	-5713
ami	-5714
cks	-5715
cri	-5716
exp	-5717
rum	-5718
▁Ah	-5719
▁El	-5720
▁fr	-5721
cker	-5722
▁Cop	-5723
▁mus	-5724
▁tob	-5725
▁bill	-5726
▁died	-5727
▁earn	-5728
▁pill	-5729
▁wild	-5730
ounded	-5731
resent	-5732
▁daily	-5733
▁helps	-5734
▁types	-5735
▁wider	-5736
termath	-5737
▁define	-5738
▁deprec	-5739
▁proven	-5740
▁retail	-5741
▁strict	-5742
▁assumed	-5743
▁package	-5744
▁tobacco	-5745
▁Africans	-5746
▁Business	-5747
▁creative	-5748
▁decisive	-5749
▁democrat	-5750
▁elements	-5751
▁informal	-5752
▁meetings	-5753
▁reconcil	-5754
▁resulted	-5755
▁aftermath	-5756
▁attitudes	-5757
▁carefully	-5758
▁isolation	-5759
▁predicted	-5760
▁realistic	-5761
▁taxpayers	-5762
▁triggered	-5763
▁apparently	-5764
▁impressive	-5765
▁obligations	-5766
▁breakthrough	-5767
▁restrictions	-5768
emb	-5769
ply	-5770
lish	-5771
omed	-5772
ragm	-5773
▁ded	-5774
enses	-5775
itect	-5776
ivate	-5777
▁Educ	-5778
▁Five	-5779
▁judg	-5780
▁trib	-5781
▁vent	-5782
growth	-5783
ranean	-5784
▁badly	-5785
▁chief	-5786
▁frust	-5787
▁monop	-5788
▁north	-5789
▁polar	-5790
▁refer	-5791
theless	-5792
▁Angela	-5793
▁Labour	-5794
▁friend	-5795
▁retire	-5796
▁accompl	-5797
▁careful	-5798
▁carried	-5799
▁methods	-5800
▁payment	-5801
▁accurate	-5802
▁exercise	-5803
▁measured	-5804
▁awareness	-5805
▁atmosphere	-5806
▁conclusion	-5807
▁facilitate	-5808
▁coordinated	-5809
▁rebalancing	-5810
▁appreciation	-5811
▁overwhelming	-5812
▁surprisingly	-5813
CA	-5814
IP	-5815
GDP	-5816
aba	-5817
gor	-5818
xic	-5819
anke	-5820
arak	-5821
iban	-5822
iver	-5823
odes	-5824
tech	-5825
▁Few	-5826
▁SDR	-5827
▁hyp	-5828
▁swe	-5829
ecess	-5830
eping	-5831
▁Cont	-5832
▁Gulf	-5833
▁aims	-5834
▁cast	-5835
▁eyes	-5836
▁pict	-5837
▁pose	-5838
illenn	-5839
istrib	-5840
▁Power	-5841
▁crypt	-5842
▁virus	-5843
▁voice	-5844
growing	-5845
product	-5846
▁Resear	-5847
▁Rights	-5848
▁height	-5849
▁manner	-5850
▁mother	-5851
▁overse	-5852
▁slowed	-5853
▁yields	-5854
interest	-5855
▁Taliban	-5856
▁dropped	-5857
▁enabled	-5858
▁foresee	-5859
▁fulfill	-5860
▁pointed	-5861
▁selling	-5862
▁backlash	-5863
▁finances	-5864
▁publicly	-5865
▁underway	-5866
▁weakened	-5867
▁Southeast	-5868
▁Stability	-5869
▁architect	-5870
▁dictators	-5871
▁mortgages	-5872
▁predecess	-5873
▁unwilling	-5874
▁reputation	-5875
▁antibiotics	-5876
aunt	-5877
rous	-5878
▁Ban	-5879
▁ast	-5880
▁sch	-5881
integ	-5882
which	-5883
▁Cuba	-5884
▁didn	-5885
anging	-5886
commun	-5887
umping	-5888
▁Assad	-5889
▁Chair	-5890
▁abuse	-5891
▁insol	-5892
▁moves	-5893
▁newly	-5894
▁traff	-5895
▁watch	-5896
agement	-5897
enhagen	-5898
reshold	-5899
▁combat	-5900
▁divers	-5901
▁safegu	-5902
▁shadow	-5903
▁entered	-5904
▁profess	-5905
▁pursued	-5906
▁routine	-5907
▁limiting	-5908
▁remember	-5909
▁striking	-5910
▁confident	-5911
▁producing	-5912
▁Copenhagen	-5913
▁executives	-5914
▁generating	-5915
▁perception	-5916
▁trajectory	-5917
▁experiencing	-5918
▁shareholders	-5919
gg	-5920
ma	-5921
der	-5922
oms	-5923
pan	-5924
kers	-5925
stan	-5926
▁hur	-5927
oples	-5928
unger	-5929
▁Back	-5930
▁Char	-5931
▁ball	-5932
▁blow	-5933
▁epis	-5934
▁hear	-5935
▁pick	-5936
▁pure	-5937
▁uses	-5938
▁zone	-5939
▁Earth	-5940
▁Somet	-5941
▁arise	-5942
▁birth	-5943
▁homes	-5944
▁image	-5945
▁imply	-5946
▁kinds	-5947
▁lacks	-5948
▁newsp	-5949
▁Church	-5950
▁Crisis	-5951
▁propag	-5952
▁remote	-5953
▁richer	-5954
▁talent	-5955
▁voting	-5956
▁English	-5957
▁feature	-5958
▁gaining	-5959
▁Northern	-5960
▁dominant	-5961
▁dynamics	-5962
▁estimate	-5963
▁Committee	-5964
▁abandoned	-5965
▁diversity	-5966
▁obviously	-5967
▁threshold	-5968
▁weakening	-5969
▁Economists	-5970
▁background	-5971
▁statements	-5972
▁consistently	-5973
▁considerations	-5974
▁unconventional	-5975
CP	-5976
cor	-5977
ctr	-5978
eop	-5979
mad	-5980
raf	-5981
ador	-5982
▁cop	-5983
icism	-5984
iliar	-5985
price	-5986
▁Sunn	-5987
▁eval	-5988
▁hurt	-5989
eopard	-5990
estern	-5991
▁crash	-5992
▁eager	-5993
▁equip	-5994
▁noted	-5995
▁postp	-5996
forward	-5997
▁Berlin	-5998
▁Robert	-5999
▁Senate	-6000
▁condem	-6001
▁eradic	-6002
▁integr	-6003
▁proced	-6004
American	-6005
idelines	-6006
veraging	-6007
▁Defense	-6008
▁avoided	-6009
▁deposit	-6010
▁privile	-6011
▁undersc	-6012
▁version	-6013
inational	-6014
▁Bernanke	-6015
▁attempts	-6016
▁enabling	-6017
▁extended	-6018
▁imposing	-6019
▁reversed	-6020
▁demanding	-6021
▁forecasts	-6022
▁prevented	-6023
▁recommend	-6024
▁statement	-6025
▁artificial	-6026
▁assessment	-6027
▁foreigners	-6028
▁optimistic	-6029
▁presidents	-6030
▁discussions	-6031
▁progressive	-6032
▁fundamentals	-6033
▁collaboration	-6034
▁communication	-6035
▁sophisticated	-6036
CE	-6037
IB	-6038
gia	-6039
ica	-6040
que	-6041
ria	-6042
soc	-6043
▁AM	-6044
beit	-6045
coin	-6046
dict	-6047
etty	-6048
mony	-6049
ocol	-6050
rant	-6051
ruit	-6052
▁Dar	-6053
▁Dis	-6054
▁dim	-6055
▁hes	-6056
▁irr	-6057
▁ran	-6058
▁slo	-6059
▁Free	-6060
▁alle	-6061
▁jump	-6062
▁plun	-6063
▁pool	-6064
▁scar	-6065
▁toll	-6066
▁unex	-6067
▁word	-6068
▁youn	-6069
accept	-6070
iously	-6071
▁Alger	-6072
▁Frank	-6073
▁adult	-6074
▁chain	-6075
▁fails	-6076
▁scand	-6077
develop	-6078
▁Others	-6079
▁advert	-6080
▁famous	-6081
▁flight	-6082
▁notion	-6083
▁pessim	-6084
adjusted	-6085
▁Mediter	-6086
▁capture	-6087
▁convers	-6088
▁fashion	-6089
▁gradual	-6090
▁picture	-6091
▁adopting	-6092
▁announce	-6093
▁computer	-6094
▁epidemic	-6095
▁imperial	-6096
▁reliable	-6097
▁worrying	-6098
▁ambitions	-6099
▁obstacles	-6100
▁attempting	-6101
▁guarantees	-6102
▁meaningful	-6103
▁expenditure	-6104
▁participate	-6105
▁Mediterranean	-6106
DA	-6107
ius	-6108
new	-6109
abwe	-6110
inst	-6111
irty	-6112
oles	-6113
onia	-6114
osen	-6115
▁Aut	-6116
▁Dut	-6117
▁Inc	-6118
▁Law	-6119
▁fra	-6120
ordan	-6121
party	-6122
▁PBOC	-6123
▁Zimb	-6124
▁enth	-6125
▁loan	-6126
▁rail	-6127
▁PARIS	-6128
▁anger	-6129
▁aside	-6130
▁chaos	-6131
▁falls	-6132
▁grave	-6133
▁novel	-6134
▁staff	-6135
▁storm	-6136
▁Jordan	-6137
▁Nether	-6138
▁Unless	-6139
▁exclud	-6140
▁explos	-6141
▁inside	-6142
▁island	-6143
▁transl	-6144
▁chances	-6145
▁forcing	-6146
▁fueling	-6147
▁missing	-6148
▁Zimbabwe	-6149
▁champion	-6150
▁complain	-6151
▁disorder	-6152
▁focusing	-6153
▁inherent	-6154
▁prosecut	-6155
▁surpluses	-6156
▁concerning	-6157
▁minorities	-6158
▁purchasing	-6159
▁Netherlands	-6160
▁Nevertheless	-6161
eas	-6162
ein	-6163
▁Lo	-6164
born	-6165
oked	-6166
prof	-6167
resh	-6168
vard	-6169
▁Emp	-6170
▁Out	-6171
ailed	-6172
asive	-6173
efore	-6174
emics	-6175
hered	-6176
inded	-6177
▁City	-6178
▁SOEs	-6179
▁desp	-6180
▁docu	-6181
▁indu	-6182
▁knew	-6183
▁meat	-6184
▁roll	-6185
racted	-6186
▁pharm	-6187
▁plays	-6188
▁pragm	-6189
▁Malays	-6190
▁dispos	-6191
▁driver	-6192
▁saying	-6193
▁volume	-6194
▁Harvard	-6195
▁Hungary	-6196
▁cheaper	-6197
▁debates	-6198
▁eastern	-6199
▁jeopard	-6200
▁lasting	-6201
▁nowhere	-6202
▁planned	-6203
▁pricing	-6204
▁showing	-6205
▁tragedy	-6206
connected	-6207
ressional	-6208
▁accident	-6209
▁annivers	-6210
▁anywhere	-6211
▁explains	-6212
▁financed	-6213
▁mistakes	-6214
▁reliance	-6215
▁unaccept	-6216
▁component	-6217
▁conducted	-6218
▁desperate	-6219
▁favorable	-6220
▁affordable	-6221
▁assumption	-6222
▁automation	-6223
▁compelling	-6224
▁complement	-6225
▁foundation	-6226
▁enforcement	-6227
▁inefficient	-6228
▁contributing	-6229
▁expenditures	-6230
▁simultaneously	-6231
▁transportation	-6232
▁straightforward	-6233
TA	-6234
zb	-6235
rew	-6236
tax	-6237
yal	-6238
▁Rw	-6239
ande	-6240
band	-6241
otic	-6242
serv	-6243
▁Mub	-6244
▁Pan	-6245
▁lob	-6246
▁rig	-6247
▁ally	-6248
▁dele	-6249
▁ease	-6250
▁forg	-6251
▁onto	-6252
▁outl	-6253
▁pull	-6254
▁shut	-6255
▁turb	-6256
ioxide	-6257
▁David	-6258
▁Three	-6259
▁Where	-6260
▁White	-6261
▁Women	-6262
▁aspir	-6263
▁deleg	-6264
▁heads	-6265
zbollah	-6266
▁Simply	-6267
▁Ukrain	-6268
▁backed	-6269
▁detect	-6270
▁launch	-6271
▁openly	-6272
▁signal	-6273
▁stocks	-6274
▁waters	-6275
▁Mubarak	-6276
▁Tunisia	-6277
▁applies	-6278
▁courage	-6279
▁dealing	-6280
▁lenders	-6281
▁machine	-6282
▁paralle	-6283
▁shifted	-6284
▁vaccine	-6285
ltimately	-6286
▁Islamist	-6287
▁civilian	-6288
▁geograph	-6289
▁mitigate	-6290
▁purchase	-6291
▁replaced	-6292
▁resolved	-6293
▁slightly	-6294
▁commission	-6295
▁consistent	-6296
▁subsequent	-6297
▁accountable	-6298
▁adjustments	-6299
▁foundations	-6300
▁neighborhood	-6301
▁vulnerability	-6302
IJ	-6303
ebt	-6304
▁Cz	-6305
▁Im	-6306
amed	-6307
ihad	-6308
ivot	-6309
oned	-6310
rish	-6311
▁gam	-6312
IJING	-6313
agues	-6314
child	-6315
odies	-6316
orrow	-6317
osure	-6318
scape	-6319
unity	-6320
▁Year	-6321
▁barg	-6322
▁brid	-6323
▁prud	-6324
holder	-6325
▁Among	-6326
▁abund	-6327
▁drawn	-6328
▁Before	-6329
▁Cyprus	-6330
▁dispar	-6331
▁exists	-6332
▁presum	-6333
▁restra	-6334
▁solely	-6335
▁transm	-6336
atlantic	-6337
ominated	-6338
▁Denmark	-6339
▁channel	-6340
▁distant	-6341
▁malaria	-6342
▁ratings	-6343
▁spectac	-6344
▁testing	-6345
▁written	-6346
▁Russians	-6347
▁analysts	-6348
▁appeared	-6349
▁disinteg	-6350
▁mounting	-6351
▁supports	-6352
▁Hezbollah	-6353
▁resilient	-6354
▁suggested	-6355
▁threatens	-6356
▁Ultimately	-6357
▁disruption	-6358
▁catastrophe	-6359
▁contraction	-6360
▁transformed	-6361
▁difficulties	-6362
▁protectionism	-6363
BI	-6364
CO	-6365
tt	-6366
oto	-6367
▁Mc	-6368
▁Ug	-6369
cked	-6370
coni	-6371
iest	-6372
izon	-6373
lder	-6374
▁Bas	-6375
▁Mos	-6376
▁Who	-6377
▁glo	-6378
ebted	-6379
onial	-6380
▁dign	-6381
▁seed	-6382
▁upgr	-6383
ctrine	-6384
tering	-6385
▁align	-6386
▁harsh	-6387
▁repay	-6388
▁steel	-6389
▁valid	-6390
perform	-6391
▁Berlus	-6392
▁Norway	-6393
▁Within	-6394
▁enthus	-6395
▁passed	-6396
▁scheme	-6397
currency	-6398
▁BEIJING	-6399
▁Supreme	-6400
▁fastest	-6401
▁outlook	-6402
▁pursuit	-6403
▁skilled	-6404
▁winning	-6405
▁Research	-6406
▁Strategy	-6407
▁academic	-6408
▁channels	-6409
▁constant	-6410
▁indicate	-6411
▁mobilize	-6412
▁sacrific	-6413
ysfunction	-6414
▁Palestine	-6415
▁accounted	-6416
▁equipment	-6417
▁executive	-6418
▁contradict	-6419
▁university	-6420
▁Constitution	-6421
▁compensation	-6422
▁partnerships	-6423
▁characterized	-6424
▁modernization	-6425
▁discrimination	-6426
ER	-6427
SA	-6428
adv	-6429
fol	-6430
ids	-6431
ini	-6432
hand	-6433
icon	-6434
rase	-6435
roll	-6436
supp	-6437
▁Dec	-6438
▁Ren	-6439
▁ble	-6440
▁spl	-6441
utral	-6442
▁Camb	-6443
▁Emer	-6444
▁note	-6445
▁send	-6446
▁sets	-6447
▁spot	-6448
▁unst	-6449
iaries	-6450
icians	-6451
othing	-6452
▁Front	-6453
▁Irish	-6454
▁forth	-6455
▁incor	-6456
largest	-6457
▁belong	-6458
▁brutal	-6459
▁hunger	-6460
▁marked	-6461
▁regist	-6462
▁unions	-6463
▁uphold	-6464
▁Leaders	-6465
▁backing	-6466
▁peoples	-6467
▁possess	-6468
▁refused	-6469
▁reserve	-6470
▁torture	-6471
▁familiar	-6472
▁machines	-6473
▁meantime	-6474
▁mutually	-6475
▁original	-6476
▁exporters	-6477
▁projected	-6478
▁prolonged	-6479
▁provision	-6480
▁redistrib	-6481
▁wellbeing	-6482
▁Berlusconi	-6483
▁controlled	-6484
▁undermined	-6485
▁recognizing	-6486
▁applications	-6487
▁multinational	-6488
NA	-6489
no	-6490
ny	-6491
ked	-6492
lex	-6493
win	-6494
▁BO	-6495
▁Qu	-6496
iful	-6497
odox	-6498
onds	-6499
rime	-6500
uris	-6501
▁Hit	-6502
▁lab	-6503
▁tri	-6504
cking	-6505
claim	-6506
print	-6507
redit	-6508
▁Asse	-6509
▁Holl	-6510
▁Rich	-6511
▁Scot	-6512
▁acts	-6513
▁ends	-6514
▁gaps	-6515
▁mood	-6516
▁tele	-6517
▁unit	-6518
alling	-6519
invest	-6520
▁Gates	-6521
▁Sunni	-6522
▁arbit	-6523
▁donor	-6524
▁fresh	-6525
▁Reform	-6526
▁Rwanda	-6527
▁albeit	-6528
▁argues	-6529
▁couple	-6530
▁flawed	-6531
▁memory	-6532
▁retain	-6533
▁sexual	-6534
▁spring	-6535
chnology	-6536
▁Justice	-6537
▁binding	-6538
▁citizen	-6539
▁deserve	-6540
▁dilemma	-6541
▁doctors	-6542
▁feeling	-6543
▁landing	-6544
▁pledged	-6545
▁rightly	-6546
▁telling	-6547
▁Egyptian	-6548
▁Malaysia	-6549
▁delivery	-6550
▁foremost	-6551
▁invested	-6552
▁realized	-6553
▁sensible	-6554
▁separate	-6555
▁upcoming	-6556
▁Keynesian	-6557
▁connected	-6558
▁construct	-6559
▁regarding	-6560
▁reinforce	-6561
▁stabilize	-6562
▁succeeded	-6563
▁Industrial	-6564
▁beneficial	-6565
▁bureaucracy	-6566
▁considering	-6567
▁dysfunction	-6568
▁liabilities	-6569
▁revolutions	-6570
▁Policymakers	-6571
▁revolutionary	-6572
EA	-6573
HI	-6574
▁.	-6575
aks	-6576
cel	-6577
olf	-6578
yan	-6579
agan	-6580
olly	-6581
oted	-6582
ruck	-6583
▁Fut	-6584
▁Rel	-6585
▁Wen	-6586
▁fun	-6587
▁gar	-6588
inate	-6589
loyed	-6590
orate	-6591
▁AIIB	-6592
▁Deng	-6593
▁Food	-6594
▁curb	-6595
▁date	-6596
▁feas	-6597
▁fill	-6598
▁stre	-6599
▁suit	-6600
▁tech	-6601
Brexit	-6602
gorith	-6603
iances	-6604
icated	-6605
imated	-6606
irical	-6607
▁Found	-6608
▁Popul	-6609
▁advis	-6610
▁crops	-6611
▁write	-6612
erately	-6613
▁attend	-6614
▁begins	-6615
▁resign	-6616
▁scarce	-6617
▁sooner	-6618
▁unrest	-6619
utrition	-6620
▁Germans	-6621
▁anxiety	-6622
▁charges	-6623
▁consult	-6624
▁enlarge	-6625
▁erupted	-6626
▁focuses	-6627
▁granted	-6628
▁illness	-6629
▁joining	-6630
▁missile	-6631
▁schemes	-6632
▁Scotland	-6633
▁distinct	-6634
▁famously	-6635
▁Education	-6636
▁Recession	-6637
▁divisions	-6638
▁existence	-6639
▁intention	-6640
▁organized	-6641
▁shortages	-6642
▁interested	-6643
▁convergence	-6644
▁internationally	-6645
eda	-6646
spe	-6647
alem	-6648
cost	-6649
igen	-6650
ilib	-6651
lict	-6652
▁AMR	-6653
▁Adm	-6654
▁Ben	-6655
▁Gre	-6656
▁dub	-6657
▁isn	-6658
▁tum	-6659
orted	-6660
▁Supp	-6661
▁abol	-6662
▁cart	-6663
▁hero	-6664
▁love	-6665
▁myth	-6666
▁ster	-6667
establ	-6668
ighter	-6669
incing	-6670
ounced	-6671
redict	-6672
▁Catal	-6673
▁Czech	-6674
▁brain	-6675
▁insur	-6676
▁jihad	-6677
▁juris	-6678
▁manif	-6679
▁mixed	-6680
▁seeks	-6681
▁stood	-6682
▁sympt	-6683
illance	-6684
▁basket	-6685
▁funded	-6686
▁missed	-6687
▁oppose	-6688
▁poorly	-6689
▁rooted	-6690
▁Neither	-6691
▁disturb	-6692
▁element	-6693
▁immense	-6694
▁justify	-6695
▁liberty	-6696
▁portfol	-6697
▁prepare	-6698
▁streets	-6699
▁talking	-6700
▁Whatever	-6701
▁approval	-6702
▁autonomy	-6703
▁distingu	-6704
▁findings	-6705
▁fraction	-6706
▁lowering	-6707
▁medicine	-6708
▁occasion	-6709
▁overseas	-6710
▁produces	-6711
▁Christian	-6712
▁Otherwise	-6713
▁collapsed	-6714
▁dominance	-6715
▁meanwhile	-6716
▁presented	-6717
▁comparable	-6718
▁anniversary	-6719
▁assumptions	-6720
▁neighboring	-6721
▁predictable	-6722
▁deflationary	-6723
DB	-6724
EU	-6725
akh	-6726
bor	-6727
cap	-6728
cow	-6729
hab	-6730
osn	-6731
uls	-6732
▁Hu	-6733
AVEN	-6734
ache	-6735
emen	-6736
fold	-6737
made	-6738
outs	-6739
rect	-6740
rium	-6741
rors	-6742
spec	-6743
▁Had	-6744
▁Jun	-6745
▁Mao	-6746
▁Ref	-6747
▁ang	-6748
▁dog	-6749
▁los	-6750
▁mag	-6751
edded	-6752
sheet	-6753
▁Roma	-6754
▁code	-6755
▁cure	-6756
▁deny	-6757
▁reap	-6758
▁rock	-6759
▁star	-6760
▁teac	-6761
▁wall	-6762
ispens	-6763
▁Dutch	-6764
▁Goals	-6765
▁HAVEN	-6766
▁coinc	-6767
▁plaus	-6768
▁print	-6769
▁seats	-6770
▁toxic	-6771
ounding	-6772
▁Agency	-6773
▁Uganda	-6774
▁lowest	-6775
▁marria	-6776
▁steady	-6777
▁Economy	-6778
▁accused	-6779
▁ancient	-6780
▁genetic	-6781
▁paradox	-6782
▁patient	-6783
▁preserv	-6784
▁retreat	-6785
▁surpass	-6786
▁visible	-6787
▁Emerging	-6788
▁adoption	-6789
▁balances	-6790
▁investor	-6791
▁obstacle	-6792
▁openness	-6793
▁surround	-6794
▁Sometimes	-6795
▁affecting	-6796
▁deepening	-6797
▁explained	-6798
▁interpret	-6799
▁landscape	-6800
▁premature	-6801
iodiversity	-6802
▁irrelevant	-6803
▁prevailing	-6804
▁Sustainable	-6805
▁demonstrate	-6806
▁importantly	-6807
▁achievements	-6808
▁constructive	-6809
▁surveillance	-6810
▁destabilizing	-6811
CT	-6812
Is	-6813
WI	-6814
irm	-6815
▁TV	-6816
aeda	-6817
athy	-6818
aval	-6819
isan	-6820
omal	-6821
ooth	-6822
uity	-6823
▁Ang	-6824
▁Her	-6825
▁Nic	-6826
▁Xia	-6827
▁sun	-6828
atism	-6829
ophob	-6830
polit	-6831
vency	-6832
▁Does	-6833
▁Jews	-6834
▁Sand	-6835
▁bust	-6836
▁cate	-6837
▁degr	-6838
▁luck	-6839
▁pays	-6840
▁tail	-6841
▁vice	-6842
irable	-6843
▁books	-6844
▁crack	-6845
▁elder	-6846
▁enfor	-6847
▁fault	-6848
▁happy	-6849
▁hydro	-6850
▁navig	-6851
▁overt	-6852
▁remed	-6853
▁saved	-6854
respons	-6855
▁Hitler	-6856
▁Moscow	-6857
▁advent	-6858
▁career	-6859
▁chosen	-6860
▁fairly	-6861
▁headed	-6862
▁looked	-6863
▁struck	-6864
▁upward	-6865
▁Austria	-6866
▁alleged	-6867
▁complac	-6868
▁emotion	-6869
▁greatly	-6870
▁restric	-6871
▁tactics	-6872
▁waiting	-6873
▁younger	-6874
emocratic	-6875
▁doctrine	-6876
▁employed	-6877
▁optimism	-6878
▁persuade	-6879
▁activists	-6880
▁alongside	-6881
▁governing	-6882
▁motivated	-6883
▁residents	-6884
▁strongest	-6885
▁targeting	-6886
▁acceptable	-6887
▁altogether	-6888
▁confronted	-6889
▁guaranteed	-6890
▁negotiated	-6891
▁persistent	-6892
▁reductions	-6893
▁unilateral	-6894
governmental	-6895
▁commodities	-6896
▁differently	-6897
▁catastrophic	-6898
Th	-6899
ón	-6900
afi	-6901
amb	-6902
bur	-6903
dig	-6904
ley	-6905
rad	-6906
rav	-6907
▁ES	-6908
▁Os	-6909
orsi	-6910
pper	-6911
rage	-6912
▁Bit	-6913
▁Don	-6914
▁Lar	-6915
▁Pet	-6916
▁fit	-6917
▁pul	-6918
▁tom	-6919
▁ult	-6920
▁web	-6921
enced	-6922
erted	-6923
night	-6924
ourse	-6925
prime	-6926
tical	-6927
uated	-6928
water	-6929
▁Balk	-6930
▁Marx	-6931
▁cope	-6932
▁fine	-6933
▁halt	-6934
▁laid	-6935
▁rain	-6936
▁uphe	-6937
▁vary	-6938
minded	-6939
owners	-6940
▁Davos	-6941
▁Doing	-6942
▁Morsi	-6943
▁Would	-6944
▁admit	-6945
▁ample	-6946
▁bench	-6947
▁entit	-6948
▁entry	-6949
▁facto	-6950
▁innoc	-6951
▁sheet	-6952
▁tends	-6953
aunting	-6954
reement	-6955
▁adding	-6956
▁contag	-6957
▁resent	-6958
▁stakes	-6959
▁triump	-6960
▁unfair	-6961
ceptions	-6962
▁Bitcoin	-6963
▁cryptoc	-6964
▁details	-6965
▁dioxide	-6966
▁enemies	-6967
▁exchang	-6968
▁exploit	-6969
▁harmful	-6970
▁intense	-6971
▁shaping	-6972
including	-6973
ronically	-6974
▁Assembly	-6975
▁Hollande	-6976
▁arguably	-6977
▁dominate	-6978
▁exposure	-6979
▁numerous	-6980
▁observed	-6981
▁overlook	-6982
▁preserve	-6983
▁recorded	-6984
▁soldiers	-6985
▁taxation	-6986
▁theories	-6987
▁volatile	-6988
▁Represent	-6989
▁attracted	-6990
▁destroyed	-6991
▁fertility	-6992
▁prominent	-6993
▁sensitive	-6994
▁colleagues	-6995
▁definition	-6996
▁delivering	-6997
▁depression	-6998
▁diminished	-6999
▁enterprise	-7000
▁extremists	-7001
▁propaganda	-7002
▁punishment	-7003
▁Brotherhood	-7004
▁competitors	-7005
▁constrained	-7006
▁enlargement	-7007
▁involvement	-7008
▁manufacture	-7009
▁concentrated	-7010
▁urbanization	-7011
▁professionals	-7012
ES	-7013
It	-7014
LA	-7015
Wh	-7016
oo	-7017
alt	-7018
asp	-7019
iev	-7020
ola	-7021
▁CD	-7022
▁sy	-7023
agon	-7024
anes	-7025
educ	-7026
ests	-7027
fire	-7028
hani	-7029
imal	-7030
oler	-7031
owed	-7032
real	-7033
▁Lis	-7034
▁Mad	-7035
▁Tax	-7036
▁Ter	-7037
▁hed	-7038
aceut	-7039
haust	-7040
riend	-7041
▁Kurd	-7042
▁caut	-7043
▁lawy	-7044
▁lift	-7045
▁mism	-7046
▁outf	-7047
▁unle	-7048
advant	-7049
ailing	-7050
enspan	-7051
ipping	-7052
urpris	-7053
▁Banks	-7054
▁Group	-7055
▁fluct	-7056
▁guard	-7057
▁pound	-7058
▁proud	-7059
▁ranks	-7060
▁seize	-7061
▁white	-7062
▁Depart	-7063
▁Fourth	-7064
▁Making	-7065
▁Reagan	-7066
▁agents	-7067
▁asking	-7068
▁blamed	-7069
▁bodies	-7070
▁method	-7071
▁prompt	-7072
▁refuse	-7073
▁select	-7074
▁stream	-7075
▁trials	-7076
▁voices	-7077
▁weapon	-7078
▁Twitter	-7079
▁bolster	-7080
▁classes	-7081
▁decreas	-7082
▁enacted	-7083
aceutical	-7084
▁Alliance	-7085
▁avoiding	-7086
▁conclude	-7087
▁convince	-7088
▁feasible	-7089
▁ideology	-7090
▁involves	-7091
▁reminder	-7092
▁steadily	-7093
ispensable	-7094
▁Churchill	-7095
▁Economics	-7096
▁disadvant	-7097
▁disasters	-7098
▁imbalance	-7099
▁integrate	-7100
▁operation	-7101
▁protected	-7102
▁reporting	-7103
▁secondary	-7104
▁Developing	-7105
▁Foundation	-7106
▁comparison	-7107
▁expression	-7108
▁politician	-7109
▁supposedly	-7110
▁weaknesses	-7111
▁desperately	-7112
▁highlighted	-7113
▁influential	-7114
▁Conservative	-7115
▁inflationary	-7116
DI	-7117
cul	-7118
jud	-7119
len	-7120
och	-7121
sun	-7122
▁Ha	-7123
▁od	-7124
cell	-7125
fund	-7126
mmet	-7127
onym	-7128
velt	-7129
wind	-7130
▁Ann	-7131
▁Cur	-7132
▁End	-7133
▁Est	-7134
▁San	-7135
▁cab	-7136
▁hub	-7137
▁neo	-7138
▁sem	-7139
apers	-7140
ected	-7141
elect	-7142
eting	-7143
think	-7144
usive	-7145
▁Good	-7146
▁Next	-7147
▁blue	-7148
energy	-7149
▁conce	-7150
▁finds	-7151
▁grows	-7152
▁input	-7153
▁lived	-7154
▁loyal	-7155
▁merit	-7156
▁roles	-7157
▁route	-7158
▁sight	-7159
▁sites	-7160
▁stark	-7161
▁tasks	-7162
essions	-7163
iration	-7164
osevelt	-7165
sharing	-7166
▁Follow	-7167
▁Future	-7168
▁School	-7169
▁consid	-7170
▁cycles	-7171
▁doubts	-7172
▁empire	-7173
▁forget	-7174
▁murder	-7175
▁Algeria	-7176
▁Juncker	-7177
▁carries	-7178
▁closing	-7179
▁drivers	-7180
▁drought	-7181
▁forests	-7182
▁relying	-7183
▁somehow	-7184
roportion	-7185
▁algorith	-7186
▁chemical	-7187
▁downside	-7188
▁purposes	-7189
▁superior	-7190
▁treaties	-7191
▁Institute	-7192
▁accepting	-7193
▁alliances	-7194
▁introduce	-7195
▁preferred	-7196
▁principal	-7197
▁resolving	-7198
▁Department	-7199
▁complexity	-7200
▁emphasized	-7201
▁facilities	-7202
▁likelihood	-7203
▁reinforced	-7204
▁achievement	-7205
▁predictions	-7206
▁unacceptable	-7207
▁consideration	-7208
▁controversial	-7209
NP	-7210
sen	-7211
vis	-7212
▁Gh	-7213
ELHI	-7214
adly	-7215
eing	-7216
eted	-7217
ocal	-7218
▁Equ	-7219
▁blu	-7220
▁ing	-7221
▁meg	-7222
▁seg	-7223
inces	-7224
ollar	-7225
ormal	-7226
skept	-7227
▁Bill	-7228
▁Chen	-7229
▁Hill	-7230
▁calm	-7231
▁intr	-7232
▁pand	-7233
▁prox	-7234
▁subm	-7235
▁suic	-7236
▁terr	-7237
▁trem	-7238
▁unus	-7239
▁warm	-7240
active	-7241
aution	-7242
necess	-7243
▁Crime	-7244
▁DELHI	-7245
▁Macri	-7246
▁crowd	-7247
▁inher	-7248
▁phone	-7249
▁plumm	-7250
▁roads	-7251
▁Corpor	-7252
▁Jewish	-7253
▁abuses	-7254
▁calcul	-7255
▁disarm	-7256
▁fields	-7257
▁freely	-7258
▁lately	-7259
▁mental	-7260
▁shaped	-7261
cription	-7262
ilibrium	-7263
▁Georgia	-7264
▁Several	-7265
▁arguing	-7266
▁declare	-7267
▁earthqu	-7268
▁factory	-7269
▁farming	-7270
▁periods	-7271
▁Independ	-7272
▁actively	-7273
▁approved	-7274
▁arrested	-7275
▁attitude	-7276
▁division	-7277
▁enhanced	-7278
▁features	-7279
▁holdings	-7280
▁implicit	-7281
▁widening	-7282
▁Islamists	-7283
▁Roosevelt	-7284
▁benchmark	-7285
▁communist	-7286
▁competing	-7287
▁emphasize	-7288
▁materials	-7289
▁safeguard	-7290
▁successor	-7291
▁Convention	-7292
▁adequately	-7293
▁infectious	-7294
▁popularity	-7295
▁prevention	-7296
▁arrangement	-7297
▁declaration	-7298
▁distributed	-7299
▁engineering	-7300
▁existential	-7301
▁disproportion	-7302
▁pharmaceutical	-7303
▁reconciliation	-7304
▁representative	-7305
."	-7306
HO	-7307
RC	-7308
fe	-7309
RID	-7310
anz	-7311
ums	-7312
▁Em	-7313
aker	-7314
indu	-7315
itch	-7316
▁MAD	-7317
▁Mah	-7318
▁Moh	-7319
▁Net	-7320
▁bid	-7321
▁bio	-7322
▁cas	-7323
▁tap	-7324
▁yen	-7325
icing	-7326
itate	-7327
itely	-7328
itzer	-7329
ivals	-7330
under	-7331
viron	-7332
▁duty	-7333
▁male	-7334
▁quot	-7335
▁subt	-7336
▁tsun	-7337
▁Board	-7338
▁Yemen	-7339
▁blind	-7340
▁peril	-7341
▁piece	-7342
▁skill	-7343
▁train	-7344
▁zones	-7345
lusions	-7346
viously	-7347
▁Better	-7348
▁Having	-7349
▁Lisbon	-7350
▁Report	-7351
▁judges	-7352
▁occurs	-7353
▁ratios	-7354
▁relies	-7355
▁remove	-7356
▁robots	-7357
▁spiral	-7358
▁stated	-7359
quarters	-7360
▁closest	-7361
▁dignity	-7362
▁exhaust	-7363
▁follows	-7364
▁grounds	-7365
▁horizon	-7366
▁legally	-7367
▁neglect	-7368
▁prefere	-7369
▁richest	-7370
▁believes	-7371
▁coherent	-7372
▁daunting	-7373
▁displace	-7374
▁embraced	-7375
▁judgment	-7376
▁overhaul	-7377
▁proclaim	-7378
▁quarters	-7379
▁reckless	-7380
▁tomorrow	-7381
▁Agreement	-7382
▁Greenspan	-7383
▁cooperate	-7384
▁diagnosis	-7385
▁happiness	-7386
▁headlines	-7387
▁inability	-7388
▁intervene	-7389
▁involving	-7390
▁mortality	-7391
▁realities	-7392
▁requiring	-7393
▁criticized	-7394
▁disastrous	-7395
▁retirement	-7396
▁anticipated	-7397
▁foreseeable	-7398
▁underpinned	-7399
▁biodiversity	-7400
▁respectively	-7401
▁confrontation	-7402
FOR	-7403
Sem	-7404
igm	-7405
lor	-7406
mal	-7407
uzz	-7408
▁Ev	-7409
▁Gü	-7410
berg	-7411
iced	-7412
ione	-7413
olas	-7414
rary	-7415
soft	-7416
ught	-7417
▁Age	-7418
▁cum	-7419
▁hom	-7420
alley	-7421
aying	-7422
comed	-7423
erson	-7424
ifies	-7425
inger	-7426
inter	-7427
▁Coop	-7428
▁Cost	-7429
▁Modi	-7430
▁Prom	-7431
▁Real	-7432
▁fool	-7433
▁heat	-7434
▁pipe	-7435
▁sake	-7436
▁stif	-7437
▁tons	-7438
▁wins	-7439
ocking	-7440
orting	-7441
uction	-7442
▁Above	-7443
▁Inter	-7444
▁Moroc	-7445
▁Somal	-7446
▁Worse	-7447
▁brief	-7448
▁cards	-7449
▁chose	-7450
▁incur	-7451
▁laure	-7452
▁split	-7453
leading	-7454
▁MADRID	-7455
▁adults	-7456
▁circle	-7457
▁harmon	-7458
▁incumb	-7459
▁master	-7460
▁thrive	-7461
▁turbul	-7462
▁vested	-7463
▁animals	-7464
▁doubled	-7465
▁enables	-7466
▁forever	-7467
▁notable	-7468
▁reduces	-7469
▁statist	-7470
▁typical	-7471
▁claiming	-7472
▁defaults	-7473
▁deployed	-7474
▁province	-7475
▁campaigns	-7476
▁childhood	-7477
▁confirmed	-7478
▁disappear	-7479
▁empirical	-7480
▁imperfect	-7481
▁magnitude	-7482
▁returning	-7483
▁screening	-7484
▁successes	-7485
information	-7486
▁Government	-7487
▁challenged	-7488
▁discovered	-7489
▁intentions	-7490
▁temptation	-7491
▁accordingly	-7492
▁confronting	-7493
▁equilibrium	-7494
▁nonetheless	-7495
▁represented	-7496
▁acknowledged	-7497
▁announcement	-7498
▁expansionary	-7499
▁stakeholders	-7500
▁sufficiently	-7501
▁communications	-7502
▁representatives	-7503
arr	-7504
bas	-7505
ghi	-7506
ham	-7507
▁ST	-7508
▁na	-7509
atri	-7510
cher	-7511
ixon	-7512
left	-7513
▁Dra	-7514
▁Rec	-7515
▁Sal	-7516
▁bon	-7517
▁dur	-7518
▁map	-7519
▁scr	-7520
Semit	-7521
arked	-7522
azakh	-7523
omics	-7524
ronts	-7525
sider	-7526
▁Bash	-7527
▁Fear	-7528
▁Nazi	-7529
▁Peru	-7530
▁Sino	-7531
▁cold	-7532
▁mira	-7533
▁obsc	-7534
▁perv	-7535
▁symp	-7536
istant	-7537
▁Ocean	-7538
▁Times	-7539
▁chair	-7540
▁check	-7541
▁giant	-7542
▁gross	-7543
▁hoped	-7544
▁incre	-7545
▁notes	-7546
▁pione	-7547
▁quiet	-7548
inction	-7549
lihoods	-7550
▁Cambod	-7551
▁Summit	-7552
▁Valley	-7553
▁anemic	-7554
▁formed	-7555
▁fortun	-7556
▁foster	-7557
▁precip	-7558
▁recall	-7559
▁rescue	-7560
▁serves	-7561
▁smooth	-7562
▁soared	-7563
▁therap	-7564
▁timing	-7565
▁Environ	-7566
▁Freedom	-7567
▁Morocco	-7568
▁Nuclear	-7569
▁Switzer	-7570
▁aggress	-7571
▁answers	-7572
▁arrived	-7573
▁aspects	-7574
▁consume	-7575
▁contest	-7576
▁elderly	-7577
▁emulate	-7578
▁looming	-7579
▁regular	-7580
▁revival	-7581
▁scrutin	-7582
▁stagger	-7583
▁surface	-7584
▁warfare	-7585
▁writing	-7586
▁advocate	-7587
▁ambition	-7588
▁cultures	-7589
▁earnings	-7590
▁embedded	-7591
▁manifest	-7592
▁marriage	-7593
▁socially	-7594
▁software	-7595
▁troubles	-7596
▁welcomed	-7597
▁Following	-7598
▁criminals	-7599
▁hospitals	-7600
▁integrity	-7601
▁naturally	-7602
▁occurring	-7603
▁overwhelm	-7604
▁plausible	-7605
▁preparing	-7606
▁recovered	-7607
▁selection	-7608
▁unpredict	-7609
▁adaptation	-7610
▁constitute	-7611
▁creativity	-7612
▁deterrence	-7613
▁guidelines	-7614
▁insecurity	-7615
▁instrument	-7616
▁treatments	-7617
▁unexpected	-7618
▁Switzerland	-7619
▁dangerously	-7620
▁exacerbated	-7621
▁interdepend	-7622
▁contemporary	-7623
▁concentration	-7624
▁indispensable	-7625
▁disintegration	-7626
AC	-7627
ao	-7628
LIN	-7629
ima	-7630
imm	-7631
jad	-7632
sey	-7633
tra	-7634
vey	-7635
zed	-7636
▁Up	-7637
AIDS	-7638
atar	-7639
atch	-7640
ball	-7641
cend	-7642
even	-7643
lymp	-7644
offs	-7645
▁PRI	-7646
▁coc	-7647
▁son	-7648
chain	-7649
erman	-7650
ester	-7651
isher	-7652
ymmet	-7653
▁Deal	-7654
▁Pact	-7655
▁Time	-7656
▁brib	-7657
▁depr	-7658
▁enjo	-7659
▁erod	-7660
▁evil	-7661
▁exem	-7662
▁grav	-7663
▁seat	-7664
▁wise	-7665
anding	-7666
inejad	-7667
rators	-7668
▁Ahmad	-7669
▁Child	-7670
▁Elect	-7671
▁Gülen	-7672
▁Nixon	-7673
▁arsen	-7674
▁cease	-7675
▁flaws	-7676
▁grant	-7677
▁haven	-7678
▁marks	-7679
▁owned	-7680
▁pivot	-7681
▁plain	-7682
▁revel	-7683
▁schol	-7684
▁spill	-7685
▁topic	-7686
▁unequ	-7687
content	-7688
rations	-7689
society	-7690
▁Agenda	-7691
▁Asians	-7692
▁Common	-7693
▁Draghi	-7694
▁Kazakh	-7695
▁Terror	-7696
▁corner	-7697
▁differ	-7698
▁fellow	-7699
▁helium	-7700
▁hurric	-7701
▁seeing	-7702
▁solved	-7703
lusively	-7704
specific	-7705
▁Finance	-7706
▁Francis	-7707
▁Pacific	-7708
▁Similar	-7709
▁assumes	-7710
▁brother	-7711
▁college	-7712
▁evolved	-7713
▁extends	-7714
▁lacking	-7715
▁orderly	-7716
▁technoc	-7717
▁unclear	-7718
▁vicious	-7719
struction	-7720
▁captured	-7721
▁creditor	-7722
▁cyclical	-7723
▁declines	-7724
▁generous	-7725
▁hegemony	-7726
▁imported	-7727
▁incorpor	-7728
▁isolated	-7729
▁warnings	-7730
▁Companies	-7731
▁desirable	-7732
▁discovery	-7733
▁discussed	-7734
▁philosoph	-7735
▁regularly	-7736
▁Conference	-7737
▁appreciate	-7738
▁convincing	-7739
▁electorate	-7740
▁eliminated	-7741
▁expectancy	-7742
▁highlights	-7743
▁incomplete	-7744
▁responding	-7745
▁distortions	-7746
▁interesting	-7747
▁speculative	-7748
▁architecture	-7749
▁deleveraging	-7750
▁dictatorship	-7751
EM	-7752
IT	-7753
ky	-7754
oe	-7755
ps	-7756
...	-7757
WII	-7758
kin	-7759
ulg	-7760
▁Mu	-7761
▁sn	-7762
agog	-7763
aked	-7764
esty	-7765
high	-7766
lugg	-7767
▁Che	-7768
▁Cup	-7769
▁Inf	-7770
▁NCD	-7771
▁Opp	-7772
▁Pik	-7773
▁Too	-7774
▁WTO	-7775
▁bab	-7776
▁bip	-7777
▁nom	-7778
▁rac	-7779
▁raw	-7780
▁yes	-7781
dated	-7782
iques	-7783
ishes	-7784
speed	-7785
▁Debt	-7786
▁HONG	-7787
▁KONG	-7788
▁MDGs	-7789
▁Shia	-7790
▁Tony	-7791
▁cens	-7792
▁odds	-7793
▁pact	-7794
▁site	-7795
▁succ	-7796
addafi	-7797
endous	-7798
guided	-7799
iating	-7800
uating	-7801
unicip	-7802
▁Apple	-7803
▁Could	-7804
▁Iraqi	-7805
▁Kyoto	-7806
▁Olymp	-7807
▁bills	-7808
▁breat	-7809
▁cohes	-7810
▁consp	-7811
▁deriv	-7812
▁drove	-7813
▁honor	-7814
▁hyper	-7815
▁incon	-7816
▁squee	-7817
▁stuck	-7818
▁ultra	-7819
luggish	-7820
ultural	-7821
▁Fiscal	-7822
▁behave	-7823
▁bought	-7824
▁bright	-7825
▁denial	-7826
▁endors	-7827
▁revive	-7828
▁slogan	-7829
▁soccer	-7830
▁theore	-7831
▁Piketty	-7832
▁affects	-7833
▁booming	-7834
▁breakup	-7835
▁cabinet	-7836
▁monitor	-7837
▁passing	-7838
▁sending	-7839
▁spurred	-7840
▁strikes	-7841
▁suffers	-7842
▁unknown	-7843
efficient	-7844
▁audience	-7845
▁	-7846
e	-7847
t	-7848
a	-7849
i	-7850
n	-7851
o	-7852
s	-7853
r	-7854
l	-7855
h	-7856
c	-7857
d	-7858
u	-7859
m	-7860
p	-7861
f	-7862
g	-7863
y	-7864
w	-7865
b	-7866
,	-7867
v	-7868
.	-7869
k	-7870
T	-7871
A	-7872
-	-7873
I	-7874
’	-7875
S	-7876
C	-7877
x	-7878
B	-7879
E	-7880
0	-7881
U	-7882
–	-7883
P	-7884
z	-7885
M	-7886
1	-7887
W	-7888
2	-7889
q	-7890
F	-7891
j	-7892
G	-7893
N	-7894
D	-7895
O	-7896
R	-7897
“	-7898
”	-7899
H	-7900
9	-7901
%	-7902
L	-7903
K	-7904
5	-7905
J	-7906
)	-7907
(	-7908
3	-7909
?	-7910
8	-7911
:	-7912
4	-7913
7	-7914
6	-7915
Y	-7916
;	-7917
$	-7918
V	-7919
'	-7920
X	-7921
Q	-7922
Z	-7923
"	-7924
/	-7925
é	-7926
€	-7927
ğ	-7928
á	-7929
&	-7930
!	-7931
·	-7932
ü	-7933
ó	-7934
¥	-7935
[	-7936
]	-7937
à	-7938
‘	-7939
+	-7940
ñ	-7941
°	-7942
í	-7943
£	-7944
ç	-7945
—	-7946
ö	-7947
ä	-7948
ï	-7949
É	-7950
­	-7951
â	-7952
ã	-7953
è	-7954
#	-7955
•	-7956
Á	-7957
ú	-7958
ê	-7959
œ	-7960
−	-7961
ć	-7962
š	-7963
ô	-7964
ş	-7965
@	-7966
ε	-7967
î	-7968
č	-7969
ł	-7970
ń	-7971
Ã	-7972
å	-7973
ø	-7974
́	-7975
*	-7976
=	-7977
\	-7978
_	-7979
Å	-7980
Ó	-7981
Ü	-7982
ă	-7983
İ	-7984
ı	-7985
ō	-7986
Ő	-7987
Š	-7988
ű	-7989
ž	-7990
ȃ	-7991
ș	-7992
ứ	-7993
‐	-7994
‒	-7995
