<pad>	0
<unk>	0
<s>	0
</s>	0
▁t	-0
▁a	-1
in	-2
he	-3
re	-4
on	-5
▁the	-6
er	-7
at	-8
en	-9
▁c	-10
▁s	-11
an	-12
▁o	-13
es	-14
it	-15
▁w	-16
or	-17
al	-18
is	-19
▁p	-20
▁b	-21
▁in	-22
▁f	-23
ic	-24
nd	-25
ed	-26
ing	-27
▁to	-28
▁m	-29
ar	-30
ion	-31
▁of	-32
ro	-33
▁and	-34
▁d	-35
ou	-36
ent	-37
le	-38
▁th	-39
st	-40
▁e	-41
▁h	-42
▁re	-43
om	-44
il	-45
▁n	-46
ve	-47
as	-48
ly	-49
▁A	-50
▁l	-51
▁g	-52
▁be	-53
ct	-54
ut	-55
▁is	-56
ation	-57
ol	-58
▁T	-59
▁that	-60
im	-61
ce	-62
se	-63
ver	-64
▁for	-65
ra	-66
▁de	-67
ur	-68
ot	-69
ment	-70
ld	-71
ri	-72
▁I	-73
▁on	-74
id	-75
et	-76
ow	-77
ill	-78
nt	-79
▁st	-80
▁it	-81
ch	-82
ad	-83
▁pro	-84
ig	-85
▁u	-86
ate	-87
ir	-88
ul	-89
▁con	-90
▁mo	-91
ers	-92
▁as	-93
op	-94
est	-95
ith	-96
ity	-97
▁S	-98
▁–	-99
▁B	-100
▁The	-101
▁wh	-102
▁su	-103
▁cou	-104
ort	-105
▁are	-106
▁al	-107
her	-108
ess	-109
▁ne	-110
th	-111
▁with	-112
▁C	-113
ric	-114
ge	-115
ab	-116
ies	-117
ay	-118
▁E	-119
▁U	-120
ist	-121
▁ex	-122
pe	-123
▁an	-124
res	-125
ain	-126
con	-127
▁com	-128
am	-129
ter	-130
us	-131
▁we	-132
ive	-133
▁by	-134
▁ha	-135
▁not	-136
ci	-137
ke	-138
▁Af	-139
pp	-140
em	-141
if	-142
and	-143
▁wor	-144
▁se	-145
▁M	-146
▁will	-147
ust	-148
ac	-149
▁count	-150
▁W	-151
▁y	-152
▁have	-153
▁has	-154
lo	-155
▁le	-156
conom	-157
qu	-158
iv	-159
▁r	-160
ould	-161
▁v	-162
um	-163
gh	-164
▁en	-165
▁he	-166
▁pol	-167
▁sh	-168
rom	-169
▁econom	-170
▁im	-171
iz	-172
▁go	-173
▁ch	-174
ap	-175
▁F	-176
un	-177
▁more	-178
▁P	-179
ical	-180
▁at	-181
ia	-182
▁Afric	-183
▁from	-184
ure	-185
ant	-186
art	-187
ome	-188
▁their	-189
ries	-190
ans	-191
▁or	-192
▁“	-193
▁2	-194
ions	-195
▁G	-196
red	-197
ast	-198
os	-199
▁imp	-200
od	-201
el	-202
▁countries	-203
▁N	-204
uro	-205
mer	-206
ong	-207
ear	-208
ff	-209
row	-210
▁so	-211
▁inc	-212
vel	-213
▁can	-214
ore	-215
▁res	-216
▁un	-217
▁its	-218
▁int	-219
igh	-220
▁ag	-221
▁US	-222
▁But	-223
end	-224
ther	-225
du	-226
▁R	-227
all	-228
▁In	-229
▁was	-230
ak	-231
▁20	-232
cial	-233
▁ad	-234
cc	-235
ance	-236
ru	-237
able	-238
▁D	-239
▁ab	-240
ich	-241
▁cont	-242
▁than	-243
ational	-244
▁would	-245
reat	-246
vern	-247
ect	-248
▁year	-249
▁this	-250
▁world	-251
ult	-252
ud	-253
▁1	-254
▁which	-255
urope	-256
▁j	-257
▁man	-258
ous	-259
▁O	-260
▁grow	-261
oc	-262
ations	-263
▁govern	-264
rou	-265
▁they	-266
▁Europe	-267
▁comp	-268
pt	-269
ary	-270
bal	-271
out	-272
▁Ch	-273
▁pe	-274
▁Africa	-275
ib	-276
ress	-277
▁all	-278
▁H	-279
ven	-280
ard	-281
▁dis	-282
ign	-283
ost	-284
▁fin	-285
ated	-286
▁whe	-287
ates	-288
velop	-289
▁Th	-290
lobal	-291
▁fa	-292
lic	-293
▁tra	-294
▁rec	-295
ial	-296
▁new	-297
▁exp	-298
ments	-299
og	-300
▁economic	-301
ie	-302
▁part	-303
▁but	-304
meric	-305
ms	-306
▁bec	-307
▁inv	-308
ry	-309
ack	-310
ike	-311
ide	-312
▁do	-313
ark	-314
for	-315
ip	-316
▁(	-317
▁polit	-318
one	-319
ren	-320
▁J	-321
ub	-322
▁Americ	-323
▁pl	-324
▁out	-325
▁me	-326
ence	-327
▁Chin	-328
ag	-329
ction	-330
▁global	-331
▁lead	-332
so	-333
age	-334
ople	-335
▁polic	-336
▁Un	-337
▁need	-338
▁one	-339
▁comm	-340
de	-341
ors	-342
▁other	-343
ris	-344
▁reg	-345
ree	-346
▁people	-347
▁who	-348
▁develop	-349
are	-350
▁over	-351
ight	-352
▁been	-353
ank	-354
pport	-355
▁dec	-356
▁inter	-357
▁K	-358
▁L	-359
fic	-360
ime	-361
▁growth	-362
▁ma	-363
au	-364
ces	-365
ire	-366
ll	-367
ition	-368
ens	-369
ile	-370
ine	-371
ern	-372
ities	-373
reas	-374
ility	-375
illion	-376
ue	-377
ower	-378
our	-379
nder	-380
▁invest	-381
ord	-382
▁like	-383
▁po	-384
▁work	-385
▁eff	-386
▁also	-387
ally	-388
▁acc	-389
ts	-390
ose	-391
▁most	-392
▁As	-393
▁China	-394
▁tr	-395
ced	-396
ian	-397
▁must	-398
▁years	-399
▁should	-400
▁political	-401
▁could	-402
▁per	-403
alth	-404
ited	-405
▁only	-406
▁about	-407
ep	-408
ism	-409
ew	-410
ere	-411
ident	-412
▁pre	-413
▁under	-414
ublic	-415
▁finan	-416
▁many	-417
▁mark	-418
▁bet	-419
▁cons	-420
▁some	-421
▁rem	-422
▁increas	-423
ert	-424
eral	-425
▁now	-426
very	-427
ative	-428
ble	-429
▁Ind	-430
▁up	-431
▁you	-432
▁there	-433
amp	-434
▁such	-435
av	-436
▁even	-437
▁these	-438
▁government	-439
uch	-440
▁cl	-441
▁dem	-442
▁str	-443
▁ar	-444
▁sp	-445
▁policy	-446
▁long	-447
▁qu	-448
▁chan	-449
▁were	-450
▁ris	-451
low	-452
ach	-453
▁em	-454
▁produ	-455
und	-456
▁contin	-457
▁his	-458
▁no	-459
▁tw	-460
uc	-461
▁19	-462
▁te	-463
ause	-464
lect	-465
old	-466
▁ra	-467
ious	-468
▁market	-469
ough	-470
▁It	-471
▁sy	-472
▁201	-473
▁ta	-474
form	-475
▁intern	-476
▁And	-477
▁cap	-478
▁ind	-479
erv	-480
▁app	-481
00	-482
▁them	-483
▁cur	-484
▁far	-485
cy	-486
ons	-487
▁co	-488
▁power	-489
ace	-490
ame	-491
ild	-492
▁country	-493
▁k	-494
ital	-495
rough	-496
▁This	-497
ob	-498
▁St	-499
ade	-500
▁African	-501
▁leaders	-502
per	-503
▁may	-504
we	-505
rit	-506
▁rel	-507
▁international	-508
vers	-509
▁lar	-510
arly	-511
stem	-512
ution	-513
▁support	-514
▁if	-515
▁financial	-516
ating	-517
▁cris	-518
resident	-519
olog	-520
ish	-521
▁into	-522
▁system	-523
▁us	-524
▁public	-525
▁ac	-526
ory	-527
▁any	-528
▁what	-529
▁import	-530
ng	-531
ass	-532
cess	-533
▁when	-534
gy	-535
ful	-536
▁inf	-537
act	-538
▁ro	-539
ount	-540
▁just	-541
▁ter	-542
▁time	-543
▁ow	-544
▁att	-545
▁how	-546
▁much	-547
▁America	-548
hip	-549
ics	-550
▁ri	-551
pect	-552
▁rep	-553
ks	-554
int	-555
▁For	-556
▁deb	-557
▁United	-558
ov	-559
▁economy	-560
▁trans	-561
ization	-562
ents	-563
▁way	-564
▁health	-565
▁proble	-566
▁two	-567
lp	-568
ind	-569
its	-570
▁prog	-571
imate	-572
▁help	-573
▁recent	-574
ists	-575
ger	-576
ber	-577
get	-578
▁200	-579
▁act	-580
▁gen	-581
▁pos	-582
▁prov	-583
ual	-584
apan	-585
▁had	-586
▁because	-587
▁am	-588
ives	-589
hed	-590
▁war	-591
▁trade	-592
▁crisis	-593
ise	-594
ues	-595
ruct	-596
▁dif	-597
▁development	-598
chn	-599
lud	-600
rent	-601
urn	-602
.”	-603
uss	-604
read	-605
▁Japan	-606
▁those	-607
▁remain	-608
ound	-609
ural	-610
▁fir	-611
▁our	-612
▁Y	-613
▁examp	-614
▁European	-615
ood	-616
▁inst	-617
▁less	-618
ase	-619
iss	-620
ize	-621
ween	-622
▁well	-623
▁$	-624
▁bank	-625
allen	-626
▁fore	-627
▁mod	-628
▁high	-629
own	-630
▁add	-631
uring	-632
▁conf	-633
▁techn	-634
▁change	-635
▁real	-636
▁great	-637
lear	-638
▁between	-639
▁fact	-640
▁again	-641
riv	-642
▁cent	-643
itt	-644
ond	-645
oth	-646
ible	-647
ific	-648
orts	-649
▁good	-650
▁billion	-651
▁example	-652
ges	-653
▁young	-654
ump	-655
▁end	-656
hen	-657
led	-658
ite	-659
▁make	-660
▁sec	-661
ject	-662
erest	-663
ene	-664
▁EU	-665
▁become	-666
▁national	-667
ice	-668
▁Is	-669
cing	-670
▁own	-671
ok	-672
opul	-673
▁sol	-674
▁fund	-675
▁off	-676
▁cost	-677
▁righ	-678
min	-679
▁On	-680
▁wom	-681
▁challen	-682
▁current	-683
ration	-684
▁Al	-685
▁Wh	-686
▁appro	-687
▁popul	-688
▁while	-689
ict	-690
▁ob	-691
▁des	-692
▁sub	-693
▁requ	-694
ption	-695
eration	-696
loy	-697
ram	-698
ices	-699
▁sim	-700
▁sur	-701
round	-702
▁commun	-703
▁investment	-704
ail	-705
man	-706
▁bo	-707
iness	-708
ging	-709
ploy	-710
▁adv	-711
▁ext	-712
day	-713
sel	-714
▁important	-715
rib	-716
ings	-717
▁ent	-718
cal	-719
▁ed	-720
▁where	-721
▁governments	-722
ential	-723
▁large	-724
ized	-725
▁interest	-726
als	-727
▁technolog	-728
▁De	-729
▁redu	-730
ability	-731
▁includ	-732
▁result	-733
ese	-734
ten	-735
▁ev	-736
▁kn	-737
▁col	-738
▁both	-739
utions	-740
▁impro	-741
▁partic	-742
▁American	-743
pl	-744
▁Tr	-745
ures	-746
aking	-747
aw	-748
▁Russ	-749
▁effect	-750
xt	-751
ink	-752
gest	-753
▁resp	-754
usiness	-755
▁region	-756
▁job	-757
ather	-758
▁educ	-759
▁last	-760
▁seem	-761
arch	-762
ince	-763
ward	-764
▁social	-765
uture	-766
gan	-767
ater	-768
▁ref	-769
▁economies	-770
jor	-771
▁pric	-772
▁sign	-773
▁today	-774
▁capital	-775
▁through	-776
not	-777
fore	-778
fter	-779
ready	-780
▁back	-781
▁debt	-782
ically	-783
ici	-784
▁Se	-785
▁ke	-786
▁bene	-787
▁serv	-788
▁future	-789
▁against	-790
eed	-791
ran	-792
ilit	-793
iven	-794
over	-795
ivers	-796
▁too	-797
▁indust	-798
▁President	-799
rat	-800
▁cor	-801
▁est	-802
ged	-803
ily	-804
▁If	-805
ting	-806
▁made	-807
▁already	-808
▁set	-809
▁after	-810
▁women	-811
▁product	-812
▁ass	-813
ention	-814
▁first	-815
▁major	-816
▁sa	-817
▁dep	-818
▁use	-819
▁val	-820
ality	-821
▁conc	-822
▁sect	-823
li	-824
▁To	-825
▁West	-826
▁state	-827
▁strong	-828
omm	-829
uth	-830
ved	-831
▁bu	-832
urity	-833
▁every	-834
▁business	-835
ergy	-836
less	-837
▁def	-838
▁mon	-839
stain	-840
▁prom	-841
▁sustain	-842
▁lo	-843
▁Trump	-844
pportun	-845
▁demand	-846
▁markets	-847
ning	-848
▁spe	-849
▁That	-850
ral	-851
ving	-852
▁iss	-853
▁does	-854
▁benef	-855
▁climate	-856
les	-857
abor	-858
ared	-859
▁being	-860
▁States	-861
▁opportun	-862
DP	-863
ty	-864
ron	-865
▁More	-866
▁cred	-867
▁child	-868
▁foreign	-869
ract	-870
▁Wor	-871
ertain	-872
▁still	-873
▁see	-874
▁prev	-875
▁short	-876
▁tax	-877
▁euro	-878
▁const	-879
rast	-880
▁cre	-881
▁equ	-882
▁Bank	-883
▁rese	-884
▁million	-885
▁bas	-886
mental	-887
▁likely	-888
ays	-889
▁We	-890
ants	-891
uman	-892
ingly	-893
▁emer	-894
▁3	-895
gin	-896
▁op	-897
▁pr	-898
ined	-899
ccess	-900
▁fail	-901
▁main	-902
,”	-903
▁level	-904
▁often	-905
▁cannot	-906
0%	-907
▁sm	-908
hing	-909
ieve	-910
other	-911
▁strate	-912
ivity	-913
▁take	-914
ending	-915
ety	-916
iron	-917
▁disc	-918
▁know	-919
▁might	-920
▁stand	-921
▁instit	-922
ft	-923
▁es	-924
▁ann	-925
▁dom	-926
▁pat	-927
▁diff	-928
▁same	-929
▁energy	-930
ouse	-931
▁ret	-932
▁prot	-933
▁compan	-934
der	-935
ring	-936
▁dire	-937
▁Russia	-938
▁consum	-939
▁resour	-940
▁problem	-941
ars	-942
ever	-943
▁inn	-944
▁Afgh	-945
▁stud	-946
▁agree	-947
▁milit	-948
▁continent	-949
ered	-950
ness	-951
term	-952
▁aff	-953
▁hist	-954
▁offic	-955
ably	-956
ades	-957
▁Ger	-958
▁mem	-959
ately	-960
▁rest	-961
▁soci	-962
▁success	-963
▁education	-964
eg	-965
▁her	-966
istan	-967
▁past	-968
▁defic	-969
ployment	-970
ied	-971
▁arg	-972
▁few	-973
▁med	-974
ually	-975
▁next	-976
▁India	-977
▁World	-978
▁Afghan	-979
▁access	-980
▁threat	-981
▁particul	-982
),	-983
iew	-984
outh	-985
▁fam	-986
▁leg	-987
▁neg	-988
▁food	-989
▁pers	-990
▁creat	-991
▁elect	-992
ructure	-993
▁call	-994
▁priv	-995
▁better	-996
▁states	-997
ID	-998
ck	-999
ling	-1000
▁bel	-1001
▁hig	-1002
▁ins	-1003
▁put	-1004
ision	-1005
▁With	-1006
▁sc	-1007
cond	-1008
▁lif	-1009
ocrat	-1010
ricult	-1011
▁quest	-1012
▁Indeed	-1013
▁efforts	-1014
ss	-1015
hold	-1016
▁Int	-1017
viron	-1018
▁move	-1019
▁exper	-1020
here	-1021
rael	-1022
▁ens	-1023
▁imm	-1024
▁sci	-1025
▁human	-1026
▁military	-1027
ted	-1028
▁ach	-1029
▁cour	-1030
▁turn	-1031
▁innov	-1032
▁Israel	-1033
▁without	-1034
▁el	-1035
ense	-1036
oney	-1037
▁pot	-1038
inist	-1039
▁decl	-1040
▁German	-1041
▁approach	-1042
▁At	-1043
ivid	-1044
▁They	-1045
▁land	-1046
▁three	-1047
▁5	-1048
▁ser	-1049
▁needs	-1050
▁security	-1051
▁including	-1052
).	-1053
com	-1054
ves	-1055
tern	-1056
▁ide	-1057
▁supp	-1058
▁decades	-1059
▁problems	-1060
▁progress	-1061
ah	-1062
ror	-1063
▁So	-1064
▁my	-1065
ency	-1066
▁did	-1067
ollow	-1068
▁start	-1069
▁needed	-1070
idd	-1071
▁ap	-1072
ines	-1073
land	-1074
ocus	-1075
ering	-1076
uclear	-1077
▁rates	-1078
ute	-1079
▁He	-1080
ross	-1081
iscal	-1082
izing	-1083
ateral	-1084
▁Union	-1085
▁since	-1086
▁account	-1087
▁address	-1088
▁process	-1089
▁services	-1090
ury	-1091
rial	-1092
▁low	-1093
stand	-1094
cially	-1095
▁gener	-1096
▁money	-1097
▁order	-1098
ilateral	-1099
▁environ	-1100
▁research	-1101
▁challenges	-1102
ogn	-1103
▁GDP	-1104
▁ine	-1105
▁care	-1106
▁farm	-1107
▁infl	-1108
▁prof	-1109
lement	-1110
▁focus	-1111
▁right	-1112
▁agricult	-1113
▁children	-1114
ph	-1115
▁hal	-1116
▁pay	-1117
▁around	-1118
▁credit	-1119
▁follow	-1120
ret	-1121
▁lib	-1122
▁pur	-1123
▁peace	-1124
▁another	-1125
▁president	-1126
iet	-1127
rem	-1128
▁fac	-1129
aving	-1130
▁trad	-1131
▁There	-1132
▁banks	-1133
▁regul	-1134
▁before	-1135
▁contro	-1136
▁fiscal	-1137
▁potential	-1138
aly	-1139
self	-1140
iving	-1141
▁risk	-1142
▁then	-1143
▁very	-1144
itional	-1145
▁sector	-1146
▁Chinese	-1147
▁private	-1148
▁Moreover	-1149
▁resources	-1150
abl	-1151
iti	-1152
imes	-1153
▁mat	-1154
uthor	-1155
▁East	-1156
▁poss	-1157
▁rate	-1158
▁compet	-1159
▁improve	-1160
▁policies	-1161
▁companies	-1162
ang	-1163
ued	-1164
▁old	-1165
▁crit	-1166
▁poor	-1167
▁pres	-1168
▁suff	-1169
▁South	-1170
▁among	-1171
▁labor	-1172
pecially	-1173
▁growing	-1174
ner	-1175
oss	-1176
por	-1177
▁Ab	-1178
come	-1179
ners	-1180
vere	-1181
▁sch	-1182
▁jobs	-1183
▁plan	-1184
lection	-1185
▁signific	-1186
rastructure	-1187
▁Re	-1188
▁vi	-1189
most	-1190
road	-1191
▁clo	-1192
▁tar	-1193
iddle	-1194
itive	-1195
▁play	-1196
▁costs	-1197
▁remains	-1198
▁UN	-1199
▁hop	-1200
▁vot	-1201
▁dist	-1202
▁prop	-1203
▁higher	-1204
▁rather	-1205
ix	-1206
ick	-1207
mak	-1208
▁fe	-1209
ened	-1210
osed	-1211
reed	-1212
▁loc	-1213
▁opp	-1214
▁case	-1215
▁hard	-1216
ficult	-1217
▁though	-1218
▁nuclear	-1219
▁difficult	-1220
▁especially	-1221
aps	-1222
ool	-1223
rop	-1224
ides	-1225
▁199	-1226
▁One	-1227
▁key	-1228
▁rev	-1229
▁pros	-1230
▁role	-1231
▁treat	-1232
▁continue	-1233
▁increase	-1234
▁significant	-1235
up	-1236
▁Ob	-1237
chan	-1238
▁ful	-1239
▁num	-1240
▁down	-1241
▁show	-1242
▁model	-1243
▁Intern	-1244
▁course	-1245
▁create	-1246
▁terror	-1247
▁population	-1248
▁institutions	-1249
▁infrastructure	-1250
ex	-1251
▁6	-1252
acy	-1253
ama	-1254
ata	-1255
orm	-1256
oti	-1257
ases	-1258
cept	-1259
▁cle	-1260
▁reas	-1261
makers	-1262
▁point	-1263
▁action	-1264
▁expect	-1265
air	-1266
arm	-1267
ell	-1268
ider	-1269
▁lim	-1270
▁tal	-1271
anced	-1272
▁best	-1273
▁half	-1274
▁simp	-1275
▁These	-1276
▁means	-1277
lus	-1278
ages	-1279
▁get	-1280
▁find	-1281
▁form	-1282
▁view	-1283
▁prices	-1284
▁project	-1285
ird	-1286
eren	-1287
rain	-1288
roup	-1289
tain	-1290
▁don	-1291
▁law	-1292
▁Iran	-1293
▁meas	-1294
▁mult	-1295
▁author	-1296
▁negoti	-1297
▁Develop	-1298
▁concern	-1299
▁benefits	-1300
▁Afghanistan	-1301
rug	-1302
▁av	-1303
▁non	-1304
▁she	-1305
▁When	-1306
▁come	-1307
▁free	-1308
▁clear	-1309
▁ensure	-1310
▁require	-1311
▁official	-1312
acc	-1313
ork	-1314
▁ur	-1315
pite	-1316
▁beh	-1317
▁eng	-1318
▁weak	-1319
▁build	-1320
▁share	-1321
ibility	-1322
▁within	-1323
▁Western	-1324
ath	-1325
ban	-1326
pid	-1327
bers	-1328
zone	-1329
erent	-1330
ording	-1331
▁group	-1332
▁organ	-1333
▁press	-1334
▁establ	-1335
▁others	-1336
▁reform	-1337
▁rights	-1338
▁conflic	-1339
▁4	-1340
oun	-1341
ians	-1342
rate	-1343
▁car	-1344
ently	-1345
ively	-1346
▁appe	-1347
▁cond	-1348
▁happ	-1349
▁home	-1350
▁viol	-1351
itions	-1352
▁integ	-1353
▁least	-1354
▁requi	-1355
▁seems	-1356
▁direct	-1357
▁experi	-1358
▁recogn	-1359
▁protect	-1360
▁systems	-1361
▁whether	-1362
▁run	-1363
estic	-1364
ished	-1365
▁inde	-1366
▁lack	-1367
verage	-1368
▁never	-1369
▁greater	-1370
▁respons	-1371
▁relations	-1372
ug	-1373
akes	-1374
reen	-1375
▁par	-1376
ission	-1377
urther	-1378
▁community	-1379
▁productivity	-1380
0,	-1381
IDS	-1382
imin	-1383
▁ago	-1384
▁big	-1385
▁ric	-1386
▁data	-1387
▁almost	-1388
▁toward	-1389
▁control	-1390
▁question	-1391
rab	-1392
ush	-1393
▁bl	-1394
▁ca	-1395
ield	-1396
▁Dem	-1397
▁dev	-1398
ining	-1399
▁Comm	-1400
▁rise	-1401
▁While	-1402
inister	-1403
▁provide	-1404
▁increasingly	-1405
wh	-1406
ium	-1407
▁gu	-1408
ased	-1409
▁War	-1410
▁bal	-1411
▁dri	-1412
▁yet	-1413
▁coop	-1414
▁small	-1415
▁commit	-1416
▁Germany	-1417
▁certain	-1418
▁different	-1419
oll	-1420
ove	-1421
uel	-1422
▁Fr	-1423
▁er	-1424
▁Yet	-1425
▁aid	-1426
▁ant	-1427
forms	-1428
where	-1429
▁meet	-1430
▁Obama	-1431
▁comple	-1432
▁industrial	-1433
ned	-1434
▁By	-1435
ends	-1436
oint	-1437
rime	-1438
▁cit	-1439
▁eas	-1440
▁char	-1441
▁life	-1442
idence	-1443
▁After	-1444
▁during	-1445
onal	-1446
▁vis	-1447
ances	-1448
▁Arab	-1449
▁pred	-1450
▁unem	-1451
minist	-1452
▁areas	-1453
▁local	-1454
▁think	-1455
▁enough	-1456
▁central	-1457
▁workers	-1458
▁leadership	-1459
20	-1460
uf	-1461
ave	-1462
▁gr	-1463
cent	-1464
cies	-1465
duct	-1466
ying	-1467
▁Put	-1468
▁sug	-1469
ittle	-1470
▁force	-1471
▁given	-1472
▁initi	-1473
▁however	-1474
▁society	-1475
▁strateg	-1476
▁election	-1477
▁eurozone	-1478
▁spending	-1479
▁Development	-1480
ON	-1481
racy	-1482
reng	-1483
▁cut	-1484
▁why	-1485
ession	-1486
▁bring	-1487
agement	-1488
issions	-1489
▁inform	-1490
▁longer	-1491
▁necess	-1492
▁serious	-1493
▁emerging	-1494
▁politics	-1495
▁developing	-1496
▁technology	-1497
▁sk	-1498
ards	-1499
▁Tur	-1500
ening	-1501
▁Asia	-1502
▁Brit	-1503
▁Even	-1504
▁gain	-1505
▁slow	-1506
▁little	-1507
▁contrib	-1508
▁domestic	-1509
▁sustainable	-1510
▁policymakers	-1511
yn	-1512
▁ph	-1513
ceed	-1514
orth	-1515
▁say	-1516
ators	-1517
▁deep	-1518
▁hand	-1519
▁used	-1520
▁allow	-1521
▁across	-1522
▁common	-1523
▁income	-1524
▁modern	-1525
▁streng	-1526
▁Nations	-1527
▁achieve	-1528
▁increased	-1529
▁particularly	-1530
ead	-1531
put	-1532
▁fl	-1533
anda	-1534
ivil	-1535
yond	-1536
▁Rep	-1537
▁tot	-1538
▁tri	-1539
etary	-1540
ufact	-1541
verty	-1542
▁mean	-1543
▁step	-1544
▁citiz	-1545
▁simil	-1546
▁value	-1547
▁France	-1548
▁issues	-1549
▁target	-1550
▁liberal	-1551
▁poverty	-1552
▁administ	-1553
▁regional	-1554
▁challenge	-1555
▁opportunities	-1556
▁la	-1557
sequ	-1558
▁Pro	-1559
▁led	-1560
▁net	-1561
▁pri	-1562
▁ren	-1563
▁camp	-1564
▁dest	-1565
▁face	-1566
though	-1567
▁Putin	-1568
▁house	-1569
▁rapid	-1570
ression	-1571
▁attack	-1572
▁reason	-1573
▁return	-1574
▁school	-1575
▁suggest	-1576
▁univers	-1577
▁partners	-1578
▁understand	-1579
▁opportunity	-1580
▁An	-1581
haps	-1582
rams	-1583
▁enc	-1584
▁tru	-1585
order	-1586
▁coll	-1587
icient	-1588
▁extrem	-1589
▁histor	-1590
▁itself	-1591
▁levels	-1592
▁reduce	-1593
▁second	-1594
▁wealth	-1595
▁reflect	-1596
▁manufact	-1597
hes	-1598
ier	-1599
set	-1600
▁Sp	-1601
eria	-1602
ills	-1603
reak	-1604
▁occ	-1605
▁oil	-1606
gether	-1607
selves	-1608
▁found	-1609
▁water	-1610
▁rising	-1611
▁further	-1612
▁together	-1613
ash	-1614
ior	-1615
king	-1616
oura	-1617
▁Con	-1618
▁top	-1619
▁comb	-1620
▁fuel	-1621
▁hold	-1622
▁mass	-1623
▁oper	-1624
▁civil	-1625
olution	-1626
▁individ	-1627
▁reforms	-1628
▁working	-1629
000	-1630
ims	-1631
ler	-1632
▁che	-1633
▁him	-1634
▁rul	-1635
ither	-1636
udget	-1637
▁caus	-1638
▁ever	-1639
atives	-1640
▁broad	-1641
▁price	-1642
illions	-1643
ocratic	-1644
▁recently	-1645
▁agreement	-1646
▁generation	-1647
ai	-1648
iod	-1649
atic	-1650
lain	-1651
▁New	-1652
▁Nig	-1653
anger	-1654
▁fast	-1655
▁lear	-1656
▁reach	-1657
▁terms	-1658
▁total	-1659
▁provid	-1660
▁deficit	-1661
▁largest	-1662
▁maintain	-1663
▁programs	-1664
▁technologies	-1665
▁7	-1666
▁cr	-1667
aign	-1668
▁tem	-1669
ature	-1670
ences	-1671
ortun	-1672
▁conv	-1673
▁thus	-1674
▁ways	-1675
▁month	-1676
▁repres	-1677
▁governance	-1678
▁individual	-1679
▁investments	-1680
az	-1681
te	-1682
enda	-1683
▁Acc	-1684
▁air	-1685
▁bor	-1686
▁alone	-1687
▁begin	-1688
▁lives	-1689
▁budget	-1690
▁number	-1691
▁century	-1692
▁campaign	-1693
▁citizens	-1694
▁unemployment	-1695
▁8	-1696
ake	-1697
ins	-1698
key	-1699
raq	-1700
uge	-1701
▁sl	-1702
ised	-1703
▁mar	-1704
rency	-1705
▁AIDS	-1706
▁Iraq	-1707
▁Kore	-1708
▁What	-1709
▁hope	-1710
▁look	-1711
▁rich	-1712
▁early	-1713
▁fight	-1714
▁Global	-1715
▁report	-1716
▁finance	-1717
▁Africans	-1718
ortunately	-1719
▁developed	-1720
▁implement	-1721
.5	-1722
ee	-1723
gn	-1724
io	-1725
ys	-1726
▁aw	-1727
pris	-1728
▁dou	-1729
▁met	-1730
▁unc	-1731
acity	-1732
▁cult	-1733
▁fall	-1734
▁left	-1735
▁Turkey	-1736
▁simply	-1737
▁program	-1738
▁possible	-1739
oh	-1740
yp	-1741
any	-1742
ton	-1743
▁$1	-1744
▁Be	-1745
ways	-1746
▁All	-1747
▁abs	-1748
▁Part	-1749
▁Some	-1750
▁able	-1751
▁deal	-1752
▁sour	-1753
ocracy	-1754
reedom	-1755
uation	-1756
▁pract	-1757
▁struct	-1758
▁believe	-1759
▁similar	-1760
▁innovation	-1761
▁environmental	-1762
lam	-1763
pro	-1764
▁Go	-1765
▁gra	-1766
▁min	-1767
▁mob	-1768
▁tre	-1769
force	-1770
ledge	-1771
▁five	-1772
▁open	-1773
▁rece	-1774
▁shif	-1775
▁stat	-1776
▁deter	-1777
▁lower	-1778
ilities	-1779
▁impact	-1780
▁promot	-1781
▁scient	-1782
▁encoura	-1783
▁Japanese	-1784
▁Republic	-1785
▁investors	-1786
ched	-1787
irst	-1788
then	-1789
wide	-1790
▁ess	-1791
veral	-1792
▁2008	-1793
▁Cong	-1794
▁dise	-1795
▁each	-1796
▁post	-1797
▁want	-1798
ederal	-1799
erence	-1800
▁goods	-1801
▁invol	-1802
▁prior	-1803
▁expand	-1804
▁transp	-1805
▁conflict	-1806
▁strategy	-1807
▁communities	-1808
▁consumption	-1809
bon	-1810
▁Ken	-1811
▁saf	-1812
arent	-1813
aring	-1814
▁adop	-1815
▁fear	-1816
▁vict	-1817
▁Islam	-1818
▁issue	-1819
▁place	-1820
▁annual	-1821
▁entire	-1822
▁former	-1823
▁regard	-1824
▁created	-1825
▁effects	-1826
▁history	-1827
▁members	-1828
▁consider	-1829
▁requires	-1830
▁violence	-1831
▁cooperation	-1832
lf	-1833
mm	-1834
ili	-1835
iqu	-1836
rag	-1837
rid	-1838
▁Sy	-1839
ming	-1840
ntil	-1841
onse	-1842
ront	-1843
▁fav	-1844
▁mor	-1845
iting	-1846
▁else	-1847
▁full	-1848
icians	-1849
▁funda	-1850
▁danger	-1851
▁effort	-1852
▁family	-1853
▁making	-1854
▁period	-1855
▁saving	-1856
▁values	-1857
▁consequ	-1858
▁leading	-1859
▁Minister	-1860
▁advanced	-1861
▁establish	-1862
▁strengthen	-1863
▁themselves	-1864
ock	-1865
▁Eth	-1866
▁age	-1867
▁aut	-1868
▁emb	-1869
based	-1870
itted	-1871
▁four	-1872
▁head	-1873
▁based	-1874
▁funds	-1875
▁subst	-1876
conomic	-1877
▁beyond	-1878
▁depend	-1879
igration	-1880
▁prosper	-1881
▁household	-1882
▁inflation	-1883
▁production	-1884
▁agriculture	-1885
▁International	-1886
▁manufacturing	-1887
0’	-1888
ean	-1889
iop	-1890
the	-1891
▁Of	-1892
like	-1893
lows	-1894
rely	-1895
▁198	-1896
▁cho	-1897
▁ten	-1898
▁vul	-1899
alest	-1900
ising	-1901
▁coal	-1902
▁test	-1903
▁assum	-1904
▁cause	-1905
▁green	-1906
▁super	-1907
▁whose	-1908
iveness	-1909
quality	-1910
ruction	-1911
▁called	-1912
▁corpor	-1913
▁incent	-1914
▁living	-1915
▁balance	-1916
▁freedom	-1917
▁science	-1918
▁measures	-1919
▁relative	-1920
▁response	-1921
ght	-1922
urd	-1923
iagn	-1924
imul	-1925
omet	-1926
▁Sec	-1927
▁exc	-1928
aging	-1929
oment	-1930
▁keep	-1931
▁estim	-1932
▁Ethiop	-1933
▁Nigeria	-1934
▁average	-1935
▁despite	-1936
▁farmers	-1937
▁several	-1938
▁capacity	-1939
▁According	-1940
▁Americans	-1941
▁attention	-1942
▁effective	-1943
▁increasing	-1944
▁administration	-1945
ify	-1946
lev	-1947
sid	-1948
care	-1949
ream	-1950
▁Fin	-1951
▁cla	-1952
▁del	-1953
▁ear	-1954
▁sit	-1955
atory	-1956
ients	-1957
ified	-1958
ories	-1959
▁fert	-1960
▁fram	-1961
▁said	-1962
▁boost	-1963
▁party	-1964
▁youth	-1965
▁accept	-1966
▁always	-1967
▁stimul	-1968
▁ability	-1969
▁predict	-1970
▁prevent	-1971
▁evidence	-1972
▁emissions	-1973
▁essential	-1974
▁interests	-1975
▁transform	-1976
▁successful	-1977
▁agricultural	-1978
▁9	-1979
▁Cl	-1980
▁NE	-1981
▁ru	-1982
cale	-1983
cipl	-1984
onst	-1985
ordin	-1986
▁Such	-1987
▁done	-1988
▁dram	-1989
▁prim	-1990
▁Korea	-1991
▁belie	-1992
▁corru	-1993
▁oppos	-1994
▁times	-1995
▁Middle	-1996
▁Palest	-1997
▁willing	-1998
▁expected	-1999
▁knowledge	-2000
▁standards	-2001
▁uncertain	-2002
▁employment	-2003
0.	-2004
ale	-2005
raw	-2006
▁Sh	-2007
,000	-2008
ived	-2009
nect	-2010
▁Pol	-2011
arian	-2012
rated	-2013
rench	-2014
▁link	-2015
▁lost	-2016
▁avail	-2017
▁becom	-2018
▁break	-2019
▁close	-2020
▁agenda	-2021
▁moment	-2022
▁vulner	-2023
▁particip	-2024
▁powerful	-2025
▁previous	-2026
▁projects	-2027
▁financing	-2028
▁necessary	-2029
▁solutions	-2030
▁particular	-2031
oz	-2032
ya	-2033
edi	-2034
ets	-2035
osp	-2036
▁jo	-2037
aged	-2038
ahar	-2039
erve	-2040
rong	-2041
wise	-2042
▁Res	-2043
▁2014	-2044
▁Cent	-2045
▁Fund	-2046
▁anti	-2047
▁prin	-2048
▁stop	-2049
▁true	-2050
▁firms	-2051
▁makes	-2052
▁risks	-2053
▁sense	-2054
▁borrow	-2055
▁export	-2056
▁forces	-2057
▁groups	-2058
▁skills	-2059
▁sovere	-2060
▁demonst	-2061
▁largely	-2062
▁perhaps	-2063
▁pressure	-2064
ls	-2065
pan	-2066
reg	-2067
▁nar	-2068
ender	-2069
ensus	-2070
▁Syri	-2071
▁deli	-2072
▁disp	-2073
▁live	-2074
▁term	-2075
▁weap	-2076
▁clean	-2077
▁decis	-2078
▁domin	-2079
▁influ	-2080
▁media	-2081
▁trend	-2082
▁French	-2083
▁decade	-2084
iversity	-2085
▁exports	-2086
▁perform	-2087
▁produce	-2088
▁Congress	-2089
▁deficits	-2090
▁commitment	-2091
▁conditions	-2092
▁relationship	-2093
1,	-2094
igr	-2095
▁AI	-2096
▁Ag	-2097
▁ce	-2098
line	-2099
pend	-2100
rodu	-2101
side	-2102
▁NEW	-2103
▁emp	-2104
▁drug	-2105
▁purs	-2106
▁writ	-2107
ressed	-2108
▁Alger	-2109
▁favor	-2110
▁third	-2111
▁affect	-2112
▁framew	-2113
▁extreme	-2114
▁funding	-2115
▁popular	-2116
▁respect	-2117
ification	-2118
▁monetary	-2119
▁trillion	-2120
▁information	-2121
go	-2122
ape	-2123
cul	-2124
rep	-2125
▁Le	-2126
emic	-2127
lood	-2128
olar	-2129
ourn	-2130
▁dam	-2131
▁dig	-2132
▁nor	-2133
ember	-2134
ented	-2135
verse	-2136
▁doll	-2137
▁huge	-2138
▁kind	-2139
▁laun	-2140
▁once	-2141
ensive	-2142
▁reven	-2143
utional	-2144
▁nearly	-2145
▁severe	-2146
▁taking	-2147
izations	-2148
▁Ethiopia	-2149
▁bilateral	-2150
▁terrorism	-2151
▁environment	-2152
▁fundamental	-2153
▁traditional	-2154
ds	-2155
lt	-2156
els	-2157
oid	-2158
▁Or	-2159
▁cy	-2160
oday	-2161
pped	-2162
▁How	-2163
▁cat	-2164
▁day	-2165
▁ill	-2166
arter	-2167
while	-2168
▁2015	-2169
▁Cons	-2170
▁Gree	-2171
▁mind	-2172
ocrats	-2173
rought	-2174
▁owing	-2175
▁rules	-2176
▁regime	-2177
▁unlike	-2178
▁benefit	-2179
▁changes	-2180
▁complex	-2181
▁constit	-2182
▁introdu	-2183
▁currency	-2184
▁decision	-2185
▁industry	-2186
▁positive	-2187
▁stronger	-2188
▁elections	-2189
▁strategic	-2190
OR	-2191
by	-2192
ari	-2193
equ	-2194
lom	-2195
omb	-2196
udi	-2197
urs	-2198
▁1.	-2199
▁Ad	-2200
▁Ar	-2201
▁br	-2202
▁opt	-2203
▁und	-2204
alled	-2205
arily	-2206
cific	-2207
comes	-2208
overy	-2209
vious	-2210
▁clos	-2211
▁news	-2212
▁prep	-2213
▁prob	-2214
change	-2215
ctions	-2216
itable	-2217
lation	-2218
▁Italy	-2219
▁Today	-2220
▁achie	-2221
▁ident	-2222
▁legit	-2223
▁somet	-2224
vention	-2225
▁coming	-2226
▁member	-2227
▁middle	-2228
▁voters	-2229
▁banking	-2230
▁explain	-2231
▁massive	-2232
▁weapons	-2233
▁outcomes	-2234
▁position	-2235
▁currently	-2236
▁democracy	-2237
ze	-2238
dom	-2239
han	-2240
tle	-2241
imed	-2242
▁197	-2243
▁Bar	-2244
▁Mon	-2245
▁agg	-2246
▁fri	-2247
▁argu	-2248
retary	-2249
▁Prime	-2250
▁activ	-2251
▁death	-2252
▁older	-2253
▁quick	-2254
▁study	-2255
▁twent	-2256
▁urban	-2257
imately	-2258
▁behind	-2259
▁design	-2260
▁things	-2261
▁nothing	-2262
▁Although	-2263
▁Palestin	-2264
▁millions	-2265
▁students	-2266
▁officials	-2267
▁stability	-2268
▁prosperity	-2269
▁integration	-2270
▁multilateral	-2271
DB	-2272
be	-2273
cl	-2274
to	-2275
cip	-2276
aken	-2277
ired	-2278
iter	-2279
just	-2280
ogra	-2281
ured	-2282
vest	-2283
▁Now	-2284
▁ask	-2285
▁bad	-2286
▁ori	-2287
lying	-2288
onald	-2289
▁doub	-2290
▁soon	-2291
▁ideas	-2292
▁truth	-2293
▁afford	-2294
▁altern	-2295
▁matter	-2296
▁societ	-2297
▁collect	-2298
▁obvious	-2299
▁quality	-2300
▁sectors	-2301
▁improved	-2302
▁movement	-2303
▁solution	-2304
▁experience	-2305
▁management	-2306
▁structural	-2307
▁politicians	-2308
7,	-2309
mb	-2310
erb	-2311
use	-2312
▁EC	-2313
▁sw	-2314
ctor	-2315
hers	-2316
mark	-2317
ored	-2318
soci	-2319
▁Sim	-2320
▁dyn	-2321
▁suc	-2322
▁vol	-2323
▁win	-2324
▁Many	-2325
▁wide	-2326
▁First	-2327
▁North	-2328
▁above	-2329
▁began	-2330
▁drive	-2331
▁wrong	-2332
▁Indian	-2333
▁amount	-2334
▁highly	-2335
▁really	-2336
▁subsid	-2337
▁decline	-2338
▁succeed	-2339
▁represent	-2340
▁additional	-2341
▁authorities	-2342
▁consequences	-2343
▁organizations	-2344
kn	-2345
ox	-2346
icy	-2347
▁Ge	-2348
▁Rw	-2349
alib	-2350
down	-2351
ighb	-2352
ival	-2353
▁May	-2354
▁eth	-2355
▁rat	-2356
Sahar	-2357
aster	-2358
ended	-2359
istic	-2360
▁2000	-2361
▁goal	-2362
▁name	-2363
▁rule	-2364
▁stri	-2365
▁sure	-2366
ograph	-2367
ortion	-2368
▁Spain	-2369
▁class	-2370
▁comes	-2371
▁dynam	-2372
▁exist	-2373
▁journ	-2374
▁poore	-2375
Saharan	-2376
istance	-2377
▁failed	-2378
▁counter	-2379
▁special	-2380
▁surpris	-2381
▁compared	-2382
▁products	-2383
▁recession	-2384
fortunately	-2385
CD	-2386
ik	-2387
of	-2388
agn	-2389
oks	-2390
rad	-2391
▁Sw	-2392
empt	-2393
▁Mus	-2394
▁bar	-2395
▁cru	-2396
▁lat	-2397
▁ran	-2398
▁ult	-2399
iplom	-2400
oviet	-2401
▁boom	-2402
▁bord	-2403
▁mess	-2404
▁repl	-2405
▁sing	-2406
income	-2407
ounced	-2408
ustain	-2409
▁analy	-2410
▁divid	-2411
▁indic	-2412
▁relig	-2413
▁resol	-2414
▁until	-2415
▁Rwanda	-2416
▁crises	-2417
▁debate	-2418
▁leader	-2419
▁output	-2420
▁attract	-2421
▁discuss	-2422
▁Internet	-2423
▁creation	-2424
▁majority	-2425
▁worldwide	-2426
▁agreements	-2427
▁inequality	-2428
▁transition	-2429
▁responsibility	-2430
sw	-2431
cer	-2432
cil	-2433
ozy	-2434
cise	-2435
osov	-2436
▁Per	-2437
▁amb	-2438
▁art	-2439
▁ign	-2440
▁nat	-2441
▁obs	-2442
▁san	-2443
rying	-2444
▁Mean	-2445
▁loss	-2446
▁path	-2447
▁vacc	-2448
aliban	-2449
arkozy	-2450
ipolar	-2451
making	-2452
▁Kosov	-2453
▁Syria	-2454
▁along	-2455
▁argue	-2456
▁doing	-2457
▁event	-2458
▁Second	-2459
▁indeed	-2460
▁supply	-2461
▁Russian	-2462
▁Taliban	-2463
▁competit	-2464
▁experien	-2465
▁substant	-2466
▁Democrats	-2467
▁Meanwhile	-2468
▁Secretary	-2469
▁incentives	-2470
▁performance	-2471
▁negotiations	-2472
ev	-2473
ma	-2474
cut	-2475
elt	-2476
fer	-2477
lia	-2478
ols	-2479
ott	-2480
rel	-2481
ung	-2482
val	-2483
aced	-2484
gypt	-2485
head	-2486
hest	-2487
hood	-2488
lies	-2489
rict	-2490
▁Abe	-2491
▁Can	-2492
▁fem	-2493
▁mut	-2494
▁red	-2495
ially	-2496
light	-2497
owers	-2498
▁Bush	-2499
▁Inst	-2500
▁Like	-2501
▁acad	-2502
▁city	-2503
▁feel	-2504
▁held	-2505
▁opin	-2506
▁pass	-2507
▁rein	-2508
▁self	-2509
ension	-2510
ternal	-2511
▁Egypt	-2512
▁solar	-2513
▁woman	-2514
account	-2515
ptember	-2516
▁Soviet	-2517
▁argued	-2518
▁critic	-2519
▁immedi	-2520
▁origin	-2521
▁source	-2522
▁Britain	-2523
▁British	-2524
▁Sarkozy	-2525
▁attacks	-2526
▁results	-2527
▁disorder	-2528
▁Europeans	-2529
▁elsewhere	-2530
▁framework	-2531
▁situation	-2532
▁societies	-2533
▁sovereign	-2534
▁industries	-2535
▁Unfortunately	-2536
%,	-2537
CA	-2538
TO	-2539
-20	-2540
aid	-2541
auc	-2542
het	-2543
hib	-2544
lin	-2545
▁$2	-2546
▁15	-2547
▁18	-2548
▁ve	-2549
erty	-2550
lock	-2551
rugg	-2552
rust	-2553
ters	-2554
▁ECB	-2555
▁Par	-2556
▁Sub	-2557
▁adm	-2558
▁den	-2559
▁fix	-2560
▁mis	-2561
erate	-2562
ously	-2563
▁Musl	-2564
▁give	-2565
▁mort	-2566
▁poll	-2567
▁seen	-2568
called	-2569
espite	-2570
lusion	-2571
▁cheap	-2572
▁field	-2573
▁gains	-2574
▁imper	-2575
▁taken	-2576
itarian	-2577
▁carbon	-2578
▁donors	-2579
▁neighb	-2580
▁strugg	-2581
▁Algeria	-2582
▁clearly	-2583
▁disease	-2584
▁helping	-2585
▁include	-2586
▁parties	-2587
▁reality	-2588
▁regions	-2589
▁warming	-2590
▁prospect	-2591
▁reducing	-2592
▁September	-2593
▁certainly	-2594
▁corruption	-2595
▁initiative	-2596
IN	-2597
ne	-2598
app	-2599
gal	-2600
ony	-2601
▁NA	-2602
▁No	-2603
▁ut	-2604
exic	-2605
fall	-2606
ille	-2607
ises	-2608
ites	-2609
osis	-2610
rade	-2611
requ	-2612
rist	-2613
▁Fed	-2614
▁Ham	-2615
▁deg	-2616
▁men	-2617
▁pan	-2618
▁six	-2619
▁urg	-2620
celer	-2621
ustom	-2622
▁answ	-2623
▁bond	-2624
▁hous	-2625
▁miss	-2626
▁mist	-2627
▁seek	-2628
Americ	-2629
▁Other	-2630
▁cases	-2631
▁enter	-2632
▁explo	-2633
▁extra	-2634
▁grand	-2635
▁imbal	-2636
▁later	-2637
▁renew	-2638
▁shift	-2639
▁whole	-2640
▁words	-2641
ception	-2642
igrants	-2643
▁diplom	-2644
▁events	-2645
▁object	-2646
▁powers	-2647
▁single	-2648
▁borders	-2649
▁deliver	-2650
▁limited	-2651
▁seeking	-2652
▁contrast	-2653
▁electric	-2654
▁probably	-2655
▁stimulus	-2656
▁available	-2657
▁continues	-2658
▁direction	-2659
▁businesses	-2660
▁economists	-2661
oy	-2662
ORK	-2663
fin	-2664
hem	-2665
iff	-2666
ots	-2667
▁Ug	-2668
▁di	-2669
ator	-2670
crib	-2671
ints	-2672
itud	-2673
omen	-2674
part	-2675
uing	-2676
▁196	-2677
▁Lib	-2678
▁Net	-2679
▁Pak	-2680
▁era	-2681
▁fig	-2682
▁gir	-2683
▁mer	-2684
▁won	-2685
ilies	-2686
illed	-2687
thing	-2688
unger	-2689
▁King	-2690
▁Most	-2691
▁Only	-2692
▁YORK	-2693
▁cand	-2694
▁mand	-2695
▁repe	-2696
▁save	-2697
▁seed	-2698
▁sett	-2699
▁surv	-2700
ashing	-2701
▁House	-2702
▁Mexic	-2703
▁Party	-2704
▁behav	-2705
▁goals	-2706
▁loans	-2707
▁moral	-2708
▁parts	-2709
▁purch	-2710
▁rural	-2711
▁sound	-2712
▁worse	-2713
liament	-2714
▁Donald	-2715
▁Kosovo	-2716
▁advant	-2717
▁chance	-2718
▁excess	-2719
▁forced	-2720
▁ground	-2721
▁having	-2722
▁vision	-2723
atically	-2724
▁Central	-2725
▁coordin	-2726
▁failure	-2727
▁primary	-2728
▁Pakistan	-2729
▁concerns	-2730
▁exchange	-2731
▁families	-2732
▁independ	-2733
▁patients	-2734
▁thinking	-2735
▁beginning	-2736
▁committed	-2737
▁increases	-2738
▁questions	-2739
▁Commission	-2740
▁regulatory	-2741
▁vulnerable	-2742
▁globalization	-2743
ees	-2744
enn	-2745
gor	-2746
loc	-2747
▁$3	-2748
▁En	-2749
▁Ma	-2750
airs	-2751
mber	-2752
work	-2753
▁Med	-2754
▁bod	-2755
▁let	-2756
▁mot	-2757
▁sav	-2758
▁typ	-2759
▁wee	-2760
▁away	-2761
▁harm	-2762
▁inev	-2763
▁norm	-2764
▁trou	-2765
istics	-2766
rative	-2767
▁Since	-2768
▁avoid	-2769
▁basic	-2770
▁basis	-2771
▁diagn	-2772
▁flows	-2773
▁insur	-2774
▁shows	-2775
▁sides	-2776
▁story	-2777
▁thing	-2778
erences	-2779
unction	-2780
▁Commun	-2781
▁candid	-2782
▁gender	-2783
▁helped	-2784
▁record	-2785
ological	-2786
▁Despite	-2787
▁compens	-2788
▁digital	-2789
▁factors	-2790
▁federal	-2791
▁meaning	-2792
▁natural	-2793
▁protest	-2794
▁respond	-2795
▁collabor	-2796
▁cultural	-2797
ustainable	-2798
▁according	-2799
▁transport	-2800
▁treatment	-2801
▁everywhere	-2802
▁historical	-2803
▁opposition	-2804
▁partnership	-2805
▁significantly	-2806
▁technological	-2807
3,	-2808
MF	-2809
off	-2810
pol	-2811
ubl	-2812
umm	-2813
▁Am	-2814
▁My	-2815
ided	-2816
lier	-2817
phas	-2818
used	-2819
▁IMF	-2820
▁Not	-2821
▁gas	-2822
▁pus	-2823
▁rad	-2824
lling	-2825
oring	-2826
osing	-2827
▁2016	-2828
▁Geor	-2829
▁frag	-2830
▁heav	-2831
▁late	-2832
▁list	-2833
▁side	-2834
arents	-2835
eneral	-2836
lusive	-2837
▁Great	-2838
▁Simil	-2839
▁State	-2840
▁below	-2841
▁enorm	-2842
▁going	-2843
▁heart	-2844
▁known	-2845
▁mater	-2846
▁occur	-2847
▁rough	-2848
▁scale	-2849
ressive	-2850
▁Barack	-2851
▁became	-2852
▁emphas	-2853
▁secure	-2854
▁seemed	-2855
▁appears	-2856
▁connect	-2857
▁distrib	-2858
▁forward	-2859
▁legitim	-2860
▁quickly	-2861
▁receive	-2862
▁thought	-2863
▁Economic	-2864
▁becoming	-2865
▁behavior	-2866
▁determin	-2867
▁training	-2868
▁continued	-2869
▁corporate	-2870
▁decisions	-2871
▁fertility	-2872
▁democratic	-2873
▁initiatives	-2874
2,	-2875
bi	-2876
sh	-2877
ask	-2878
hel	-2879
ina	-2880
ohn	-2881
orn	-2882
rew	-2883
sis	-2884
xim	-2885
▁$5	-2886
▁II	-2887
▁Tw	-2888
hens	-2889
ried	-2890
▁Com	-2891
▁arm	-2892
▁bat	-2893
▁cir	-2894
▁div	-2895
▁unp	-2896
iring	-2897
ought	-2898
third	-2899
▁2017	-2900
▁Coun	-2901
▁From	-2902
▁John	-2903
▁idea	-2904
▁line	-2905
▁publ	-2906
aching	-2907
rained	-2908
▁Asian	-2909
▁Given	-2910
▁mobil	-2911
▁offer	-2912
▁relev	-2913
▁vital	-2914
ination	-2915
▁Greece	-2916
▁Uganda	-2917
▁accord	-2918
▁associ	-2919
▁custom	-2920
▁either	-2921
▁larger	-2922
▁mechan	-2923
▁person	-2924
▁police	-2925
▁prohib	-2926
▁widely	-2927
▁acceler	-2928
▁bipolar	-2929
▁focused	-2930
▁general	-2931
▁reduced	-2932
abilities	-2933
▁actually	-2934
▁enormous	-2935
▁material	-2936
▁recovery	-2937
▁authority	-2938
▁constrain	-2939
▁contribut	-2940
▁influence	-2941
▁practices	-2942
▁recognize	-2943
▁households	-2944
▁revolution	-2945
▁ultimately	-2946
▁established	-2947
6%	-2948
DG	-2949
mp	-2950
irt	-2951
pet	-2952
▁($	-2953
▁HI	-2954
▁Ne	-2955
▁Sa	-2956
▁ge	-2957
▁ir	-2958
ique	-2959
▁Mal	-2960
▁mal	-2961
▁mid	-2962
ached	-2963
acter	-2964
▁easy	-2965
▁insp	-2966
▁pain	-2967
▁took	-2968
illing	-2969
sector	-2970
▁Organ	-2971
▁advoc	-2972
▁emerg	-2973
▁frequ	-2974
▁liter	-2975
▁plans	-2976
▁surve	-2977
▁using	-2978
▁yield	-2979
▁Christ	-2980
▁caused	-2981
▁commod	-2982
▁damage	-2983
▁employ	-2984
▁hunger	-2985
▁imposs	-2986
▁months	-2987
▁mutual	-2988
▁recomm	-2989
▁simple	-2990
▁status	-2991
fficient	-2992
▁Council	-2993
▁Kingdom	-2994
▁comprom	-2995
▁conserv	-2996
▁imports	-2997
▁poorest	-2998
▁promise	-2999
▁rapidly	-3000
▁building	-3001
▁consumer	-3002
▁creating	-3003
▁external	-3004
▁personal	-3005
▁required	-3006
▁unlikely	-3007
▁introduced	-3008
▁scientific	-3009
▁alternative	-3010
▁effectively	-3011
-2	-3012
sp	-3013
car	-3014
cle	-3015
den	-3016
ope	-3017
umb	-3018
▁Ex	-3019
abil	-3020
grow	-3021
hana	-3022
plus	-3023
rest	-3024
vert	-3025
year	-3026
▁Ber	-3027
▁log	-3028
▁wat	-3029
rimin	-3030
uster	-3031
▁bomb	-3032
▁burd	-3033
▁enab	-3034
▁fair	-3035
▁lose	-3036
▁mach	-3037
▁pack	-3038
▁shar	-3039
▁summ	-3040
▁wast	-3041
gorith	-3042
istent	-3043
onents	-3044
▁Ghana	-3045
▁black	-3046
▁doubt	-3047
▁flood	-3048
▁legal	-3049
▁raise	-3050
▁serve	-3051
▁talks	-3052
ication	-3053
ospital	-3054
▁cancer	-3055
▁expans	-3056
▁lesson	-3057
▁partly	-3058
▁resili	-3059
▁shared	-3060
▁territ	-3061
▁company	-3062
▁crucial	-3063
▁discipl	-3064
▁opinion	-3065
▁studies	-3066
▁surplus	-3067
▁victory	-3068
▁critical	-3069
▁everyone	-3070
▁greatest	-3071
▁priority	-3072
▁revenues	-3073
▁supposed	-3074
▁undermin	-3075
▁character	-3076
▁consumers	-3077
▁estimated	-3078
▁improving	-3079
▁providing	-3080
▁Democratic	-3081
▁profession	-3082
▁Palestinian	-3083
▁electricity	-3084
▁dramatically	-3085
▁competitiveness	-3086
5,	-3087
AC	-3088
aj	-3089
fe	-3090
.5%	-3091
DGs	-3092
izes	-3093
lled	-3094
rary	-3095
rene	-3096
▁203	-3097
▁Dep	-3098
▁Jew	-3099
▁Jun	-3100
▁Mar	-3101
▁bro	-3102
▁cal	-3103
▁rob	-3104
▁ste	-3105
▁tro	-3106
▁uns	-3107
ailed	-3108
aries	-3109
fully	-3110
ights	-3111
ottom	-3112
rison	-3113
▁acqu	-3114
▁join	-3115
▁reve	-3116
▁soft	-3117
▁tend	-3118
ellect	-3119
encies	-3120
▁Kenya	-3121
▁Their	-3122
▁adequ	-3123
▁ahead	-3124
▁chain	-3125
▁deval	-3126
▁equal	-3127
▁immun	-3128
▁joint	-3129
▁legis	-3130
▁meant	-3131
▁recon	-3132
▁seven	-3133
▁solid	-3134
▁union	-3135
conduct	-3136
▁agreed	-3137
▁choice	-3138
▁engine	-3139
▁factor	-3140
▁forest	-3141
▁margin	-3142
▁models	-3143
▁moving	-3144
▁nation	-3145
▁planet	-3146
▁points	-3147
▁spread	-3148
ographic	-3149
usterity	-3150
▁Islamic	-3151
▁adopted	-3152
▁dynamic	-3153
▁friends	-3154
▁justice	-3155
▁matters	-3156
▁meeting	-3157
▁roughly	-3158
▁targets	-3159
▁directly	-3160
▁followed	-3161
▁generate	-3162
▁resource	-3163
▁suggests	-3164
▁advantage	-3165
▁conflicts	-3166
▁consensus	-3167
▁discrimin	-3168
▁economics	-3169
▁encourage	-3170
▁expansion	-3171
▁following	-3172
▁therefore	-3173
▁University	-3174
▁collective	-3175
▁impossible	-3176
▁strategies	-3177
▁uncertainty	-3178
▁Organization	-3179
▁construction	-3180
▁presidential	-3181
▁liberalization	-3182
1%	-3183
uk	-3184
aff	-3185
bed	-3186
ief	-3187
leb	-3188
ops	-3189
▁25	-3190
▁CA	-3191
▁Uk	-3192
aled	-3193
ania	-3194
ieth	-3195
mine	-3196
orks	-3197
sets	-3198
▁Bra	-3199
▁His	-3200
antic	-3201
arant	-3202
ondon	-3203
thern	-3204
▁1990	-3205
▁2009	-3206
▁Conf	-3207
▁Last	-3208
▁NATO	-3209
▁crop	-3210
▁push	-3211
▁safe	-3212
▁spur	-3213
▁vote	-3214
illenn	-3215
market	-3216
rehens	-3217
riving	-3218
▁aimed	-3219
▁debts	-3220
▁fully	-3221
▁gradu	-3222
▁limit	-3223
▁minim	-3224
▁minor	-3225
▁opium	-3226
▁parad	-3227
▁taxes	-3228
▁visit	-3229
▁wants	-3230
outhern	-3231
reprene	-3232
▁London	-3233
▁Mexico	-3234
▁answer	-3235
▁center	-3236
▁comput	-3237
▁enable	-3238
▁faster	-3239
▁happen	-3240
▁latest	-3241
▁merely	-3242
▁propos	-3243
▁temper	-3244
▁useful	-3245
▁Finally	-3246
▁attempt	-3247
▁biggest	-3248
▁contain	-3249
▁guarant	-3250
▁returns	-3251
▁analysis	-3252
▁hospital	-3253
▁profound	-3254
▁provided	-3255
▁relevant	-3256
▁announced	-3257
▁intellect	-3258
▁migration	-3259
▁pollution	-3260
▁promoting	-3261
▁religious	-3262
▁something	-3263
▁sustained	-3264
▁undermine	-3265
▁entreprene	-3266
▁importance	-3267
▁legitimacy	-3268
▁protection	-3269
▁Republicans	-3270
▁developments	-3271
▁superconduct	-3272
2%	-3273
AR	-3274
EN	-3275
ny	-3276
RID	-3277
arc	-3278
ero	-3279
ilt	-3280
inc	-3281
lif	-3282
way	-3283
zil	-3284
▁30	-3285
▁Su	-3286
▁ep	-3287
enth	-3288
ient	-3289
ison	-3290
▁50%	-3291
▁Bur	-3292
▁Our	-3293
▁jud	-3294
▁var	-3295
ellig	-3296
erves	-3297
itter	-3298
olars	-3299
ology	-3300
range	-3301
ronic	-3302
▁game	-3303
▁host	-3304
▁race	-3305
▁read	-3306
▁vast	-3307
▁vers	-3308
▁celeb	-3309
▁claim	-3310
▁ended	-3311
▁forms	-3312
▁incom	-3313
▁learn	-3314
▁light	-3315
▁maxim	-3316
▁sharp	-3317
▁space	-3318
▁steps	-3319
▁tools	-3320
▁trust	-3321
▁Govern	-3322
▁Health	-3323
▁allies	-3324
▁belief	-3325
▁cities	-3326
▁crimin	-3327
▁facing	-3328
▁proper	-3329
▁tempor	-3330
▁treaty	-3331
economic	-3332
▁Without	-3333
▁arrange	-3334
▁demands	-3335
▁describ	-3336
▁housing	-3337
▁leaving	-3338
▁lessons	-3339
▁neither	-3340
▁offered	-3341
▁outside	-3342
▁overall	-3343
▁precise	-3344
▁princip	-3345
▁radical	-3346
▁turning	-3347
ashington	-3348
▁Monetary	-3349
▁algorith	-3350
▁minister	-3351
▁reflects	-3352
▁Similarly	-3353
▁austerity	-3354
▁estimates	-3355
▁immediate	-3356
▁suffering	-3357
▁technical	-3358
▁eventually	-3359
▁throughout	-3360
▁individuals	-3361
▁responsible	-3362
▁universities	-3363
▁institutional	-3364
3%	-3365
4,	-3366
ING	-3367
TON	-3368
ded	-3369
ira	-3370
lan	-3371
pay	-3372
ple	-3373
unt	-3374
▁10	-3375
▁Ac	-3376
▁Ke	-3377
-201	-3378
aces	-3379
angu	-3380
aria	-3381
aves	-3382
comm	-3383
fect	-3384
inet	-3385
lder	-3386
look	-3387
olid	-3388
rect	-3389
with	-3390
▁Sch	-3391
▁ban	-3392
▁bri	-3393
▁exe	-3394
▁reb	-3395
▁sil	-3396
aught	-3397
house	-3398
iance	-3399
level	-3400
minbi	-3401
ossil	-3402
reens	-3403
rence	-3404
uries	-3405
▁came	-3406
▁draw	-3407
▁obst	-3408
▁sens	-3409
▁talk	-3410
▁told	-3411
▁vill	-3412
▁virt	-3413
action	-3414
atures	-3415
herent	-3416
▁Trade	-3417
▁Treat	-3418
▁autom	-3419
▁embra	-3420
▁hopes	-3421
▁persu	-3422
▁prime	-3423
▁solve	-3424
through	-3425
▁Brazil	-3426
▁assess	-3427
▁border	-3428
▁convin	-3429
▁dollar	-3430
▁remark	-3431
▁travel	-3432
▁Federal	-3433
▁Reserve	-3434
▁appoint	-3435
▁critics	-3436
▁drought	-3437
▁highest	-3438
▁measure	-3439
▁promote	-3440
▁reached	-3441
▁service	-3442
rehensive	-3443
▁confront	-3444
▁diseases	-3445
▁launched	-3446
▁remained	-3447
▁prospects	-3448
▁supported	-3449
▁twentieth	-3450
▁universal	-3451
▁assistance	-3452
▁confidence	-3453
▁engagement	-3454
▁inevitable	-3455
▁productive	-3456
▁sufficient	-3457
▁Fortunately	-3458
▁competition	-3459
▁participation	-3460
Af	-3461
ax	-3462
ada	-3463
eng	-3464
men	-3465
oph	-3466
war	-3467
▁2.	-3468
▁ty	-3469
ager	-3470
ague	-3471
apse	-3472
arth	-3473
aval	-3474
back	-3475
cape	-3476
cont	-3477
hern	-3478
icip	-3479
rupt	-3480
▁193	-3481
▁Gul	-3482
▁Ire	-3483
▁Jan	-3484
▁hit	-3485
▁sex	-3486
asion	-3487
iment	-3488
▁Cold	-3489
▁Dece	-3490
▁Serb	-3491
▁Summ	-3492
▁area	-3493
▁book	-3494
▁bure	-3495
▁core	-3496
▁cuts	-3497
▁phys	-3498
▁purp	-3499
▁rain	-3500
▁road	-3501
▁tack	-3502
▁upon	-3503
▁whom	-3504
ciples	-3505
ousand	-3506
policy	-3507
▁Alban	-3508
▁Found	-3509
▁board	-3510
▁mortg	-3511
▁spend	-3512
▁track	-3513
▁withd	-3514
▁works	-3515
▁worst	-3516
holders	-3517
▁George	-3518
▁Greens	-3519
▁Treaty	-3520
▁anyone	-3521
▁bottom	-3522
▁devast	-3523
▁divers	-3524
▁engage	-3525
▁extent	-3526
▁giving	-3527
▁launch	-3528
▁minist	-3529
▁summit	-3530
▁talent	-3531
▁theory	-3532
ications	-3533
▁Ireland	-3534
▁actions	-3535
▁advance	-3536
▁dollars	-3537
▁equally	-3538
▁facilit	-3539
▁finally	-3540
▁instead	-3541
▁lending	-3542
▁reasons	-3543
▁running	-3544
▁academic	-3545
▁existing	-3546
▁intellig	-3547
▁overcome	-3548
▁provides	-3549
▁renminbi	-3550
▁repeated	-3551
▁restrict	-3552
▁vaccines	-3553
▁commodity	-3554
▁reduction	-3555
▁sanctions	-3556
▁tradition	-3557
▁associated	-3558
▁difference	-3559
▁relatively	-3560
▁scientists	-3561
▁terrorists	-3562
▁university	-3563
▁independent	-3564
▁recognition	-3565
▁accountability	-3566
▁discrimination	-3567
▁sustainability	-3568
▁transformation	-3569
-1	-3570
4%	-3571
AS	-3572
ES	-3573
GE	-3574
▁z	-3575
DON	-3576
amb	-3577
apt	-3578
gic	-3579
irm	-3580
kes	-3581
lig	-3582
och	-3583
pri	-3584
ray	-3585
sec	-3586
unn	-3587
▁Bo	-3588
▁Ju	-3589
▁Pe	-3590
▁UK	-3591
▁gl	-3592
bted	-3593
ethe	-3594
iles	-3595
isms	-3596
kept	-3597
more	-3598
onom	-3599
uine	-3600
ynes	-3601
▁194	-3602
▁205	-3603
▁Bal	-3604
▁Har	-3605
▁LDP	-3606
▁LON	-3607
▁Non	-3608
▁buy	-3609
▁det	-3610
▁gap	-3611
▁har	-3612
▁nut	-3613
▁sum	-3614
ament	-3615
ittee	-3616
lands	-3617
risis	-3618
▁Anot	-3619
▁Prog	-3620
▁cash	-3621
▁defe	-3622
▁pled	-3623
▁port	-3624
▁sent	-3625
▁ties	-3626
Europe	-3627
ancial	-3628
coming	-3629
ground	-3630
ishing	-3631
itical	-3632
rating	-3633
▁1990’	-3634
▁2014,	-3635
▁adopt	-3636
▁barri	-3637
▁colle	-3638
▁cyber	-3639
▁lines	-3640
▁shape	-3641
▁stock	-3642
century	-3643
iciency	-3644
orthern	-3645
related	-3646
▁Econom	-3647
▁Invest	-3648
▁LONDON	-3649
▁causes	-3650
▁commer	-3651
▁deaths	-3652
▁father	-3653
▁limits	-3654
▁manage	-3655
▁nature	-3656
▁normal	-3657
▁proved	-3658
▁safety	-3659
▁tariff	-3660
standing	-3661
▁Another	-3662
▁Instead	-3663
▁Israeli	-3664
▁Perhaps	-3665
▁changed	-3666
▁conduct	-3667
▁earlier	-3668
▁experts	-3669
▁getting	-3670
▁heavily	-3671
▁himself	-3672
▁outcome	-3673
▁pattern	-3674
▁present	-3675
▁replace	-3676
▁sources	-3677
▁thereby	-3678
▁weather	-3679
▁Likewise	-3680
▁addition	-3681
▁argument	-3682
▁changing	-3683
▁complain	-3684
▁contrary	-3685
▁declared	-3686
▁designed	-3687
▁dramatic	-3688
▁internal	-3689
▁learning	-3690
▁prepared	-3691
▁scholars	-3692
▁thousand	-3693
▁Communist	-3694
▁Greenspan	-3695
▁dangerous	-3696
▁insurance	-3697
▁terrorist	-3698
▁typically	-3699
▁Washington	-3700
▁innovative	-3701
▁principles	-3702
▁threatened	-3703
▁experienced	-3704
▁generations	-3705
▁immigration	-3706
▁intervention	-3707
▁organization	-3708
7%	-3709
CO	-3710
ef	-3711
gun	-3712
ken	-3713
los	-3714
oiz	-3715
oke	-3716
ola	-3717
ull	-3718
umi	-3719
▁hy	-3720
▁vo	-3721
AIDS	-3722
acro	-3723
ames	-3724
appe	-3725
atin	-3726
ches	-3727
ctic	-3728
ctob	-3729
imer	-3730
irth	-3731
know	-3732
lied	-3733
ones	-3734
opol	-3735
uild	-3736
whel	-3737
▁Ant	-3738
▁Mel	-3739
▁Whe	-3740
▁dow	-3741
▁fle	-3742
▁hum	-3743
▁lab	-3744
▁sea	-3745
▁wel	-3746
adequ	-3747
count	-3748
diagn	-3749
idesp	-3750
inary	-3751
raine	-3752
▁2006	-3753
▁Euro	-3754
▁High	-3755
▁Koiz	-3756
▁Port	-3757
▁arms	-3758
▁days	-3759
▁dict	-3760
▁ethn	-3761
▁feed	-3762
▁imag	-3763
▁liqu	-3764
▁near	-3765
▁paid	-3766
▁plat	-3767
▁shap	-3768
▁teac	-3769
▁week	-3770
▁your	-3771
ancing	-3772
ctober	-3773
forest	-3774
idered	-3775
itious	-3776
lantic	-3777
ulated	-3778
undred	-3779
▁Goals	-3780
▁Paris	-3781
▁Saudi	-3782
▁Under	-3783
▁accur	-3784
▁brain	-3785
▁built	-3786
▁deals	-3787
▁dream	-3788
▁eight	-3789
▁faced	-3790
▁final	-3791
▁front	-3792
▁frust	-3793
▁fuels	-3794
▁girls	-3795
▁hands	-3796
▁leave	-3797
▁macro	-3798
▁motiv	-3799
▁mount	-3800
▁occup	-3801
▁prove	-3802
▁range	-3803
▁stagn	-3804
▁takes	-3805
▁volat	-3806
anguage	-3807
ustrial	-3808
▁Canada	-3809
▁Keynes	-3810
▁Muslim	-3811
▁Though	-3812
▁adjust	-3813
▁appear	-3814
▁assets	-3815
▁battle	-3816
▁defeat	-3817
▁double	-3818
▁easier	-3819
▁exceed	-3820
▁expert	-3821
▁formal	-3822
▁fossil	-3823
▁medium	-3824
▁narrow	-3825
▁office	-3826
▁perman	-3827
▁plants	-3828
▁troops	-3829
▁widesp	-3830
▁worked	-3831
American	-3832
etheless	-3833
▁General	-3834
▁However	-3835
▁Koizumi	-3836
▁October	-3837
▁Ukraine	-3838
▁allowed	-3839
▁bankers	-3840
▁brought	-3841
▁bureauc	-3842
▁involve	-3843
▁message	-3844
▁options	-3845
▁parents	-3846
▁quarter	-3847
▁related	-3848
▁schools	-3849
▁trading	-3850
▁National	-3851
▁activity	-3852
▁appropri	-3853
▁collapse	-3854
▁complete	-3855
▁disaster	-3856
▁equality	-3857
▁happened	-3858
▁negative	-3859
▁overwhel	-3860
▁reaching	-3861
▁southern	-3862
▁standard	-3863
▁struggle	-3864
▁withdraw	-3865
▁ambitious	-3866
▁precisely	-3867
▁resulting	-3868
▁subsidies	-3869
▁temporary	-3870
▁workforce	-3871
▁Foundation	-3872
▁compromise	-3873
▁considered	-3874
▁greenhouse	-3875
▁parliament	-3876
▁previously	-3877
▁regulation	-3878
▁statistics	-3879
▁supporters	-3880
▁widespread	-3881
▁Sustainable	-3882
▁destruction	-3883
▁differences	-3884
▁corporations	-3885
▁distribution	-3886
3.	-3887
40	-3888
EL	-3889
ER	-3890
PJ	-3891
co	-3892
ij	-3893
pr	-3894
sy	-3895
PAC	-3896
ane	-3897
ext	-3898
hod	-3899
isp	-3900
ita	-3901
uni	-3902
urb	-3903
yle	-3904
▁bi	-3905
▁fo	-3906
ails	-3907
iliz	-3908
inks	-3909
oric	-3910
uary	-3911
ular	-3912
▁Add	-3913
▁Ang	-3914
▁Bas	-3915
▁Bec	-3916
▁DPJ	-3917
▁Eng	-3918
▁Sen	-3919
▁alc	-3920
▁alt	-3921
▁hom	-3922
▁ord	-3923
▁wit	-3924
aches	-3925
aling	-3926
cient	-3927
esity	-3928
iding	-3929
idity	-3930
itute	-3931
luded	-3932
rived	-3933
state	-3934
▁AfDB	-3935
▁June	-3936
▁Just	-3937
▁MDGs	-3938
▁Thus	-3939
▁brut	-3940
▁dele	-3941
▁goes	-3942
▁laws	-3943
▁lend	-3944
▁perm	-3945
▁rank	-3946
▁size	-3947
▁stem	-3948
▁task	-3949
▁team	-3950
▁trig	-3951
▁trip	-3952
carbon	-3953
health	-3954
heimer	-3955
itting	-3956
mented	-3957
▁AIPAC	-3958
▁Latin	-3959
▁Medic	-3960
▁asset	-3961
▁block	-3962
▁calls	-3963
▁doesn	-3964
▁grown	-3965
▁reass	-3966
▁speak	-3967
▁stead	-3968
▁tests	-3969
▁tight	-3970
nership	-3971
ructive	-3972
▁Portug	-3973
▁abroad	-3974
▁acknow	-3975
▁actors	-3976
▁catast	-3977
▁disput	-3978
▁driven	-3979
▁elimin	-3980
▁execut	-3981
▁implic	-3982
▁offers	-3983
▁reject	-3984
▁remind	-3985
▁revers	-3986
▁robust	-3987
▁secret	-3988
▁signed	-3989
▁stabil	-3990
▁stands	-3991
▁survey	-3992
▁trends	-3993
▁unless	-3994
reaching	-3995
▁Because	-3996
▁Climate	-3997
▁Millenn	-3998
▁becomes	-3999
▁broader	-4000
▁chronic	-4001
▁defined	-4002
▁hundred	-4003
▁learned	-4004
▁nations	-4005
▁putting	-4006
▁savings	-4007
▁younger	-4008
▁December	-4009
▁achieved	-4010
▁bringing	-4011
▁ensuring	-4012
▁expanded	-4013
▁journals	-4014
▁marginal	-4015
▁perspect	-4016
▁promises	-4017
▁reserves	-4018
▁supports	-4019
▁criticism	-4020
▁investing	-4021
▁activities	-4022
▁addressing	-4023
▁recognized	-4024
▁represents	-4025
▁competitive	-4026
▁constraints	-4027
▁demographic	-4028
▁innovations	-4029
▁breakthrough	-4030
▁intellectual	-4031
▁intelligence	-4032
1.	-4033
5.	-4034
MB	-4035
TI	-4036
mo	-4037
ECD	-4038
ats	-4039
ech	-4040
mon	-4041
par	-4042
spe	-4043
▁5%	-4044
▁60	-4045
▁Bl	-4046
▁Co	-4047
▁DC	-4048
▁Ky	-4049
arsh	-4050
bank	-4051
ibly	-4052
icro	-4053
ogue	-4054
ohol	-4055
omin	-4056
oses	-4057
ping	-4058
rich	-4059
▁30%	-4060
▁Alz	-4061
▁Kar	-4062
▁NCD	-4063
▁Rev	-4064
▁Rob	-4065
▁Yas	-4066
▁asp	-4067
▁enj	-4068
▁fra	-4069
▁sup	-4070
Afric	-4071
cious	-4072
ffect	-4073
first	-4074
going	-4075
ilton	-4076
known	-4077
power	-4078
rates	-4079
scale	-4080
▁1989	-4081
▁Fore	-4082
▁Fran	-4083
▁OECD	-4084
▁Over	-4085
▁Shia	-4086
▁body	-4087
▁bold	-4088
▁circ	-4089
▁dism	-4090
▁doct	-4091
▁flag	-4092
▁flow	-4093
▁hour	-4094
▁init	-4095
▁isol	-4096
▁lies	-4097
▁sold	-4098
▁stre	-4099
▁went	-4100
avalny	-4101
commun	-4102
ployed	-4103
umping	-4104
▁Those	-4105
▁Trans	-4106
▁Until	-4107
▁blood	-4108
▁bound	-4109
▁colon	-4110
▁crops	-4111
▁elder	-4112
▁faces	-4113
▁lands	-4114
▁revol	-4115
▁spent	-4116
▁stage	-4117
▁toler	-4118
▁views	-4119
archers	-4120
centage	-4121
connect	-4122
itation	-4123
▁During	-4124
▁burden	-4125
▁capita	-4126
▁career	-4127
▁claims	-4128
▁condem	-4129
▁degree	-4130
▁elites	-4131
▁losses	-4132
▁online	-4133
▁played	-4134
▁presid	-4135
▁prison	-4136
▁raised	-4137
▁resist	-4138
▁stable	-4139
▁twenty	-4140
▁unable	-4141
▁viewed	-4142
▁Navalny	-4143
▁alcohol	-4144
▁attitud	-4145
▁correct	-4146
▁depends	-4147
▁enforce	-4148
▁farming	-4149
▁happens	-4150
▁healthy	-4151
▁inadequ	-4152
▁medical	-4153
▁profess	-4154
▁sharing	-4155
▁subject	-4156
▁victims	-4157
▁Consider	-4158
▁adequate	-4159
▁agencies	-4160
▁combined	-4161
▁fighting	-4162
▁function	-4163
▁peaceful	-4164
▁protests	-4165
▁starters	-4166
▁Alzheimer	-4167
▁efficient	-4168
▁emergence	-4169
▁exception	-4170
▁highlight	-4171
▁imbalance	-4172
▁inclusive	-4173
▁movements	-4174
▁recommend	-4175
▁sometimes	-4176
▁thousands	-4177
▁Millennium	-4178
▁conference	-4179
▁contribute	-4180
▁convention	-4181
▁discipline	-4182
▁appropriate	-4183
▁educational	-4184
▁legislation	-4185
▁politically	-4186
▁researchers	-4187
▁partnerships	-4188
▁entrepreneurs	-4189
.)	-4190
8%	-4191
me	-4192
rs	-4193
su	-4194
TIP	-4195
ahu	-4196
anz	-4197
aul	-4198
avi	-4199
aza	-4200
che	-4201
imb	-4202
iny	-4203
lar	-4204
ode	-4205
orb	-4206
urt	-4207
▁0.	-4208
▁11	-4209
▁Do	-4210
▁Ha	-4211
amed	-4212
ange	-4213
cast	-4214
cers	-4215
cons	-4216
fers	-4217
inct	-4218
mosp	-4219
oler	-4220
omal	-4221
oral	-4222
rage	-4223
uted	-4224
wing	-4225
▁10%	-4226
▁195	-4227
▁Any	-4228
▁IDB	-4229
▁due	-4230
▁enh	-4231
▁lot	-4232
▁ple	-4233
▁pun	-4234
▁sen	-4235
▁try	-4236
▁unw	-4237
▁ver	-4238
ching	-4239
eenth	-4240
inton	-4241
ional	-4242
irect	-4243
reced	-4244
rific	-4245
under	-4246
▁2010	-4247
▁Aust	-4248
▁Both	-4249
▁Gavi	-4250
▁TTIP	-4251
▁bear	-4252
▁cast	-4253
▁clin	-4254
▁dead	-4255
▁enem	-4256
▁fell	-4257
▁scen	-4258
▁wave	-4259
▁zero	-4260
anyahu	-4261
stream	-4262
▁2000,	-4263
▁2010,	-4264
▁2013,	-4265
▁Burma	-4266
▁Green	-4267
▁Keral	-4268
▁Still	-4269
▁Treas	-4270
▁accom	-4271
▁begun	-4272
▁delay	-4273
▁fears	-4274
▁worth	-4275
appoint	-4276
ductive	-4277
ensions	-4278
ialogue	-4279
rations	-4280
uations	-4281
ulation	-4282
▁Robert	-4283
▁arrest	-4284
▁compar	-4285
▁deeper	-4286
▁deeply	-4287
▁destro	-4288
▁ethnic	-4289
▁female	-4290
▁ignore	-4291
▁intens	-4292
▁mobile	-4293
▁obstac	-4294
▁offset	-4295
▁perpet	-4296
▁pursue	-4297
▁reward	-4298
▁showed	-4299
▁sought	-4300
▁speech	-4301
▁transl	-4302
▁turned	-4303
security	-4304
▁Albania	-4305
▁capable	-4306
▁closely	-4307
▁defense	-4308
▁disappe	-4309
▁failing	-4310
▁genuine	-4311
▁implies	-4312
▁partner	-4313
▁perfect	-4314
▁reinfor	-4315
▁resolve	-4316
▁species	-4317
▁tariffs	-4318
▁transpa	-4319
▁witness	-4320
▁barriers	-4321
▁consolid	-4322
▁coverage	-4323
▁criminal	-4324
▁educated	-4325
▁fertiliz	-4326
▁language	-4327
▁offering	-4328
▁planning	-4329
▁property	-4330
▁reported	-4331
▁specific	-4332
▁strength	-4333
▁transfer	-4334
▁Consensus	-4335
▁Financial	-4336
▁Netanyahu	-4337
▁achieving	-4338
▁addressed	-4339
▁borrowing	-4340
▁candidate	-4341
▁condition	-4342
▁dependent	-4343
▁negotiate	-4344
▁producers	-4345
▁promising	-4346
▁published	-4347
▁structure	-4348
▁Republican	-4349
▁mechanisms	-4350
▁percentage	-4351
▁presidency	-4352
▁repeatedly	-4353
▁settlement	-4354
▁underlying	-4355
▁Partnership	-4356
▁commitments	-4357
▁necessarily	-4358
▁substantial	-4359
▁considerable	-4360
▁establishing	-4361
▁immunization	-4362
▁comprehensive	-4363
▁substantially	-4364
8,	-4365
AN	-4366
CT	-4367
IB	-4368
ih	-4369
ns	-4370
ASH	-4371
aba	-4372
ket	-4373
nam	-4374
oor	-4375
ote	-4376
rex	-4377
rus	-4378
ula	-4379
▁35	-4380
▁4.	-4381
▁50	-4382
▁Fe	-4383
▁Hu	-4384
▁Mc	-4385
▁ec	-4386
-200	-4387
agan	-4388
ancy	-4389
ario	-4390
azon	-4391
bles	-4392
ding	-4393
enty	-4394
fire	-4395
fort	-4396
obel	-4397
oted	-4398
vard	-4399
ware	-4400
▁God	-4401
▁Why	-4402
▁aim	-4403
▁hon	-4404
▁mix	-4405
▁wis	-4406
MBRID	-4407
acerb	-4408
anted	-4409
arity	-4410
class	-4411
emics	-4412
erend	-4413
iable	-4414
igate	-4415
nturn	-4416
ommod	-4417
place	-4418
riend	-4419
ukuni	-4420
▁Four	-4421
▁July	-4422
▁Murd	-4423
▁Park	-4424
▁Then	-4425
▁WASH	-4426
▁army	-4427
▁audi	-4428
▁capt	-4429
▁grew	-4430
▁male	-4431
▁rele	-4432
▁resc	-4433
▁stay	-4434
▁vari	-4435
INGTON	-4436
apital	-4437
estate	-4438
inking	-4439
luding	-4440
racies	-4441
▁Human	-4442
▁Libya	-4443
▁Meles	-4444
▁Nobel	-4445
▁Somal	-4446
▁absol	-4447
▁alloc	-4448
▁birth	-4449
▁carry	-4450
▁cross	-4451
▁donor	-4452
▁equip	-4453
▁numer	-4454
▁oblig	-4455
▁quant	-4456
▁round	-4457
▁shown	-4458
▁spect	-4459
▁stake	-4460
▁wages	-4461
▁white	-4462
MBRIDGE	-4463
country	-4464
hetoric	-4465
itative	-4466
ivalent	-4467
▁Berlin	-4468
▁Kerala	-4469
▁Spring	-4470
▁atmosp	-4471
▁curric	-4472
▁easily	-4473
▁fields	-4474
▁figure	-4475
▁instru	-4476
▁interp	-4477
▁owners	-4478
▁placed	-4479
▁pushed	-4480
▁suffer	-4481
▁trying	-4482
▁unique	-4483
▁Austral	-4484
▁Clinton	-4485
▁Foreign	-4486
▁Harvard	-4487
▁January	-4488
▁Murdoch	-4489
▁absence	-4490
▁affairs	-4491
▁anticip	-4492
▁complic	-4493
▁context	-4494
▁corrupt	-4495
▁creates	-4496
▁culture	-4497
▁decided	-4498
▁emerged	-4499
▁empower	-4500
▁exacerb	-4501
▁holding	-4502
▁journal	-4503
▁obesity	-4504
▁paradox	-4505
▁purpose	-4506
▁raising	-4507
▁revenue	-4508
▁started	-4509
▁trouble	-4510
▁usually	-4511
▁various	-4512
▁welcome	-4513
▁Security	-4514
▁Treasury	-4515
▁Yasukuni	-4516
▁accommod	-4517
▁although	-4518
▁billions	-4519
▁credible	-4520
▁downturn	-4521
▁entirely	-4522
▁involved	-4523
▁migrants	-4524
▁minority	-4525
▁occurred	-4526
▁ordinary	-4527
▁produced	-4528
▁promised	-4529
▁proposed	-4530
▁received	-4531
▁referend	-4532
▁scenario	-4533
▁suffered	-4534
▁unpreced	-4535
liferation	-4536
▁CAMBRIDGE	-4537
▁declining	-4538
▁deflation	-4539
▁dominated	-4540
▁enterpris	-4541
▁narrative	-4542
▁neighbors	-4543
▁objective	-4544
▁otherwise	-4545
▁remaining	-4546
▁shortfall	-4547
▁Investment	-4548
▁WASHINGTON	-4549
▁algorithms	-4550
▁approaches	-4551
▁atmosphere	-4552
▁diplomatic	-4553
▁everything	-4554
▁imbalances	-4555
▁immigrants	-4556
▁imperative	-4557
▁integrated	-4558
▁remarkable	-4559
▁structures	-4560
▁credibility	-4561
▁devaluation	-4562
▁implemented	-4563
▁arrangements	-4564
▁conservative	-4565
▁experiencing	-4566
▁successfully	-4567
▁transparency	-4568
▁unprecedented	-4569
GB	-4570
▁-	-4571
asc	-4572
bru	-4573
cri	-4574
ery	-4575
sen	-4576
udd	-4577
▁Im	-4578
▁Te	-4579
▁wa	-4580
ESCO	-4581
araj	-4582
ares	-4583
iant	-4584
indu	-4585
ires	-4586
odox	-4587
raft	-4588
uses	-4589
utes	-4590
what	-4591
▁70%	-4592
▁80%	-4593
▁Act	-4594
▁Ass	-4595
▁Its	-4596
▁Nor	-4597
▁bub	-4598
▁bul	-4599
▁dro	-4600
▁hyp	-4601
▁tow	-4602
▁unt	-4603
0,000	-4604
ables	-4605
agers	-4606
banon	-4607
break	-4608
erted	-4609
gical	-4610
orial	-4611
pping	-4612
rexit	-4613
ridge	-4614
usion	-4615
works	-4616
▁2012	-4617
▁Comp	-4618
▁Here	-4619
▁Prot	-4620
▁Sene	-4621
▁Sunn	-4622
▁Tanz	-4623
▁York	-4624
▁epid	-4625
▁evol	-4626
▁fire	-4627
▁kill	-4628
▁magn	-4629
▁phen	-4630
▁pool	-4631
▁qual	-4632
▁rely	-4633
▁soil	-4634
▁tele	-4635
▁tour	-4636
▁wars	-4637
▁wind	-4638
acific	-4639
bruary	-4640
crisis	-4641
ifying	-4642
overed	-4643
▁Gates	-4644
▁Greek	-4645
▁March	-4646
▁acute	-4647
▁aging	-4648
▁bonds	-4649
▁displ	-4650
▁faith	-4651
▁fewer	-4652
▁inequ	-4653
▁micro	-4654
▁ninet	-4655
▁optim	-4656
▁posed	-4657
▁ratio	-4658
▁separ	-4659
▁tried	-4660
aration	-4661
illegal	-4662
ruption	-4663
uilding	-4664
▁Beyond	-4665
▁Jewish	-4666
▁Policy	-4667
▁Reagan	-4668
▁Serbia	-4669
▁Summit	-4670
▁UNESCO	-4671
▁assume	-4672
▁attrib	-4673
▁buying	-4674
▁calcul	-4675
▁closed	-4676
▁closer	-4677
▁emerge	-4678
▁fallen	-4679
▁famous	-4680
▁hardly	-4681
▁impose	-4682
▁linked	-4683
▁mainly	-4684
▁mandar	-4685
▁marked	-4686
▁memory	-4687
▁multip	-4688
▁notion	-4689
▁rating	-4690
▁refuge	-4691
▁remitt	-4692
▁retain	-4693
▁search	-4694
▁select	-4695
▁stress	-4696
▁superv	-4697
▁warned	-4698
veraging	-4699
▁Eastern	-4700
▁Lebanon	-4701
▁Muslims	-4702
▁Senegal	-4703
▁causing	-4704
▁driving	-4705
▁falling	-4706
▁feature	-4707
▁figures	-4708
▁incomes	-4709
▁mistake	-4710
▁notably	-4711
▁numbers	-4712
▁pushing	-4713
▁realize	-4714
▁traject	-4715
intensive	-4716
▁February	-4717
▁Hamilton	-4718
▁Portugal	-4719
▁Tanzania	-4720
▁affected	-4721
▁allowing	-4722
▁annivers	-4723
▁believed	-4724
▁controls	-4725
▁forecast	-4726
▁includes	-4727
▁informal	-4728
▁phenomen	-4729
▁properly	-4730
▁rhetoric	-4731
▁severely	-4732
▁slowdown	-4733
▁supplies	-4734
▁weakness	-4735
▁Committee	-4736
▁coalition	-4737
▁convinced	-4738
▁cooperate	-4739
▁excessive	-4740
▁expensive	-4741
▁expertise	-4742
▁incentive	-4743
▁materials	-4744
▁ministers	-4745
▁permanent	-4746
▁principle	-4747
▁processes	-4748
▁transfers	-4749
▁Industrial	-4750
▁accelerate	-4751
▁capitalism	-4752
▁commercial	-4753
▁encouraged	-4754
▁frequently	-4755
▁inadequate	-4756
▁nineteenth	-4757
▁operations	-4758
▁priorities	-4759
▁proportion	-4760
▁resistance	-4761
▁unilateral	-4762
▁devastating	-4763
▁essentially	-4764
▁potentially	-4765
▁prohibition	-4766
▁threatening	-4767
▁Palestinians	-4768
▁contribution	-4769
▁professional	-4770
▁collaboration	-4771
▁establishment	-4772
▁constitutional	-4773
Ch	-4774
EM	-4775
hi	-4776
ka	-4777
la	-4778
aiw	-4779
cap	-4780
gen	-4781
imm	-4782
ios	-4783
let	-4784
mat	-4785
nty	-4786
occ	-4787
osn	-4788
pin	-4789
ugg	-4790
uns	-4791
zai	-4792
▁12	-4793
▁13	-4794
▁2%	-4795
▁3.	-4796
▁li	-4797
aily	-4798
ault	-4799
dden	-4800
eter	-4801
mony	-4802
ocks	-4803
oyal	-4804
pass	-4805
priv	-4806
reci	-4807
resh	-4808
room	-4809
semb	-4810
sent	-4811
size	-4812
stit	-4813
▁100	-4814
▁60%	-4815
▁Ale	-4816
▁Cam	-4817
▁Col	-4818
▁Spe	-4819
▁awa	-4820
▁dau	-4821
▁doz	-4822
▁ice	-4823
▁pen	-4824
▁sac	-4825
▁squ	-4826
▁wed	-4827
aiwan	-4828
alian	-4829
anish	-4830
antly	-4831
aucas	-4832
being	-4833
equal	-4834
erved	-4835
ether	-4836
ignty	-4837
lfare	-4838
party	-4839
ugust	-4840
ulate	-4841
using	-4842
which	-4843
▁2004	-4844
▁2020	-4845
▁AIIB	-4846
▁Balk	-4847
▁Bang	-4848
▁Gaza	-4849
▁Swed	-4850
▁base	-4851
▁cere	-4852
▁chem	-4853
▁exce	-4854
▁firm	-4855
▁foot	-4856
▁fost	-4857
▁gave	-4858
▁gone	-4859
▁hege	-4860
▁hero	-4861
▁insu	-4862
▁iron	-4863
▁mere	-4864
▁rout	-4865
▁scar	-4866
▁sell	-4867
▁wish	-4868
▁wond	-4869
ampion	-4870
atever	-4871
ervers	-4872
gation	-4873
iation	-4874
iction	-4875
minent	-4876
resent	-4877
▁2001,	-4878
▁Crime	-4879
▁Earth	-4880
▁Franc	-4881
▁Haiti	-4882
▁Royal	-4883
▁Sunni	-4884
▁aband	-4885
▁adapt	-4886
▁anger	-4887
▁asked	-4888
▁blame	-4889
▁cease	-4890
▁delib	-4891
▁drugs	-4892
▁femin	-4893
▁hours	-4894
▁leads	-4895
▁looks	-4896
▁recru	-4897
▁seeds	-4898
▁skept	-4899
▁unity	-4900
▁utter	-4901
▁waste	-4902
▁write	-4903
finance	-4904
rencies	-4905
▁Amazon	-4906
▁Arabia	-4907
▁Karzai	-4908
▁People	-4909
▁Taiwan	-4910
▁aggreg	-4911
▁allows	-4912
▁basket	-4913
▁broken	-4914
▁chains	-4915
▁combat	-4916
▁costly	-4917
▁defend	-4918
▁depart	-4919
▁desire	-4920
▁divide	-4921
▁empire	-4922
▁estate	-4923
▁extend	-4924
▁legacy	-4925
▁method	-4926
▁option	-4927
▁places	-4928
▁preced	-4929
▁slight	-4930
▁surely	-4931
▁undert	-4932
▁urgent	-4933
ffective	-4934
▁Further	-4935
▁Italian	-4936
▁Program	-4937
▁Somalia	-4938
▁assumed	-4939
▁autonom	-4940
▁benefic	-4941
▁centers	-4942
▁disprop	-4943
▁divided	-4944
▁doctors	-4945
▁elderly	-4946
▁elected	-4947
▁fastest	-4948
▁liberty	-4949
▁mention	-4950
▁pension	-4951
▁pointed	-4952
▁threats	-4953
▁welfare	-4954
▁whereas	-4955
▁absolute	-4956
▁accounts	-4957
▁accurate	-4958
▁apparent	-4959
▁computer	-4960
▁decisive	-4961
▁delivery	-4962
▁enabling	-4963
▁examples	-4964
▁hundreds	-4965
▁mobilize	-4966
▁momentum	-4967
▁original	-4968
▁populist	-4969
▁presence	-4970
▁sacrific	-4971
▁shifting	-4972
▁somewhat	-4973
▁starting	-4974
▁surgical	-4975
▁surprise	-4976
▁survival	-4977
▁teachers	-4978
▁urgently	-4979
▁accounted	-4980
▁activists	-4981
▁demanding	-4982
▁diplomacy	-4983
▁expressed	-4984
▁extremely	-4985
▁mandarins	-4986
▁observers	-4987
▁opponents	-4988
▁purchases	-4989
▁reformers	-4990
▁resilient	-4991
▁seriously	-4992
▁currencies	-4993
▁determined	-4994
▁efficiency	-4995
▁equivalent	-4996
▁generating	-4997
▁maintained	-4998
▁reductions	-4999
▁referendum	-5000
▁volatility	-5001
▁constrained	-5002
▁regulations	-5003
▁availability	-5004
▁policymaking	-5005
▁requirements	-5006
▁temperatures	-5007
▁disproportion	-5008
▁relationships	-5009
▁understanding	-5010
▁transportation	-5011
11	-5012
5%	-5013
7.	-5014
70	-5015
9%	-5016
EO	-5017
bt	-5018
gu	-5019
ux	-5020
GDP	-5021
cif	-5022
cks	-5023
ipe	-5024
nel	-5025
oly	-5026
ook	-5027
ugh	-5028
ums	-5029
▁40	-5030
▁CO	-5031
▁Pr	-5032
▁ST	-5033
aded	-5034
alle	-5035
bedo	-5036
efli	-5037
gent	-5038
iers	-5039
ifth	-5040
ingu	-5041
lish	-5042
olas	-5043
port	-5044
time	-5045
unis	-5046
uous	-5047
▁40%	-5048
▁Aff	-5049
▁Dav	-5050
▁Edu	-5051
▁Mad	-5052
▁Man	-5053
▁Nak	-5054
▁Naz	-5055
▁Rom	-5056
▁She	-5057
▁anx	-5058
▁der	-5059
▁eru	-5060
▁fil	-5061
▁got	-5062
▁pla	-5063
▁shr	-5064
▁sun	-5065
▁unf	-5066
▁wid	-5067
acted	-5068
ading	-5069
ecess	-5070
endit	-5071
eting	-5072
etric	-5073
lines	-5074
oning	-5075
orrow	-5076
rable	-5077
right	-5078
uable	-5079
▁Bosn	-5080
▁Bout	-5081
▁Deal	-5082
▁Nove	-5083
▁Once	-5084
▁Plan	-5085
▁Will	-5086
▁aims	-5087
▁exam	-5088
▁exer	-5089
▁here	-5090
▁orth	-5091
▁pace	-5092
▁prem	-5093
▁rose	-5094
▁says	-5095
▁susp	-5096
▁type	-5097
00,000	-5098
accept	-5099
ailing	-5100
arctic	-5101
contro	-5102
eflika	-5103
ervice	-5104
establ	-5105
govern	-5106
holder	-5107
iances	-5108
ietnam	-5109
inding	-5110
ispens	-5111
lihood	-5112
oubted	-5113
sembly	-5114
▁2011,	-5115
▁2012,	-5116
▁2015,	-5117
▁Count	-5118
▁Every	-5119
▁Forum	-5120
▁Hamas	-5121
▁Niger	-5122
▁Tunis	-5123
▁Women	-5124
▁abund	-5125
▁alarm	-5126
▁apply	-5127
▁artic	-5128
▁aside	-5129
▁bombs	-5130
▁books	-5131
▁compe	-5132
▁daily	-5133
▁democ	-5134
▁enjoy	-5135
▁forth	-5136
▁gases	-5137
▁heard	-5138
▁ideal	-5139
▁manip	-5140
▁merit	-5141
▁moved	-5142
▁overs	-5143
▁patri	-5144
▁quite	-5145
▁refer	-5146
▁remov	-5147
▁shock	-5148
▁smart	-5149
▁speed	-5150
▁tempt	-5151
▁tough	-5152
▁truly	-5153
▁turns	-5154
aucasus	-5155
cession	-5156
growing	-5157
ogether	-5158
private	-5159
▁Across	-5160
▁Agenda	-5161
▁August	-5162
▁Brexit	-5163
▁Rights	-5164
▁Senate	-5165
▁Social	-5166
▁acting	-5167
▁adding	-5168
▁choose	-5169
▁conven	-5170
▁crimes	-5171
▁desper	-5172
▁disarm	-5173
▁easing	-5174
▁friend	-5175
▁gather	-5176
▁geopol	-5177
▁infect	-5178
▁insist	-5179
▁mostly	-5180
▁mother	-5181
▁prefer	-5182
▁rarely	-5183
▁resort	-5184
▁retire	-5185
▁served	-5186
▁slowly	-5187
▁sudden	-5188
▁summer	-5189
▁unders	-5190
▁yields	-5191
European	-5192
iciently	-5193
iliation	-5194
irmative	-5195
▁Spanish	-5196
▁Twitter	-5197
▁adverse	-5198
▁choices	-5199
▁concent	-5200
▁cutting	-5201
▁dispute	-5202
▁embrace	-5203
▁expense	-5204
▁illegal	-5205
▁imposed	-5206
▁inflows	-5207
▁keeping	-5208
▁lasting	-5209
▁looking	-5210
▁malaria	-5211
▁mandate	-5212
▁network	-5213
▁payment	-5214
▁players	-5215
▁playing	-5216
▁profits	-5217
▁refused	-5218
▁restore	-5219
▁reverse	-5220
▁routine	-5221
▁selling	-5222
▁towards	-5223
▁village	-5224
diagnosis	-5225
ibilities	-5226
▁Caucasus	-5227
▁November	-5228
▁annually	-5229
▁anything	-5230
▁approved	-5231
▁audience	-5232
▁balanced	-5233
▁champion	-5234
▁contract	-5235
▁dialogue	-5236
▁disputes	-5237
▁expendit	-5238
▁identity	-5239
▁included	-5240
▁invested	-5241
▁meetings	-5242
▁networks	-5243
▁northern	-5244
▁opposite	-5245
▁orthodox	-5246
▁payments	-5247
▁possibly	-5248
▁practice	-5249
▁pursuing	-5250
▁revealed	-5251
▁slightly	-5252
▁taxation	-5253
▁valuable	-5254
ispensable	-5255
▁Antarctic	-5256
▁Australia	-5257
▁Christian	-5258
▁acknowled	-5259
▁diagnosis	-5260
▁discovery	-5261
▁generally	-5262
▁liquidity	-5263
▁mortgages	-5264
▁overwhelm	-5265
▁predecess	-5266
▁professor	-5267
▁providers	-5268
▁reinforce	-5269
▁secondary	-5270
▁unwilling	-5271
▁virtually	-5272
▁Bouteflika	-5273
▁assessment	-5274
▁background	-5275
▁candidates	-5276
▁concerning	-5277
▁deterrence	-5278
▁disappoint	-5279
▁discussion	-5280
▁facilitate	-5281
▁facilities	-5282
▁fertilizer	-5283
▁innovators	-5284
▁legitimate	-5285
▁negotiated	-5286
▁processing	-5287
▁regardless	-5288
▁resilience	-5289
▁surprising	-5290
▁withdrawal	-5291
▁coordinated	-5292
▁democracies	-5293
▁demonstrate	-5294
▁encouraging	-5295
▁importantly	-5296
▁improvement	-5297
▁instability	-5298
▁perspective	-5299
▁populations	-5300
▁remittances	-5301
▁sovereignty	-5302
▁undermining	-5303
▁compensation	-5304
▁conventional	-5305
▁improvements	-5306
▁insufficient	-5307
▁modification	-5308
▁strengthened	-5309
▁macroeconomic	-5310
▁recommendations	-5311
9,	-5312
AD	-5313
AG	-5314
DR	-5315
IS	-5316
NP	-5317
af	-5318
ky	-5319
na	-5320
aws	-5321
dri	-5322
erg	-5323
hic	-5324
oes	-5325
run	-5326
see	-5327
son	-5328
uty	-5329
yan	-5330
▁1%	-5331
▁3%	-5332
▁Mu	-5333
▁Os	-5334
▁dr	-5335
abwe	-5336
alin	-5337
ccer	-5338
hand	-5339
isan	-5340
llor	-5341
need	-5342
olly	-5343
phic	-5344
sych	-5345
ulum	-5346
umst	-5347
vent	-5348
view	-5349
▁CEO	-5350
▁Car	-5351
▁Cup	-5352
▁Far	-5353
▁Mer	-5354
▁Mor	-5355
▁Pri	-5356
▁Sin	-5357
▁Sud	-5358
▁Ter	-5359
▁bol	-5360
▁fel	-5361
▁gri	-5362
▁hor	-5363
▁lob	-5364
▁mit	-5365
▁sus	-5366
▁tom	-5367
▁tur	-5368
▁twe	-5369
added	-5370
ashed	-5371
asone	-5372
ffick	-5373
ghter	-5374
hetic	-5375
ician	-5376
icism	-5377
ifies	-5378
ijing	-5379
inded	-5380
ipped	-5381
lades	-5382
onent	-5383
oples	-5384
urers	-5385
▁Educ	-5386
▁Grow	-5387
▁Jews	-5388
▁agro	-5389
▁alle	-5390
▁arch	-5391
▁aver	-5392
▁bill	-5393
▁born	-5394
▁dark	-5395
▁drop	-5396
▁emot	-5397
▁melt	-5398
▁ones	-5399
▁pact	-5400
▁phil	-5401
▁rail	-5402
▁shut	-5403
▁sort	-5404
▁spir	-5405
▁subs	-5406
▁tell	-5407
▁warm	-5408
Africa	-5409
angers	-5410
arters	-5411
elling	-5412
icated	-5413
icious	-5414
isions	-5415
reness	-5416
rition	-5417
ultane	-5418
▁2007,	-5419
▁Ababa	-5420
▁Addis	-5421
▁Basel	-5422
▁Polit	-5423
▁Third	-5424
▁added	-5425
▁alike	-5426
▁aspir	-5427
▁check	-5428
▁cover	-5429
▁crime	-5430
▁erupt	-5431
▁exact	-5432
▁guide	-5433
▁inher	-5434
▁input	-5435
▁intra	-5436
▁knows	-5437
▁links	-5438
▁lived	-5439
▁medic	-5440
▁monet	-5441
▁overh	-5442
▁plant	-5443
▁scand	-5444
▁schem	-5445
▁scope	-5446
▁seeks	-5447
▁seize	-5448
▁table	-5449
▁weeks	-5450
imbabwe	-5451
lements	-5452
reaking	-5453
ressing	-5454
▁Angola	-5455
▁Center	-5456
▁Crimea	-5457
▁Poland	-5458
▁Swaraj	-5459
▁Sweden	-5460
▁UNAIDS	-5461
▁absent	-5462
▁advert	-5463
▁albedo	-5464
▁appeal	-5465
▁aspect	-5466
▁assist	-5467
▁brutal	-5468
▁bubble	-5469
▁charge	-5470
▁conver	-5471
▁deploy	-5472
▁except	-5473
▁fourth	-5474
▁fueled	-5475
▁harder	-5476
▁obtain	-5477
▁opened	-5478
▁panels	-5479
▁profit	-5480
▁resent	-5481
▁saying	-5482
▁senior	-5483
▁sexual	-5484
▁soccer	-5485
▁taught	-5486
▁taxpay	-5487
▁volunt	-5488
▁wanted	-5489
▁weight	-5490
atlantic	-5491
oubtedly	-5492
▁English	-5493
▁Nuclear	-5494
▁applied	-5495
▁artific	-5496
▁budgets	-5497
▁charged	-5498
▁cleaner	-5499
▁comfort	-5500
▁compris	-5501
▁consist	-5502
▁destroy	-5503
▁exploit	-5504
▁greatly	-5505
▁harvest	-5506
▁impover	-5507
▁linking	-5508
▁machine	-5509
▁mission	-5510
▁ongoing	-5511
▁operate	-5512
▁opposed	-5513
▁package	-5514
▁peoples	-5515
▁persist	-5516
▁proceed	-5517
▁regimes	-5518
▁renewed	-5519
▁setting	-5520
▁smaller	-5521
▁streets	-5522
▁subsequ	-5523
▁survive	-5524
▁trigger	-5525
▁unequal	-5526
▁version	-5527
▁visible	-5528
connected	-5529
▁Agricult	-5530
▁Business	-5531
▁Nakasone	-5532
▁approval	-5533
▁autonomy	-5534
▁circumst	-5535
▁colonial	-5536
▁financed	-5537
▁findings	-5538
▁globally	-5539
▁historic	-5540
▁humanity	-5541
▁identify	-5542
▁involves	-5543
▁managing	-5544
▁multiple	-5545
▁numerous	-5546
▁outbreak	-5547
▁patterns	-5548
▁platform	-5549
▁pressing	-5550
▁proposal	-5551
▁purchase	-5552
▁rational	-5553
▁software	-5554
▁standing	-5555
▁threaten	-5556
▁Banglades	-5557
▁aggregate	-5558
▁catastrop	-5559
▁customers	-5560
▁economist	-5561
▁equipment	-5562
▁explained	-5563
▁favorable	-5564
▁inclusion	-5565
▁isolation	-5566
▁mechanism	-5567
▁mortality	-5568
▁orthodoxy	-5569
▁ourselves	-5570
▁primarily	-5571
▁producing	-5572
▁regarding	-5573
▁similarly	-5574
▁statement	-5575
▁threatens	-5576
▁translate	-5577
▁Depression	-5578
▁Parliament	-5579
▁Revolution	-5580
▁beneficial	-5581
▁commission	-5582
▁compensate	-5583
▁components	-5584
▁controvers	-5585
▁extraordin	-5586
▁fragmented	-5587
▁impressive	-5588
▁interested	-5589
▁mainstream	-5590
▁membership	-5591
▁objectives	-5592
▁reflecting	-5593
▁supporting	-5594
▁trajectory	-5595
▁unemployed	-5596
▁Furthermore	-5597
▁Nonetheless	-5598
▁anniversary	-5599
▁commissions	-5600
▁frustration	-5601
▁immediately	-5602
▁possibility	-5603
▁willingness	-5604
▁coordination	-5605
▁demonstrated	-5606
▁impoverished	-5607
▁authoritarian	-5608
▁contributions	-5609
▁effectiveness	-5610
▁unsustainable	-5611
▁implementation	-5612
-3	-5613
6.	-5614
60	-5615
9.	-5616
CE	-5617
IT	-5618
OS	-5619
US	-5620
The	-5621
alt	-5622
bas	-5623
dec	-5624
eda	-5625
hab	-5626
hag	-5627
itz	-5628
mar	-5629
oad	-5630
olf	-5631
tax	-5632
uck	-5633
uct	-5634
uit	-5635
ume	-5636
ymm	-5637
▁14	-5638
▁Me	-5639
▁ey	-5640
adow	-5641
cogn	-5642
coni	-5643
debt	-5644
empl	-5645
enry	-5646
face	-5647
free	-5648
iece	-5649
ihad	-5650
irac	-5651
mans	-5652
mbol	-5653
nedy	-5654
offs	-5655
otic	-5656
ourt	-5657
ques	-5658
real	-5659
resp	-5660
righ	-5661
rish	-5662
well	-5663
xide	-5664
zech	-5665
▁$10	-5666
▁Ban	-5667
▁Bet	-5668
▁Big	-5669
▁Cyp	-5670
▁Her	-5671
▁Hol	-5672
▁Let	-5673
▁Nic	-5674
▁Red	-5675
▁Sup	-5676
▁Two	-5677
▁bon	-5678
▁bra	-5679
▁cop	-5680
▁ded	-5681
▁fan	-5682
▁gay	-5683
▁hot	-5684
▁mur	-5685
▁pet	-5686
▁quo	-5687
▁raw	-5688
▁sat	-5689
▁swe	-5690
China	-5691
abled	-5692
acing	-5693
agues	-5694
asing	-5695
asive	-5696
elect	-5697
enses	-5698
ernal	-5699
hemat	-5700
itect	-5701
licit	-5702
ocent	-5703
opoly	-5704
ounce	-5705
ourse	-5706
vered	-5707
▁1960	-5708
▁1980	-5709
▁2011	-5710
▁2018	-5711
▁Clos	-5712
▁Cont	-5713
▁Farm	-5714
▁Free	-5715
▁Gulf	-5716
▁STEM	-5717
▁ball	-5718
▁cate	-5719
▁cogn	-5720
▁didn	-5721
▁fate	-5722
▁flex	-5723
▁fulf	-5724
▁gold	-5725
▁hike	-5726
▁hurt	-5727
▁irri	-5728
▁nets	-5729
▁pipe	-5730
▁pose	-5731
▁room	-5732
▁root	-5733
▁sole	-5734
▁symp	-5735
▁tact	-5736
▁text	-5737
▁tool	-5738
▁trem	-5739
▁unus	-5740
ceived	-5741
depend	-5742
driven	-5743
ection	-5744
eville	-5745
irical	-5746
ivered	-5747
lessly	-5748
minded	-5749
needed	-5750
ounded	-5751
urally	-5752
▁2002,	-5753
▁2008,	-5754
▁2017,	-5755
▁2017.	-5756
▁2050,	-5757
▁Czech	-5758
▁Never	-5759
▁Sudan	-5760
▁White	-5761
▁Youth	-5762
▁abuse	-5763
▁align	-5764
▁altru	-5765
▁armed	-5766
▁asymm	-5767
▁bolst	-5768
▁drawn	-5769
▁embod	-5770
▁fails	-5771
▁foods	-5772
▁fresh	-5773
▁gives	-5774
▁helps	-5775
▁marri	-5776
▁minds	-5777
▁norms	-5778
▁polls	-5779
▁ready	-5780
▁repay	-5781
▁risky	-5782
▁south	-5783
▁spill	-5784
▁stall	-5785
▁twice	-5786
▁vehic	-5787
develop	-5788
dumping	-5789
erately	-5790
overing	-5791
parents	-5792
rategic	-5793
termine	-5794
theless	-5795
▁Chance	-5796
▁Depart	-5797
▁Master	-5798
▁Recent	-5799
▁Terror	-5800
▁absorb	-5801
▁advice	-5802
▁assert	-5803
▁brings	-5804
▁equity	-5805
▁escape	-5806
▁illust	-5807
▁injust	-5808
▁insurg	-5809
▁killed	-5810
▁leaves	-5811
▁missed	-5812
▁modest	-5813
▁namely	-5814
▁openly	-5815
▁oppose	-5816
▁plenty	-5817
▁poison	-5818
▁poorer	-5819
▁scarce	-5820
▁sheets	-5821
▁viable	-5822
▁wonder	-5823
function	-5824
lessness	-5825
specific	-5826
▁Affairs	-5827
▁Beijing	-5828
▁Kennedy	-5829
▁Project	-5830
▁Whether	-5831
▁abandon	-5832
▁amounts	-5833
▁broadly	-5834
▁collaps	-5835
▁consult	-5836
▁decreas	-5837
▁element	-5838
▁enemies	-5839
▁enhance	-5840
▁ignored	-5841
▁intense	-5842
▁lenders	-5843
▁managed	-5844
▁possess	-5845
▁prepare	-5846
▁ratings	-5847
▁shaping	-5848
▁sharply	-5849
▁student	-5850
▁talking	-5851
▁tourism	-5852
▁trained	-5853
▁written	-5854
establish	-5855
▁Islamist	-5856
▁admitted	-5857
▁advances	-5858
▁boosting	-5859
▁convince	-5860
▁declined	-5861
▁distinct	-5862
▁entering	-5863
▁epidemic	-5864
▁extended	-5865
▁focusing	-5866
▁generous	-5867
▁informed	-5868
▁inherent	-5869
▁interven	-5870
▁limiting	-5871
▁lowering	-5872
▁managers	-5873
▁maximize	-5874
▁populism	-5875
▁publicly	-5876
▁realized	-5877
▁religion	-5878
▁shortage	-5879
▁steadily	-5880
▁tackling	-5881
▁targeted	-5882
▁tendency	-5883
▁tensions	-5884
▁tomorrow	-5885
▁traffick	-5886
▁unaccept	-5887
productive	-5888
▁Institute	-5889
▁alliances	-5890
▁architect	-5891
▁attitudes	-5892
▁awareness	-5893
▁ceasefire	-5894
▁centuries	-5895
▁concerned	-5896
▁concerted	-5897
▁delivered	-5898
▁described	-5899
▁determine	-5900
▁disappear	-5901
▁diversity	-5902
▁emergency	-5903
▁employees	-5904
▁fundament	-5905
▁hospitals	-5906
▁involving	-5907
▁landscape	-5908
▁lawmakers	-5909
▁motivated	-5910
▁obstacles	-5911
▁operating	-5912
▁positions	-5913
▁prevailed	-5914
▁prominent	-5915
▁provision	-5916
▁renewable	-5917
▁responses	-5918
▁simultane	-5919
▁taxpayers	-5920
▁territory	-5921
forestation	-5922
▁Convention	-5923
▁accounting	-5924
▁affordable	-5925
▁bureaucrat	-5926
▁consistent	-5927
▁criticized	-5928
▁dependence	-5929
▁depression	-5930
▁frameworks	-5931
▁liberation	-5932
▁perception	-5933
▁presidents	-5934
▁preventing	-5935
▁regulators	-5936
▁repression	-5937
▁resolution	-5938
▁sanitation	-5939
governmental	-5940
▁accordingly	-5941
▁accountable	-5942
▁catastrophe	-5943
▁centralized	-5944
▁contributed	-5945
▁disarmament	-5946
▁ideological	-5947
▁institution	-5948
▁nationalist	-5949
▁negotiating	-5950
▁neighboring	-5951
▁participate	-5952
▁temperature	-5953
▁undoubtedly	-5954
▁alternatives	-5955
▁constitution	-5956
▁grandparents	-5957
▁implementing	-5958
▁implications	-5959
▁restrictions	-5960
▁circumstances	-5961
▁communication	-5962
▁extraordinary	-5963
▁professionals	-5964
▁strengthening	-5965
▁vulnerability	-5966
..	-5967
25	-5968
4.	-5969
DA	-5970
ET	-5971
HI	-5972
HO	-5973
We	-5974
ps	-5975
va	-5976
vo	-5977
zb	-5978
aby	-5979
ala	-5980
ami	-5981
bod	-5982
dro	-5983
eff	-5984
emb	-5985
ham	-5986
ift	-5987
ilk	-5988
isf	-5989
lad	-5990
ley	-5991
now	-5992
ped	-5993
rog	-5994
rud	-5995
sey	-5996
sts	-5997
vis	-5998
xic	-5999
▁6%	-6000
▁El	-6001
▁Em	-6002
▁Gu	-6003
▁IT	-6004
▁PR	-6005
▁Sc	-6006
▁od	-6007
aden	-6008
aeda	-6009
amin	-6010
band	-6011
born	-6012
fare	-6013
gery	-6014
hery	-6015
hips	-6016
iest	-6017
imir	-6018
itor	-6019
long	-6020
lude	-6021
made	-6022
ocol	-6023
ocqu	-6024
oles	-6025
open	-6026
ords	-6027
pora	-6028
pple	-6029
rans	-6030
reme	-6031
urch	-6032
▁$40	-6033
▁ACA	-6034
▁Arm	-6035
▁CAP	-6036
▁Day	-6037
▁Dec	-6038
▁Dis	-6039
▁Equ	-6040
▁Ice	-6041
▁Imm	-6042
▁Kyi	-6043
▁Lar	-6044
▁Mod	-6045
▁Off	-6046
▁SDR	-6047
▁Suu	-6048
▁Tam	-6049
▁You	-6050
▁ang	-6051
▁bea	-6052
▁bid	-6053
▁bur	-6054
▁fru	-6055
▁inj	-6056
▁los	-6057
▁lux	-6058
▁mus	-6059
▁rid	-6060
▁tim	-6061
▁upd	-6062
▁upg	-6063
adays	-6064
aired	-6065
archy	-6066
arely	-6067
eless	-6068
enced	-6069
icate	-6070
idden	-6071
iling	-6072
itude	-6073
liers	-6074
ollah	-6075
ophob	-6076
orted	-6077
ounds	-6078
prime	-6079
ronts	-6080
style	-6081
ungry	-6082
unity	-6083
uting	-6084
▁$100	-6085
▁1970	-6086
▁2002	-6087
▁Food	-6088
▁Hezb	-6089
▁Hill	-6090
▁Iron	-6091
▁Lead	-6092
▁Much	-6093
▁Road	-6094
▁Rudd	-6095
▁Sein	-6096
▁Wall	-6097
▁Wang	-6098
▁ampl	-6099
▁bail	-6100
▁cart	-6101
▁code	-6102
▁curb	-6103
▁date	-6104
▁died	-6105
▁drag	-6106
▁earn	-6107
▁ease	-6108
▁erad	-6109
▁grav	-6110
▁hear	-6111
▁kept	-6112
▁none	-6113
▁pick	-6114
▁prag	-6115
▁quot	-6116
▁reap	-6117
▁roof	-6118
▁runs	-6119
▁sets	-6120
▁stif	-6121
▁sums	-6122
▁wage	-6123
▁wake	-6124
aspora	-6125
endous	-6126
energy	-6127
estern	-6128
growth	-6129
igrant	-6130
ioxide	-6131
itably	-6132
orious	-6133
pected	-6134
redict	-6135
rights	-6136
thirds	-6137
uggish	-6138
urance	-6139
ureate	-6140
▁1980’	-6141
▁2004,	-6142
▁2015.	-6143
▁2016,	-6144
▁2030,	-6145
▁Abbas	-6146
▁Again	-6147
▁Chair	-6148
▁Court	-6149
▁Impro	-6150
▁Thein	-6151
▁Tocqu	-6152
▁Worse	-6153
▁categ	-6154
▁chair	-6155
▁coast	-6156
▁holds	-6157
▁logic	-6158
▁multi	-6159
▁perip	-6160
▁psych	-6161
▁ruled	-6162
▁simpl	-6163
▁staff	-6164
▁teach	-6165
▁troub	-6166
▁wider	-6167
General	-6168
gentina	-6169
ladimir	-6170
lihoods	-6171
lusconi	-6172
ortions	-6173
raction	-6174
ultural	-6175
▁Chirac	-6176
▁Korean	-6177
▁Morocc	-6178
▁Nether	-6179
▁Public	-6180
▁Rather	-6181
▁School	-6182
▁applic	-6183
▁attend	-6184
▁cataly	-6185
▁consid	-6186
▁decide	-6187
▁define	-6188
▁denied	-6189
▁disast	-6190
▁ending	-6191
▁excell	-6192
▁fixing	-6193
▁floods	-6194
▁forget	-6195
▁houses	-6196
▁issued	-6197
▁losing	-6198
▁multin	-6199
▁paying	-6200
▁raises	-6201
▁relief	-6202
▁relies	-6203
▁rescue	-6204
▁specul	-6205
▁spring	-6206
▁symbol	-6207
▁tackle	-6208
▁underw	-6209
▁unions	-6210
▁uphold	-6211
▁upward	-6212
▁voices	-6213
▁voting	-6214
▁waters	-6215
▁weaker	-6216
cription	-6217
national	-6218
▁Capital	-6219
▁Constit	-6220
▁Environ	-6221
▁Germans	-6222
▁Indians	-6223
▁Nicolas	-6224
▁Tunisia	-6225
▁calling	-6226
▁cheaper	-6227
▁declare	-6228
▁ethical	-6229
▁exposed	-6230
▁focuses	-6231
▁fragile	-6232
▁imagine	-6233
▁joining	-6234
▁mindset	-6235
▁minimum	-6236
▁neglect	-6237
▁partial	-6238
▁pledged	-6239
▁pursuit	-6240
▁secular	-6241
▁someone	-6242
▁spectac	-6243
▁statist	-6244
▁treated	-6245
▁unknown	-6246
▁violent	-6247
▁wealthy	-6248
▁worried	-6249
Americans	-6250
▁Medicaid	-6251
▁accepted	-6252
▁accompan	-6253
▁actively	-6254
▁chemical	-6255
▁coherent	-6256
▁dominate	-6257
▁elements	-6258
▁enduring	-6259
▁exercise	-6260
▁explicit	-6261
▁failures	-6262
▁feminism	-6263
▁flooding	-6264
▁imperial	-6265
▁innocent	-6266
▁laureate	-6267
▁leverage	-6268
▁literacy	-6269
▁memories	-6270
▁mitigate	-6271
▁mobility	-6272
▁moderate	-6273
▁monopoly	-6274
▁released	-6275
▁returned	-6276
▁sluggish	-6277
▁teaching	-6278
▁underest	-6279
▁underpin	-6280
▁Argentina	-6281
▁Countries	-6282
▁Education	-6283
▁Hezbollah	-6284
▁Represent	-6285
▁affecting	-6286
▁civilians	-6287
▁cognitive	-6288
▁concluded	-6289
▁construct	-6290
▁depressed	-6291
▁diagnosed	-6292
▁diversify	-6293
▁dividends	-6294
▁emphasize	-6295
▁empirical	-6296
▁exclusive	-6297
▁expanding	-6298
▁exporters	-6299
▁guarantee	-6300
▁healthier	-6301
▁initially	-6302
▁integrate	-6303
▁interpret	-6304
▁oversight	-6305
▁populists	-6306
▁practical	-6307
▁processed	-6308
▁projected	-6309
▁reflected	-6310
▁sentiment	-6311
▁stabilize	-6312
▁succeeded	-6313
▁Bangladesh	-6314
▁Berlusconi	-6315
▁artificial	-6316
▁asymmetric	-6317
▁colleagues	-6318
▁curriculum	-6319
▁delivering	-6320
▁disruption	-6321
▁exacerbate	-6322
▁executives	-6323
▁extremists	-6324
▁identified	-6325
▁indicators	-6326
▁irrigation	-6327
▁meaningful	-6328
▁phenomenon	-6329
▁stagnation	-6330
▁telecommun	-6331
▁tremendous	-6332
▁undermined	-6333
▁violations	-6334
▁Netherlands	-6335
▁Tocqueville	-6336
▁affirmative	-6337
▁combination	-6338
▁destructive	-6339
▁enterprises	-6340
▁liabilities	-6341
▁livelihoods	-6342
▁nationalism	-6343
▁territorial	-6344
▁historically	-6345
▁independence	-6346
▁sufficiently	-6347
▁breakthroughs	-6348
▁characterized	-6349
▁collaborative	-6350
▁determination	-6351
▁indispensable	-6352
▁multinational	-6353
▁proliferation	-6354
▁administrative	-6355
▁representation	-6356
80	-6357
EP	-6358
Sh	-6359
Th	-6360
UN	-6361
ey	-6362
iu	-6363
sm	-6364
zh	-6365
abe	-6366
ads	-6367
alf	-6368
ali	-6369
arn	-6370
bur	-6371
cla	-6372
del	-6373
ein	-6374
gia	-6375
hev	-6376
ife	-6377
kel	-6378
map	-6379
mpt	-6380
ocu	-6381
ori	-6382
rif	-6383
rue	-6384
sch	-6385
▁$8	-6386
▁16	-6387
▁5.	-6388
▁Us	-6389
adly	-6390
alog	-6391
aper	-6392
athy	-6393
awed	-6394
card	-6395
eled	-6396
emia	-6397
enom	-6398
eron	-6399
etic	-6400
feld	-6401
igor	-6402
ikes	-6403
iled	-6404
ilty	-6405
inst	-6406
kish	-6407
lict	-6408
math	-6409
moil	-6410
ocal	-6411
oked	-6412
pril	-6413
rase	-6414
rete	-6415
rown	-6416
ruck	-6417
uber	-6418
ught	-6419
ults	-6420
unch	-6421
wood	-6422
▁$20	-6423
▁11,	-6424
▁20%	-6425
▁25%	-6426
▁BER	-6427
▁Ben	-6428
▁Bro	-6429
▁Cal	-6430
▁Cle	-6431
▁Cur	-6432
▁Def	-6433
▁Don	-6434
▁ICT	-6435
▁Inc	-6436
▁Job	-6437
▁Liu	-6438
▁Mat	-6439
▁Out	-6440
▁Reg	-6441
▁Rel	-6442
▁San	-6443
▁Sci	-6444
▁Too	-6445
▁Who	-6446
▁Yes	-6447
▁ben	-6448
▁bes	-6449
▁cab	-6450
▁die	-6451
▁dys	-6452
▁fal	-6453
▁hub	-6454
▁lag	-6455
▁mel	-6456
▁nav	-6457
▁saw	-6458
▁unb	-6459
ADRID	-6460
Japan	-6461
agger	-6462
cores	-6463
ected	-6464
ested	-6465
ifest	-6466
lande	-6467
mptom	-6468
okest	-6469
olera	-6470
orpor	-6471
osure	-6472
otics	-6473
ource	-6474
tling	-6475
▁1930	-6476
▁1945	-6477
▁Acad	-6478
▁Coop	-6479
▁Good	-6480
▁Hong	-6481
▁Kong	-6482
▁Mand	-6483
▁Marx	-6484
▁NCDs	-6485
▁Next	-6486
▁Paul	-6487
▁Sino	-6488
▁True	-6489
▁aris	-6490
▁bust	-6491
▁cong	-6492
▁cool	-6493
▁dign	-6494
▁east	-6495
▁ends	-6496
▁film	-6497
▁forg	-6498
▁fort	-6499
▁gaps	-6500
▁gets	-6501
▁grim	-6502
▁heat	-6503
▁hier	-6504
▁irre	-6505
▁kick	-6506
▁lock	-6507
▁loom	-6508
▁ment	-6509
▁myth	-6510
▁nine	-6511
▁outd	-6512
▁outl	-6513
▁pref	-6514
▁reck	-6515
▁roll	-6516
▁sake	-6517
▁scal	-6518
▁seat	-6519
▁sons	-6520
▁spot	-6521
▁stor	-6522
▁tons	-6523
▁uses	-6524
▁wild	-6525
▁word	-6526
ashion	-6527
ewater	-6528
idents	-6529
ieties	-6530
istrib	-6531
itated	-6532
mitted	-6533
mother	-6534
nesses	-6535
onesia	-6536
rading	-6537
rators	-6538
recogn	-6539
rophic	-6540
tering	-6541
undera	-6542
urbing	-6543
▁2005,	-6544
▁2014.	-6545
▁April	-6546
▁Armen	-6547
▁David	-6548
▁Elect	-6549
▁Prize	-6550
▁Three	-6551
▁Water	-6552
▁accum	-6553
▁badly	-6554
▁chief	-6555
▁cycle	-6556
▁defin	-6557
▁dimin	-6558
▁eager	-6559
▁enlar	-6560
▁giant	-6561
▁harsh	-6562
▁heavy	-6563
▁hydro	-6564
▁imped	-6565
▁kinds	-6566
▁lacks	-6567
▁night	-6568
▁novel	-6569
▁overn	-6570
▁plays	-6571
▁quiet	-6572
▁rebal	-6573
▁risen	-6574
▁secur	-6575
▁sheet	-6576
▁spoke	-6577
▁surge	-6578
▁thres	-6579
▁trees	-6580
▁usual	-6581
▁voice	-6582
Pacific	-6583
comings	-6584
enomics	-6585
entions	-6586
ervices	-6587
induced	-6588
istence	-6589
mission	-6590
ologist	-6591
reciate	-6592
riendly	-6593
society	-6594
▁Bosnia	-6595
▁Cyprus	-6596
▁Malays	-6597
▁Merkel	-6598
▁Prince	-6599
▁Resear	-6600
▁Syrian	-6601
▁approx	-6602
▁argues	-6603
▁attain	-6604
▁backed	-6605
▁bigger	-6606
▁bright	-6607
▁circle	-6608
▁cooper	-6609
▁courts	-6610
▁flight	-6611
▁gained	-6612
▁guilty	-6613
▁hiring	-6614
▁incumb	-6615
▁joined	-6616
▁latter	-6617
▁legisl	-6618
▁lifest	-6619
▁listen	-6620
▁looked	-6621
▁metric	-6622
▁occurs	-6623
▁pestic	-6624
▁philos	-6625
▁presum	-6626
▁prompt	-6627
▁refuse	-6628
▁relent	-6629
▁retail	-6630
▁satisf	-6631
▁series	-6632
▁settle	-6633
▁shares	-6634
▁silent	-6635
▁slowed	-6636
▁strict	-6637
▁thanks	-6638
▁traged	-6639
▁tragic	-6640
▁united	-6641
▁writer	-6642
chnology	-6643
ervation	-6644
levision	-6645
okestack	-6646
ollywood	-6647
quarters	-6648
▁Against	-6649
▁Francis	-6650
▁Kundera	-6651
▁Morocco	-6652
▁Supreme	-6653
▁Through	-6654
▁Turkish	-6655
▁Whereas	-6656
▁ancient	-6657
▁arguing	-6658
▁binding	-6659
▁capture	-6660
▁claimed	-6661
▁college	-6662
▁concept	-6663
▁content	-6664
▁courage	-6665
▁details	-6666
▁disrupt	-6667
▁dissent	-6668
▁diverse	-6669
▁engaged	-6670
▁exactly	-6671
▁finding	-6672
▁immense	-6673
▁inherit	-6674
▁initial	-6675
▁inspire	-6676
▁intract	-6677
▁islands	-6678
▁missing	-6679
▁outlook	-6680
▁planned	-6681
▁ranging	-6682
▁regular	-6683
▁removed	-6684
▁reports	-6685
▁reserve	-6686
▁restric	-6687
▁scandal	-6688
▁serving	-6689
▁symptom	-6690
▁turmoil	-6691
▁underst	-6692
▁utility	-6693
▁variety	-6694
▁wedding	-6695
cifically	-6696
ederation	-6697
including	-6698
▁Assembly	-6699
▁Hollande	-6700
▁Northern	-6701
▁adopting	-6702
▁anywhere	-6703
▁believes	-6704
▁concrete	-6705
▁creative	-6706
▁discoura	-6707
▁dividend	-6708
▁dominant	-6709
▁emphasis	-6710
▁exposure	-6711
▁extremes	-6712
▁features	-6713
▁finances	-6714
▁frequent	-6715
▁imposing	-6716
▁imprison	-6717
▁indicate	-6718
▁instance	-6719
▁intended	-6720
▁invasion	-6721
▁mathemat	-6722
▁mortgage	-6723
▁mounting	-6724
▁neighbor	-6725
▁nowadays	-6726
▁observed	-6727
▁opinions	-6728
▁overlook	-6729
▁produces	-6730
▁reaction	-6731
▁regarded	-6732
▁replaced	-6733
▁resulted	-6734
▁reversed	-6735
▁soldiers	-6736
▁strongly	-6737
▁systemic	-6738
▁treaties	-6739
▁visiting	-6740
▁whatever	-6741
▁worrying	-6742
▁Democracy	-6743
▁Economics	-6744
▁Indonesia	-6745
▁Palestine	-6746
▁Political	-6747
▁aftermath	-6748
▁algorithm	-6749
▁arguments	-6750
▁attracted	-6751
▁borrowers	-6752
▁component	-6753
▁dictators	-6754
▁directors	-6755
▁discourse	-6756
▁equitable	-6757
▁exclusion	-6758
▁generated	-6759
▁injustice	-6760
▁intention	-6761
▁medicines	-6762
▁nutrition	-6763
▁organized	-6764
▁overnight	-6765
▁ownership	-6766
▁platforms	-6767
▁pressures	-6768
▁proposals	-6769
▁redistrib	-6770
▁successes	-6771
▁suggested	-6772
▁surpluses	-6773
▁threshold	-6774
▁workplace	-6775
▁Chancellor	-6776
▁Conference	-6777
▁Department	-6778
▁Developing	-6779
▁Mastercard	-6780
▁Protection	-6781
▁accessible	-6782
▁aggression	-6783
▁aggressive	-6784
▁apparently	-6785
▁assumption	-6786
▁compelling	-6787
▁expectancy	-6788
▁foundation	-6789
▁inevitably	-6790
▁infectious	-6791
▁insecurity	-6792
▁mobilizing	-6793
▁reasonable	-6794
▁reassuring	-6795
▁reinforced	-6796
▁resentment	-6797
▁solidarity	-6798
▁suggesting	-6799
withstanding	-6800
▁accompanied	-6801
▁arrangement	-6802
▁aspirations	-6803
▁competitors	-6804
▁consequence	-6805
▁dysfunction	-6806
▁enforcement	-6807
▁grandmother	-6808
▁inefficient	-6809
▁influential	-6810
▁interdepend	-6811
▁involvement	-6812
▁journalists	-6813
▁maintaining	-6814
▁nonetheless	-6815
▁operational	-6816
▁predictable	-6817
▁revolutions	-6818
▁statistical	-6819
▁transformed	-6820
▁underscores	-6821
▁architecture	-6822
▁capabilities	-6823
▁deleveraging	-6824
▁devaluations	-6825
▁economically	-6826
▁expectations	-6827
▁generational	-6828
▁geopolitical	-6829
▁humanitarian	-6830
▁instrumental	-6831
▁predecessors	-6832
▁shortcomings	-6833
▁surprisingly	-6834
▁unacceptable	-6835
▁urbanization	-6836
▁approximately	-6837
▁deforestation	-6838
▁revolutionary	-6839
▁traditionally	-6840
▁transatlantic	-6841
▁demonstrations	-6842
▁industrialized	-6843
▁interconnected	-6844
▁understandable	-6845
▁superconductors	-6846
66	-6847
AT	-6848
BA	-6849
BI	-6850
CP	-6851
EY	-6852
NA	-6853
TA	-6854
eu	-6855
kj	-6856
oo	-6857
ta	-6858
GBT	-6859
Ivo	-6860
KEL	-6861
Kin	-6862
New	-6863
ago	-6864
aug	-6865
dem	-6866
egu	-6867
ela	-6868
era	-6869
eth	-6870
fol	-6871
ips	-6872
iro	-6873
jud	-6874
ole	-6875
osc	-6876
oto	-6877
ply	-6878
rum	-6879
she	-6880
sum	-6881
uci	-6882
ude	-6883
yal	-6884
ykj	-6885
▁(1	-6886
▁6.	-6887
▁70	-6888
▁Ph	-6889
▁Sm	-6890
ador	-6891
ales	-6892
arks	-6893
asty	-6894
avik	-6895
bond	-6896
case	-6897
cile	-6898
cked	-6899
cost	-6900
drop	-6901
eing	-6902
elta	-6903
emed	-6904
emen	-6905
eted	-6906
ford	-6907
fuel	-6908
fund	-6909
gain	-6910
gers	-6911
gred	-6912
greg	-6913
happ	-6914
inal	-6915
izon	-6916
ores	-6917
owed	-6918
prof	-6919
rank	-6920
rees	-6921
rity	-6922
rous	-6923
ship	-6924
soft	-6925
such	-6926
turn	-6927
▁$50	-6928
▁1.7	-6929
▁101	-6930
▁191	-6931
▁2.5	-6932
▁202	-6933
▁90%	-6934
▁Adv	-6935
▁Age	-6936
▁Air	-6937
▁Are	-6938
▁Dar	-6939
▁Few	-6940
▁Ram	-6941
▁Sea	-6942
▁WHO	-6943
▁ast	-6944
▁cha	-6945
▁cyn	-6946
▁dog	-6947
▁dub	-6948
▁fro	-6949
▁hat	-6950
▁luc	-6951
▁mag	-6952
▁pil	-6953
▁pul	-6954
▁rig	-6955
▁sad	-6956
▁sem	-6957
▁vac	-6958
▁via	-6959
▁vit	-6960
▁wal	-6961
▁yes	-6962
KELEY	-6963
arted	-6964
backs	-6965
dered	-6966
endas	-6967
epend	-6968
eping	-6969
hagen	-6970
ilemm	-6971
inery	-6972
kesov	-6973
nting	-6974
opher	-6975
ordan	-6976
oston	-6977
owned	-6978
point	-6979
rible	-6980
rives	-6981
stems	-6982
trans	-6983
vable	-6984
yield	-6985
▁$500	-6986
▁1991	-6987
▁2007	-6988
▁2030	-6989
▁Alex	-6990
▁Ange	-6991
▁Camb	-6992
▁Cher	-6993
▁Emer	-6994
▁Enge	-6995
▁Fail	-6996
▁Hist	-6997
▁Hung	-6998
▁Kamp	-6999
▁Krem	-7000
▁Land	-7001
▁Mich	-7002
▁Mont	-7003
▁Sing	-7004
▁Stud	-7005
▁Wolf	-7006
▁Year	-7007
▁acts	-7008
▁arts	-7009
▁awak	-7010
▁baby	-7011
▁biod	-7012
▁boys	-7013
▁brib	-7014
▁clou	-7015
▁corn	-7016
▁coun	-7017
▁cycl	-7018
▁desp	-7019
▁docu	-7020
▁enth	-7021
▁evil	-7022
▁exit	-7023
▁felt	-7024
▁girl	-7025
▁gras	-7026
▁grid	-7027
▁guid	-7028
▁hell	-7029
▁hire	-7030
▁leak	-7031
▁loan	-7032
▁lobb	-7033
▁medi	-7034
▁mira	-7035
▁pict	-7036
▁pret	-7037
▁puts	-7038
▁rock	-7039
▁star	-7040
▁toug	-7041
▁trap	-7042
▁triv	-7043
▁turb	-7044
▁unle	-7045
▁unne	-7046
▁vary	-7047
▁vent	-7048
▁vice	-7049
Ivoire	-7050
Kinsey	-7051
acking	-7052
adjust	-7053
alling	-7054
arians	-7055
elines	-7056
erties	-7057
gments	-7058
imated	-7059
iments	-7060
liance	-7061
mentia	-7062
ptions	-7063
urable	-7064
▁1970’	-7065
▁2006,	-7066
▁2009,	-7067
▁2030.	-7068
▁Among	-7069
▁Board	-7070
▁Congo	-7071
▁Copen	-7072
▁Delta	-7073
▁Doing	-7074
▁Dream	-7075
▁Einst	-7076
▁Fried	-7077
▁Initi	-7078
▁Inter	-7079
▁James	-7080
▁Labor	-7081
▁Major	-7082
▁Power	-7083
▁Reykj	-7084
▁annex	-7085
▁blind	-7086
▁clout	-7087
▁conce	-7088
▁digit	-7089
▁disag	-7090
▁doorm	-7091
▁earth	-7092
▁elite	-7093
▁escal	-7094
▁facts	-7095
▁farms	-7096
▁finds	-7097
▁forge	-7098
▁grass	-7099
▁homes	-7100
▁honor	-7101
▁jihad	-7102
▁marry	-7103
▁match	-7104
▁moves	-7105
▁music	-7106
▁north	-7107
▁peers	-7108
▁phone	-7109
▁plumm	-7110
▁pride	-7111
▁print	-7112
▁react	-7113
▁rival	-7114
▁roads	-7115
▁sheer	-7116
▁signs	-7117
▁socio	-7118
▁tends	-7119
▁topic	-7120
▁toxic	-7121
▁train	-7122
▁trial	-7123
▁uncon	-7124
▁votes	-7125
▁worry	-7126
ariably	-7127
culosis	-7128
hancing	-7129
herence	-7130
igating	-7131
ilation	-7132
iration	-7133
largest	-7134
onomics	-7135
ophobia	-7136
quarter	-7137
roughts	-7138
service	-7139
verages	-7140
▁Balkan	-7141
▁Before	-7142
▁Boston	-7143
▁Carter	-7144
▁Growth	-7145
▁Jordan	-7146
▁Kenyan	-7147
▁MADRID	-7148
▁Others	-7149
▁Ronald	-7150
▁Scient	-7151
▁Stalin	-7152
▁Unless	-7153
▁advent	-7154
▁analog	-7155
▁barely	-7156
▁begins	-7157
▁blamed	-7158
▁bloody	-7159
▁bodies	-7160
▁counts	-7161
▁couple	-7162
▁cultiv	-7163
▁dearth	-7164
▁decent	-7165
▁defici	-7166
▁degrad	-7167
▁dispar	-7168
▁dispos	-7169
▁doctor	-7170
▁evolve	-7171
▁exchan	-7172
▁exclus	-7173
▁exists	-7174
▁explan	-7175
▁fellow	-7176
▁funded	-7177
▁grants	-7178
▁harmon	-7179
▁impair	-7180
▁ingred	-7181
▁letter	-7182
▁lifted	-7183
▁oldest	-7184
▁overse	-7185
▁permit	-7186
▁pledge	-7187
▁poorly	-7188
▁procla	-7189
▁proven	-7190
▁provin	-7191
▁racial	-7192
▁reconc	-7193
▁relied	-7194
▁remote	-7195
▁resemb	-7196
▁reveal	-7197
▁review	-7198
▁safegu	-7199
▁shaped	-7200
▁shocks	-7201
▁spirit	-7202
▁sports	-7203
▁steady	-7204
▁strife	-7205
▁string	-7206
▁struck	-7207
▁unrest	-7208
▁virtue	-7209
▁visits	-7210
▁wisdom	-7211
▁wishes	-7212
adjusted	-7213
arations	-7214
imension	-7215
olerance	-7216
oriented	-7217
▁Clearly	-7218
▁Closing	-7219
▁Confuci	-7220
▁Farmers	-7221
▁Hillary	-7222
▁Hungary	-7223
▁Iceland	-7224
▁Increas	-7225
▁Iranian	-7226
▁Kampala	-7227
▁Kremlin	-7228
▁Malaria	-7229
▁Mandela	-7230
▁Mexican	-7231
▁Neither	-7232
▁Summers	-7233
▁Wangari	-7234
▁accompl	-7235
▁acquire	-7236
▁agendas	-7237
▁alleged	-7238
▁assumes	-7239
▁backing	-7240
▁cabinet	-7241
▁carried	-7242
▁cartels	-7243
▁channel	-7244
▁charges	-7245
▁cholera	-7246
▁citizen	-7247
▁clients	-7248
▁compete	-7249
▁default	-7250
▁devices	-7251
▁devoted	-7252
▁distant	-7253
▁drivers	-7254
▁earning	-7255
▁enables	-7256
▁enacted	-7257
▁erupted	-7258
▁fallout	-7259
▁forests	-7260
▁fueling	-7261
▁granted	-7262
▁harmful	-7263
▁hostile	-7264
▁killing	-7265
▁lacking	-7266
▁logical	-7267
▁methods	-7268
▁metrics	-7269
▁outrage	-7270
▁painful	-7271
▁paradig	-7272
▁portfol	-7273
▁privile	-7274
▁prolong	-7275
▁pursued	-7276
▁richest	-7277
▁showing	-7278
▁strikes	-7279
▁tension	-7280
▁tragedy	-7281
▁trivial	-7282
▁unusual	-7283
▁utterly	-7284
▁waiting	-7285
▁warfare	-7286
ressional	-7287
ventional	-7288
▁2008-200	-7289
▁Alliance	-7290
▁Atlantic	-7291
▁BERKELEY	-7292
▁Einstein	-7293
▁Israelis	-7294
▁Malaysia	-7295
▁McKinsey	-7296
▁Medicare	-7297
▁Research	-7298
▁academia	-7299
▁advocate	-7300
▁announce	-7301
▁appeared	-7302
▁arrested	-7303
▁attempts	-7304
▁attitude	-7305
▁blocking	-7306
▁breaking	-7307
▁damaging	-7308
▁daunting	-7309
▁deprived	-7310
▁destined	-7311
▁deterior	-7312
▁diaspora	-7313
▁disabled	-7314
▁distance	-7315
▁distingu	-7316
▁droughts	-7317
▁dynamics	-7318
▁engineer	-7319
▁explains	-7320
▁freedoms	-7321
▁governed	-7322
▁hegemony	-7323
▁imported	-7324
▁impunity	-7325
▁inaction	-7326
▁integral	-7327
▁manifest	-7328
▁marriage	-7329
▁meltdown	-7330
▁mistakes	-7331
▁occasion	-7332
▁packages	-7333
▁preserve	-7334
▁rainfall	-7335
▁reliable	-7336
▁reliance	-7337
▁remember	-7338
▁restored	-7339
▁separate	-7340
▁stranger	-7341
▁striking	-7342
▁suddenly	-7343
▁superior	-7344
▁terrible	-7345
▁troubled	-7346
▁underway	-7347
▁unnecess	-7348
▁upcoming	-7349
▁Abenomics	-7350
▁Algerians	-7351
▁Cambridge	-7352
▁Cherkesov	-7353
▁Keynesian	-7354
▁Reykjavik	-7355
▁accepting	-7356
▁certainty	-7357
▁childhood	-7358
▁combating	-7359
▁competing	-7360
▁computers	-7361
▁condemned	-7362
▁confident	-7363
▁conscious	-7364
▁contained	-7365
▁creditors	-7366
▁dedicated	-7367
▁denounced	-7368
▁describes	-7369
▁discussed	-7370
▁divisions	-7371
▁dominance	-7372
▁emotional	-7373
▁gradually	-7374
▁graduates	-7375
▁happening	-7376
▁historian	-7377
▁inability	-7378
▁initiated	-7379
▁inspiring	-7380
▁introduce	-7381
▁literally	-7382
▁machinery	-7383
▁modernity	-7384
▁operation	-7385
▁patriarch	-7386
▁perceived	-7387
▁presented	-7388
▁receiving	-7389
▁recovered	-7390
▁rejection	-7391
▁requiring	-7392
▁resolving	-7393
▁sectarian	-7394
▁seemingly	-7395
▁stimulate	-7396
▁suppliers	-7397
▁weakening	-7398
development	-7399
uberculosis	-7400
▁Copenhagen	-7401
▁Government	-7402
▁Initiative	-7403
▁adjustment	-7404
▁collection	-7405
▁complexity	-7406
▁constitute	-7407
▁controlled	-7408
▁convincing	-7409
▁creativity	-7410
▁disturbing	-7411
▁ecological	-7412
▁experiment	-7413
▁guarantees	-7414
▁historians	-7415
▁insurgents	-7416
▁invariably	-7417
▁persistent	-7418
▁politician	-7419
▁popularity	-7420
▁prevention	-7421
▁prosperous	-7422
▁rainforest	-7423
▁retirement	-7424
▁securities	-7425
▁sustaining	-7426
▁television	-7427
▁understood	-7428
▁wastewater	-7429
▁Cooperation	-7430
▁Governments	-7431
▁algorithmic	-7432
▁approaching	-7433
▁consolidate	-7434
▁contributes	-7435
▁experiences	-7436
▁forthcoming	-7437
▁obligations	-7438
▁problematic	-7439
▁recognizing	-7440
▁supervision	-7441
▁territories	-7442
▁traffickers	-7443
▁transparent	-7444
▁vaccination	-7445
▁Constitution	-7446
▁Nevertheless	-7447
▁Specifically	-7448
▁Trumponomics	-7449
▁achievements	-7450
▁biodiversity	-7451
▁catastrophic	-7452
▁collectively	-7453
▁considerably	-7454
▁constructive	-7455
▁entrepreneur	-7456
▁fundamentals	-7457
▁overwhelming	-7458
▁participants	-7459
▁shareholders	-7460
▁totalitarian	-7461
▁transmission	-7462
▁accommodation	-7463
▁demonstrating	-7464
▁disappointing	-7465
▁dysfunctional	-7466
▁manufacturers	-7467
▁modernization	-7468
▁parliamentary	-7469
▁socioeconomic	-7470
▁communications	-7471
▁reconciliation	-7472
▁simultaneously	-7473
▁unconventional	-7474
▁fundamentalists	-7475
▁representatives	-7476
6,	-7477
99	-7478
?”	-7479
BU	-7480
CS	-7481
Es	-7482
IR	-7483
PP	-7484
RA	-7485
RC	-7486
WI	-7487
bs	-7488
fl	-7489
gs	-7490
ha	-7491
no	-7492
po	-7493
tw	-7494
yo	-7495
CAO	-7496
FTA	-7497
HAN	-7498
aur	-7499
bra	-7500
def	-7501
dig	-7502
fur	-7503
gay	-7504
how	-7505
ien	-7506
inh	-7507
inz	-7508
isc	-7509
ius	-7510
kin	-7511
log	-7512
med	-7513
oha	-7514
oul	-7515
ppo	-7516
rey	-7517
sky	-7518
uba	-7519
uda	-7520
van	-7521
wed	-7522
zed	-7523
zen	-7524
▁1,	-7525
▁17	-7526
▁21	-7527
▁27	-7528
▁28	-7529
▁4%	-7530
▁65	-7531
▁BE	-7532
▁BP	-7533
▁BR	-7534
▁HA	-7535
▁Ol	-7536
▁Ur	-7537
ARIS	-7538
Shia	-7539
achu	-7540
alem	-7541
anks	-7542
asks	-7543
awat	-7544
ball	-7545
body	-7546
book	-7547
cean	-7548
cend	-7549
cles	-7550
fold	-7551
ials	-7552
iche	-7553
icon	-7554
iety	-7555
ifts	-7556
ilib	-7557
imal	-7558
ione	-7559
itiv	-7560
ivot	-7561
lter	-7562
moon	-7563
nard	-7564
ogle	-7565
okyo	-7566
onor	-7567
ooth	-7568
orld	-7569
orse	-7570
pper	-7571
rack	-7572
radu	-7573
rand	-7574
rass	-7575
rick	-7576
rine	-7577
risy	-7578
rive	-7579
roll	-7580
rote	-7581
sels	-7582
step	-7583
teen	-7584
uity	-7585
▁$1.	-7586
▁15%	-7587
▁350	-7588
▁500	-7589
▁Ann	-7590
▁Bel	-7591
▁BoJ	-7592
▁Del	-7593
▁Emp	-7594
▁Inf	-7595
▁Kim	-7596
▁Lag	-7597
▁Law	-7598
▁Lee	-7599
▁Mug	-7600
▁PCA	-7601
▁Pat	-7602
▁Sol	-7603
▁WWI	-7604
▁aug	-7605
▁bed	-7606
▁cod	-7607
▁cri	-7608
▁dry	-7609
▁fed	-7610
▁fun	-7611
▁geo	-7612
▁glo	-7613
▁hab	-7614
▁hed	-7615
▁hus	-7616
▁lad	-7617
▁lit	-7618
▁meg	-7619
▁ped	-7620
▁spl	-7621
▁sta	-7622
▁unm	-7623
after	-7624
ander	-7625
apers	-7626
apore	-7627
atism	-7628
chand	-7629
ciers	-7630
const	-7631
craft	-7632
early	-7633
eling	-7634
elong	-7635
ength	-7636
enter	-7637
euver	-7638
fired	-7639
front	-7640
gence	-7641
gered	-7642
iated	-7643
icing	-7644
ience	-7645
ierce	-7646
iforn	-7647
inter	-7648
istre	-7649
itage	-7650
itary	-7651
oking	-7652
oscow	-7653
ostic	-7654
othes	-7655
ouris	-7656
overs	-7657
owing	-7658
parts	-7659
perts	-7660
print	-7661
produ	-7662
rival	-7663
roots	-7664
secut	-7665
setts	-7666
trade	-7667
ullah	-7668
uracy	-7669
worth	-7670
▁2.5%	-7671
▁2001	-7672
▁2003	-7673
▁2005	-7674
▁2013	-7675
▁3.5%	-7676
▁Alas	-7677
▁Bill	-7678
▁Bret	-7679
▁Coal	-7680
▁Data	-7681
▁Doha	-7682
▁Each	-7683
▁Gand	-7684
▁ICAO	-7685
▁Jobs	-7686
▁LGBT	-7687
▁Left	-7688
▁Less	-7689
▁Mali	-7690
▁Mass	-7691
▁Maur	-7692
▁Muse	-7693
▁Path	-7694
▁Peru	-7695
▁Poor	-7696
▁Prom	-7697
▁Prov	-7698
▁Rich	-7699
▁Soci	-7700
▁Stat	-7701
▁Test	-7702
▁Wood	-7703
▁aven	-7704
▁bloc	-7705
▁blow	-7706
▁bran	-7707
▁brid	-7708
▁cham	-7709
▁cope	-7710
▁crus	-7711
▁diet	-7712
▁door	-7713
▁elev	-7714
▁epic	-7715
▁epis	-7716
▁erod	-7717
▁eval	-7718
▁fade	-7719
▁fasc	-7720
▁fine	-7721
▁hect	-7722
▁heed	-7723
▁laid	-7724
▁lest	-7725
▁mild	-7726
▁mood	-7727
▁note	-7728
▁nurt	-7729
▁onto	-7730
▁perv	-7731
▁pill	-7732
▁prud	-7733
▁pull	-7734
▁rare	-7735
▁reci	-7736
▁sale	-7737
▁seas	-7738
▁suit	-7739
▁tail	-7740
▁tide	-7741
▁unex	-7742
▁unit	-7743
▁uphe	-7744
▁vind	-7745
▁wait	-7746
▁wife	-7747
▁wins	-7748
econom	-7749
engine	-7750
ictory	-7751
ighted	-7752
invest	-7753
issing	-7754
ivable	-7755
matism	-7756
ocrisy	-7757
panies	-7758
racted	-7759
rowley	-7760
school	-7761
siders	-7762
▁1977,	-7763
▁2006.	-7764
▁2008.	-7765
▁2013.	-7766
▁Assad	-7767
▁Black	-7768
▁Blair	-7769
▁Child	-7770
▁Engel	-7771
▁Irish	-7772
▁Large	-7773
▁PARIS	-7774
▁Peace	-7775
▁Sadly	-7776
▁Shinz	-7777
▁Tokyo	-7778
▁Young	-7779
▁advis	-7780
▁alien	-7781
▁apart	-7782
▁bills	-7783
▁breat	-7784
▁catch	-7785
▁clash	-7786
▁deleg	-7787
▁depth	-7788
▁dereg	-7789
▁dozen	-7790
▁drove	-7791
▁dwell	-7792
▁embar	-7793
▁enemy	-7794
▁fraud	-7795
▁grave	-7796
▁grows	-7797
▁guess	-7798
▁heads	-7799
▁inaug	-7800
▁loyal	-7801
▁midst	-7802
▁motor	-7803
▁noted	-7804
▁onset	-7805
▁ought	-7806
▁owned	-7807
▁panel	-7808
▁paper	-7809
▁pharm	-7810
▁pione	-7811
▁plaus	-7812
▁poses	-7813
▁recip	-7814
▁reput	-7815
▁revel	-7816
▁rises	-7817
▁route	-7818
▁saved	-7819
▁skill	-7820
▁slack	-7821
▁strid	-7822
▁teams	-7823
▁touch	-7824
▁towns	-7825
▁trump	-7826
▁types	-7827
▁tyran	-7828
▁unite	-7829
▁users	-7830
▁verge	-7831
▁voted	-7832
▁weigh	-7833
▁wheat	-7834
▁wrote	-7835
African	-7836
actions	-7837
alities	-7838
athetic	-7839
atories	-7840
control	-7841
embered	-7842
forward	-7843
ifornia	-7844
lfriend	-7845
ouncing	-7846
perform	-7847
product	-7848
ratives	-7849
reement	-7850
renched	-7851
support	-7852
tenance	-7853
version	-7854
▁Agency	-7855
▁Aleppo	-7856
▁Almost	-7857
▁Author	-7858
▁Change	-7859
▁Colomb	-7860
▁Crisis	-7861
▁Energy	-7862
▁Former	-7863
▁League	-7864
▁Madrid	-7865
▁Moscow	-7866
▁Mugabe	-7867
▁Should	-7868
▁Simply	-7869
▁Unlike	-7870
▁active	-7871
▁ambass	-7872
▁asking	-7873
▁behave	-7874
▁bought	-7875
▁bridge	-7876
▁deadly	-7877
▁deemed	-7878
▁dilemm	-7879
▁domain	-7880
▁dozens	-7881
▁dreams	-7882
▁driver	-7883
▁enthus	-7884
▁explos	-7885
▁feared	-7886
▁fierce	-7887
▁filled	-7888
▁flawed	-7889
▁fought	-7890
▁fronts	-7891
▁hatred	-7892
▁height	-7893
▁heroin	-7894
▁hidden	-7895
▁hungry	-7896
▁incarn	-7897
▁incite	-7898
▁indiff	-7899
▁inputs	-7900
▁inside	-7901
▁inward	-7902
▁island	-7903
▁jailed	-7904
▁judged	-7905
▁length	-7906
▁lowest	-7907
▁manner	-7908
▁paraly	-7909
▁plural	-7910
▁proced	-7911
▁punish	-7912
▁ranked	-7913
▁ratify	-7914
▁reluct	-7915
▁replic	-7916
▁repudi	-7917
▁richer	-7918
▁rolled	-7919
▁ruling	-7920
▁signal	-7921
▁smooth	-7922
▁	-7923
e	-7924
t	-7925
a	-7926
i	-7927
n	-7928
o	-7929
r	-7930
s	-7931
l	-7932
h	-7933
c	-7934
d	-7935
u	-7936
m	-7937
p	-7938
f	-7939
g	-7940
y	-7941
w	-7942
b	-7943
,	-7944
v	-7945
.	-7946
k	-7947
A	-7948
T	-7949
-	-7950
I	-7951
’	-7952
S	-7953
x	-7954
0	-7955
B	-7956
C	-7957
E	-7958
–	-7959
U	-7960
z	-7961
M	-7962
1	-7963
P	-7964
W	-7965
2	-7966
D	-7967
j	-7968
q	-7969
N	-7970
F	-7971
G	-7972
R	-7973
O	-7974
“	-7975
”	-7976
H	-7977
9	-7978
J	-7979
5	-7980
K	-7981
%	-7982
(	-7983
)	-7984
L	-7985
3	-7986
:	-7987
;	-7988
8	-7989
6	-7990
7	-7991
4	-7992
$	-7993
Y	-7994
?	-7995
