<pad>	0
<unk>	0
<s>	0
</s>	0
▁t	-0
in	-1
▁a	-2
he	-3
re	-4
on	-5
▁the	-6
er	-7
at	-8
en	-9
▁c	-10
▁s	-11
it	-12
▁o	-13
an	-14
es	-15
is	-16
▁w	-17
al	-18
▁p	-19
or	-20
▁b	-21
▁in	-22
▁f	-23
ed	-24
ing	-25
nd	-26
▁to	-27
ic	-28
▁m	-29
ar	-30
ion	-31
▁of	-32
ro	-33
▁d	-34
▁and	-35
ou	-36
▁th	-37
ent	-38
▁e	-39
le	-40
st	-41
▁h	-42
▁re	-43
om	-44
▁n	-45
il	-46
ly	-47
ve	-48
as	-49
▁l	-50
▁be	-51
ct	-52
▁g	-53
ut	-54
▁is	-55
ol	-56
▁that	-57
ation	-58
▁T	-59
im	-60
▁A	-61
ce	-62
se	-63
▁de	-64
ver	-65
ot	-66
ur	-67
ra	-68
ment	-69
▁for	-70
ld	-71
ig	-72
▁I	-73
id	-74
ow	-75
et	-76
▁it	-77
▁on	-78
▁C	-79
ies	-80
▁st	-81
nt	-82
ch	-83
ad	-84
▁u	-85
▁pro	-86
ill	-87
▁B	-88
▁con	-89
ir	-90
ate	-91
ul	-92
▁E	-93
ore	-94
▁–	-95
▁as	-96
pe	-97
▁S	-98
ers	-99
▁The	-100
ith	-101
est	-102
▁wh	-103
▁r	-104
ity	-105
▁al	-106
▁cou	-107
▁su	-108
her	-109
▁ex	-110
ge	-111
lo	-112
▁are	-113
▁with	-114
ort	-115
ay	-116
ab	-117
ess	-118
ist	-119
con	-120
▁ne	-121
▁an	-122
ial	-123
▁U	-124
ain	-125
th	-126
res	-127
ive	-128
us	-129
▁ha	-130
ter	-131
▁not	-132
if	-133
▁com	-134
iv	-135
am	-136
▁we	-137
ke	-138
▁has	-139
▁Ch	-140
▁by	-141
conom	-142
em	-143
▁have	-144
ould	-145
ac	-146
pp	-147
▁M	-148
▁se	-149
▁le	-150
▁will	-151
▁pol	-152
▁sh	-153
▁econom	-154
and	-155
qu	-156
ust	-157
▁W	-158
▁wor	-159
uro	-160
▁Chin	-161
oc	-162
um	-163
▁en	-164
▁v	-165
▁P	-166
igh	-167
▁count	-168
rom	-169
over	-170
▁F	-171
op	-172
ost	-173
ant	-174
ap	-175
ical	-176
▁im	-177
▁countr	-178
▁from	-179
▁at	-180
os	-181
ia	-182
▁or	-183
ions	-184
▁more	-185
▁G	-186
▁its	-187
▁ch	-188
od	-189
▁he	-190
iz	-191
art	-192
▁“	-193
▁y	-194
▁their	-195
ure	-196
ome	-197
ast	-198
ong	-199
▁China	-200
▁Euro	-201
▁2	-202
ib	-203
ans	-204
▁Europe	-205
▁inc	-206
un	-207
▁int	-208
▁But	-209
ff	-210
▁imp	-211
ther	-212
▁un	-213
▁res	-214
el	-215
row	-216
red	-217
ear	-218
ich	-219
▁R	-220
▁would	-221
anc	-222
▁In	-223
ak	-224
ru	-225
ect	-226
mer	-227
▁this	-228
end	-229
▁ad	-230
gh	-231
▁N	-232
pt	-233
all	-234
▁ab	-235
ight	-236
▁can	-237
▁was	-238
overn	-239
ary	-240
▁ag	-241
ance	-242
▁US	-243
▁they	-244
▁cont	-245
▁than	-246
able	-247
▁20	-248
▁1	-249
▁countries	-250
du	-251
ric	-252
▁govern	-253
ous	-254
▁fin	-255
▁which	-256
out	-257
cc	-258
▁all	-259
ard	-260
ational	-261
▁O	-262
rou	-263
ip	-264
▁comp	-265
ates	-266
ated	-267
ud	-268
▁Th	-269
▁D	-270
ign	-271
ark	-272
▁whe	-273
ations	-274
▁grow	-275
ere	-276
▁exp	-277
▁world	-278
ank	-279
▁year	-280
▁rec	-281
ult	-282
ress	-283
▁man	-284
▁fa	-285
▁(	-286
▁government	-287
bal	-288
ie	-289
▁j	-290
ven	-291
ike	-292
▁economic	-293
lic	-294
▁do	-295
orm	-296
one	-297
▁but	-298
▁polic	-299
▁H	-300
▁dis	-301
ide	-302
reat	-303
▁tr	-304
▁part	-305
ence	-306
▁polit	-307
lobal	-308
▁bec	-309
▁pl	-310
▁inv	-311
▁new	-312
ris	-313
ag	-314
▁out	-315
▁been	-316
▁reg	-317
▁other	-318
▁so	-319
ub	-320
og	-321
ine	-322
age	-323
ree	-324
ors	-325
▁pe	-326
▁me	-327
▁dec	-328
arket	-329
ile	-330
▁over	-331
▁L	-332
▁As	-333
▁global	-334
ime	-335
ep	-336
ction	-337
lop	-338
velop	-339
▁growth	-340
are	-341
▁lead	-342
ll	-343
▁tra	-344
ack	-345
▁one	-346
▁Un	-347
so	-348
ose	-349
form	-350
▁J	-351
meric	-352
ower	-353
ally	-354
▁inter	-355
ens	-356
▁ris	-357
ian	-358
▁ind	-359
ition	-360
▁need	-361
erm	-362
ren	-363
▁financ	-364
▁und	-365
▁Americ	-366
▁also	-367
▁dem	-368
▁market	-369
ities	-370
ue	-371
▁eff	-372
▁should	-373
au	-374
▁K	-375
ern	-376
ility	-377
our	-378
▁like	-379
reas	-380
▁only	-381
ake	-382
▁could	-383
▁cons	-384
cy	-385
▁invest	-386
▁develop	-387
▁political	-388
▁comm	-389
▁about	-390
ident	-391
ire	-392
ople	-393
▁most	-394
▁pre	-395
▁no	-396
▁acc	-397
▁bank	-398
fic	-399
▁such	-400
▁It	-401
▁per	-402
▁str	-403
▁long	-404
▁now	-405
▁who	-406
ange	-407
▁cl	-408
▁there	-409
▁European	-410
▁bet	-411
▁policy	-412
ative	-413
▁financial	-414
low	-415
ord	-416
▁cap	-417
ited	-418
▁supp	-419
▁sp	-420
▁go	-421
uch	-422
ments	-423
▁even	-424
rit	-425
▁EU	-426
▁years	-427
▁people	-428
▁up	-429
ublic	-430
▁qu	-431
ism	-432
ble	-433
▁Ind	-434
▁Af	-435
▁increas	-436
ach	-437
old	-438
gy	-439
▁work	-440
▁cur	-441
ew	-442
ious	-443
▁rem	-444
▁some	-445
▁many	-446
▁pr	-447
▁19	-448
▁inf	-449
illion	-450
00	-451
yst	-452
bt	-453
▁em	-454
▁them	-455
▁were	-456
ces	-457
ber	-458
ution	-459
▁economy	-460
de	-461
int	-462
ital	-463
erv	-464
▁if	-465
▁country	-466
ause	-467
▁app	-468
▁under	-469
▁ra	-470
▁must	-471
ish	-472
▁This	-473
act	-474
und	-475
ough	-476
▁St	-477
▁his	-478
▁rel	-479
av	-480
▁And	-481
lect	-482
▁when	-483
▁ar	-484
ang	-485
ame	-486
amp	-487
ystem	-488
▁these	-489
▁cris	-490
▁k	-491
▁lar	-492
per	-493
▁produ	-494
ace	-495
ons	-496
eral	-497
very	-498
pect	-499
▁power	-500
▁201	-501
▁ro	-502
own	-503
erest	-504
▁may	-505
rough	-506
arly	-507
ms	-508
ating	-509
ks	-510
uc	-511
▁tw	-512
vent	-513
▁sc	-514
▁system	-515
▁us	-516
▁fir	-517
ount	-518
ese	-519
alth	-520
cess	-521
▁intern	-522
▁po	-523
ass	-524
we	-525
▁into	-526
▁te	-527
▁much	-528
▁cent	-529
▁am	-530
▁soc	-531
▁how	-532
▁time	-533
▁what	-534
▁leaders	-535
resident	-536
▁rep	-537
▁interest	-538
ory	-539
▁act	-540
▁att	-541
▁crisis	-542
ced	-543
ond	-544
▁inst	-545
oss	-546
▁had	-547
uss	-548
lud	-549
▁public	-550
ind	-551
▁co	-552
ert	-553
get	-554
▁ow	-555
▁any	-556
ild	-557
▁real	-558
▁high	-559
olog	-560
.”	-561
ific	-562
▁mon	-563
ible	-564
▁trans	-565
▁recent	-566
ful	-567
its	-568
ade	-569
ual	-570
ists	-571
ov	-572
▁just	-573
▁import	-574
▁proble	-575
▁far	-576
ruct	-577
▁dif	-578
ient	-579
▁fore	-580
ral	-581
hip	-582
imate	-583
▁again	-584
▁international	-585
▁conf	-586
hed	-587
ob	-588
▁war	-589
▁ref	-590
urn	-591
▁because	-592
▁well	-593
vers	-594
hen	-595
▁ac	-596
ization	-597
▁United	-598
▁contin	-599
ives	-600
▁200	-601
▁pric	-602
▁debt	-603
ics	-604
ise	-605
ase	-606
ject	-607
uring	-608
iss	-609
ax	-610
ok	-611
▁prov	-612
▁way	-613
read	-614
ied	-615
▁remain	-616
▁support	-617
▁two	-618
▁those	-619
▁gen	-620
▁Chinese	-621
iven	-622
oth	-623
ption	-624
pec	-625
ite	-626
▁Y	-627
▁America	-628
lear	-629
▁For	-630
▁less	-631
iet	-632
ween	-633
▁fact	-634
ry	-635
ove	-636
▁def	-637
ward	-638
vel	-639
oll	-640
opul	-641
▁end	-642
rent	-643
any	-644
sel	-645
▁add	-646
ration	-647
eed	-648
ues	-649
▁between	-650
itt	-651
ound	-652
▁ent	-653
inist	-654
▁dep	-655
ize	-656
ene	-657
▁while	-658
chn	-659
▁effect	-660
▁capital	-661
▁opp	-662
ures	-663
▁mod	-664
ice	-665
▁des	-666
▁Afric	-667
▁right	-668
ail	-669
ict	-670
▁prog	-671
ural	-672
ings	-673
▁hel	-674
term	-675
aj	-676
▁Russ	-677
▁own	-678
▁sec	-679
▁includ	-680
▁our	-681
▁popul	-682
▁large	-683
▁euro	-684
ability	-685
▁mem	-686
ince	-687
round	-688
allen	-689
▁cost	-690
▁adv	-691
▁Wh	-692
▁help	-693
▁investment	-694
▁first	-695
▁sur	-696
▁off	-697
▁national	-698
▁requ	-699
▁resp	-700
aw	-701
▁banks	-702
▁change	-703
▁On	-704
▁ass	-705
led	-706
▁last	-707
rib	-708
▁techn	-709
▁examp	-710
ajor	-711
ential	-712
▁af	-713
▁state	-714
▁trade	-715
▁redu	-716
▁fund	-717
ump	-718
cal	-719
▁ob	-720
ri	-721
ergy	-722
▁current	-723
aking	-724
▁sim	-725
▁reform	-726
▁result	-727
loy	-728
▁through	-729
ty	-730
ilit	-731
rat	-732
▁bo	-733
▁$	-734
▁tax	-735
▁sub	-736
orts	-737
▁sign	-738
▁markets	-739
▁infl	-740
▁seem	-741
▁conc	-742
▁major	-743
utions	-744
▁partic	-745
▁against	-746
ized	-747
▁cre	-748
▁Is	-749
▁example	-750
▁appro	-751
▁health	-752
▁both	-753
les	-754
▁kn	-755
▁hum	-756
▁If	-757
▁ext	-758
fere	-759
gest	-760
▁great	-761
ging	-762
▁democ	-763
oun	-764
ically	-765
▁region	-766
DP	-767
▁become	-768
ract	-769
▁too	-770
▁Germ	-771
▁good	-772
▁where	-773
▁challen	-774
ood	-775
▁rates	-776
▁ke	-777
day	-778
▁cor	-779
▁aut	-780
▁Se	-781
▁after	-782
▁make	-783
ram	-784
iness	-785
urity	-786
▁lo	-787
ting	-788
xt	-789
▁important	-790
▁governments	-791
▁foreign	-792
▁development	-793
▁social	-794
▁demand	-795
ices	-796
▁est	-797
ts	-798
▁energy	-799
▁economies	-800
ink	-801
▁instit	-802
ortun	-803
▁bu	-804
▁strate	-805
ather	-806
▁fail	-807
apan	-808
gan	-809
▁Tr	-810
ploy	-811
ready	-812
not	-813
▁bene	-814
ending	-815
▁emer	-816
ater	-817
▁policies	-818
▁fut	-819
ron	-820
▁sol	-821
▁risk	-822
▁dom	-823
▁President	-824
▁rest	-825
▁prom	-826
▁prot	-827
▁serv	-828
▁Japan	-829
▁does	-830
▁technolog	-831
ense	-832
▁still	-833
▁val	-834
als	-835
▁every	-836
▁back	-837
ays	-838
fore	-839
▁GDP	-840
▁More	-841
▁today	-842
ath	-843
▁offic	-844
less	-845
ision	-846
▁That	-847
▁Brit	-848
ft	-849
omm	-850
▁future	-851
usiness	-852
ually	-853
▁already	-854
▁iss	-855
▁ret	-856
▁cour	-857
▁States	-858
ning	-859
,”	-860
▁rate	-861
etary	-862
▁level	-863
▁Russia	-864
▁bas	-865
iscal	-866
▁cred	-867
▁billion	-868
ingly	-869
▁consum	-870
▁sa	-871
eg	-872
ians	-873
▁same	-874
0%	-875
▁strong	-876
ined	-877
ten	-878
eration	-879
zone	-880
▁use	-881
ially	-882
▁milit	-883
▁equ	-884
▁human	-885
outh	-886
▁main	-887
▁ins	-888
▁problem	-889
▁indust	-890
▁low	-891
iew	-892
ck	-893
▁3	-894
▁leg	-895
▁pur	-896
▁West	-897
▁benef	-898
▁ed	-899
▁el	-900
▁Africa	-901
rast	-902
ality	-903
▁since	-904
▁product	-905
ants	-906
ctor	-907
▁differe	-908
▁business	-909
▁set	-910
▁likely	-911
ran	-912
der	-913
▁sm	-914
▁fiscal	-915
ouse	-916
▁being	-917
▁ann	-918
▁central	-919
▁might	-920
▁short	-921
ared	-922
▁Trump	-923
▁climate	-924
iron	-925
ably	-926
ges	-927
▁regul	-928
▁Indeed	-929
▁American	-930
ily	-931
▁take	-932
other	-933
inc	-934
▁pos	-935
▁Bank	-936
▁disc	-937
▁Asia	-938
).	-939
▁priv	-940
▁const	-941
▁elect	-942
pl	-943
▁es	-944
abor	-945
hing	-946
▁see	-947
▁term	-948
ccess	-949
▁op	-950
▁without	-951
▁V	-952
),	-953
tern	-954
▁prices	-955
▁br	-956
ving	-957
▁commun	-958
ss	-959
▁made	-960
imes	-961
mental	-962
▁point	-963
▁particul	-964
ior	-965
ness	-966
bers	-967
ever	-968
ider	-969
▁reas	-970
▁decl	-971
▁including	-972
ved	-973
▁To	-974
ger	-975
▁threat	-976
▁De	-977
ieve	-978
▁bel	-979
▁down	-980
▁vot	-981
▁India	-982
▁military	-983
▁compet	-984
ines	-985
▁cannot	-986
▁med	-987
▁better	-988
hold	-989
▁educ	-990
▁ser	-991
ertain	-992
ency	-993
▁With	-994
ged	-995
▁eurozone	-996
▁call	-997
ell	-998
▁poss	-999
▁success	-1000
▁neg	-1001
▁stand	-1002
▁expect	-1003
▁env	-1004
▁impro	-1005
▁job	-1006
abl	-1007
land	-1008
here	-1009
ivers	-1010
▁agree	-1011
▁quest	-1012
▁At	-1013
▁pers	-1014
▁states	-1015
cond	-1016
▁know	-1017
▁fac	-1018
▁ter	-1019
ex	-1020
hor	-1021
uel	-1022
▁aff	-1023
▁did	-1024
▁hig	-1025
ience	-1026
anies	-1027
cept	-1028
▁often	-1029
▁toward	-1030
ructure	-1031
▁million	-1032
▁dist	-1033
stain	-1034
▁ide	-1035
▁imm	-1036
▁We	-1037
▁contro	-1038
▁Germany	-1039
▁another	-1040
idd	-1041
▁Wor	-1042
▁start	-1043
▁ev	-1044
ollow	-1045
▁prop	-1046
ars	-1047
▁clo	-1048
▁course	-1049
▁security	-1050
▁sustain	-1051
▁process	-1052
▁approach	-1053
▁account	-1054
▁environ	-1055
li	-1056
▁dire	-1057
▁hard	-1058
arch	-1059
ents	-1060
lement	-1061
▁ant	-1062
ately	-1063
orth	-1064
ources	-1065
▁three	-1066
racy	-1067
▁order	-1068
▁There	-1069
▁ap	-1070
▁Int	-1071
▁curren	-1072
▁East	-1073
▁companies	-1074
▁arg	-1075
▁then	-1076
ployment	-1077
uclear	-1078
ered	-1079
ivity	-1080
▁hist	-1081
▁They	-1082
▁Union	-1083
ury	-1084
▁move	-1085
▁past	-1086
▁pres	-1087
▁turn	-1088
▁trad	-1089
▁law	-1090
▁monetary	-1091
ute	-1092
▁av	-1093
▁meas	-1094
▁So	-1095
▁pot	-1096
▁rul	-1097
▁allow	-1098
▁pay	-1099
▁view	-1100
self	-1101
▁ine	-1102
ocus	-1103
ross	-1104
rem	-1105
▁before	-1106
cing	-1107
▁few	-1108
▁very	-1109
ades	-1110
▁loc	-1111
iving	-1112
road	-1113
▁put	-1114
▁rev	-1115
▁protect	-1116
▁address	-1117
▁least	-1118
stand	-1119
▁around	-1120
▁eas	-1121
▁among	-1122
▁official	-1123
▁institutions	-1124
▁ens	-1125
▁Fr	-1126
▁child	-1127
ivid	-1128
▁next	-1129
▁Moreover	-1130
por	-1131
osed	-1132
uge	-1133
▁South	-1134
▁follow	-1135
▁lim	-1136
▁Al	-1137
▁Iran	-1138
▁focus	-1139
▁income	-1140
▁increase	-1141
ening	-1142
▁role	-1143
▁chang	-1144
▁tar	-1145
▁opportun	-1146
most	-1147
▁private	-1148
itions	-1149
ued	-1150
▁inflation	-1151
estic	-1152
▁Comm	-1153
▁labor	-1154
▁press	-1155
▁president	-1156
▁exper	-1157
ves	-1158
▁Fed	-1159
ead	-1160
ick	-1161
▁car	-1162
▁adm	-1163
▁plan	-1164
urther	-1165
▁author	-1166
roup	-1167
▁potential	-1168
▁ach	-1169
▁weak	-1170
ph	-1171
oney	-1172
▁needs	-1173
▁Re	-1174
ying	-1175
▁inn	-1176
▁num	-1177
▁rise	-1178
▁World	-1179
rug	-1180
vere	-1181
▁form	-1182
▁5	-1183
▁199	-1184
iddle	-1185
▁nuclear	-1186
▁whether	-1187
io	-1188
▁credit	-1189
ittle	-1190
▁prof	-1191
▁defic	-1192
▁problems	-1193
▁developing	-1194
▁play	-1195
omen	-1196
ages	-1197
▁ful	-1198
▁effective	-1199
▁members	-1200
pecially	-1201
▁domestic	-1202
aps	-1203
▁lif	-1204
aly	-1205
ances	-1206
up	-1207
▁mat	-1208
▁spec	-1209
lection	-1210
ratic	-1211
▁signific	-1212
▁rather	-1213
▁project	-1214
ama	-1215
ush	-1216
olution	-1217
▁though	-1218
gin	-1219
▁higher	-1220
▁asse	-1221
▁doll	-1222
▁model	-1223
▁establ	-1224
▁little	-1225
ining	-1226
ibility	-1227
▁share	-1228
▁remains	-1229
▁clear	-1230
▁needed	-1231
ted	-1232
ering	-1233
ix	-1234
▁beh	-1235
▁money	-1236
change	-1237
▁sector	-1238
▁case	-1239
▁gu	-1240
▁vi	-1241
akes	-1242
▁bal	-1243
▁Ob	-1244
▁especially	-1245
ished	-1246
ock	-1247
ases	-1248
▁crit	-1249
▁gener	-1250
▁par	-1251
▁run	-1252
▁costs	-1253
aim	-1254
air	-1255
for	-1256
aus	-1257
ner	-1258
▁Kore	-1259
itional	-1260
▁services	-1261
itive	-1262
▁education	-1263
▁continue	-1264
ling	-1265
▁month	-1266
▁reason	-1267
▁When	-1268
▁concern	-1269
▁emerging	-1270
▁different	-1271
▁significant	-1272
▁non	-1273
pid	-1274
▁pros	-1275
▁societ	-1276
ened	-1277
imin	-1278
ficult	-1279
▁Intern	-1280
ret	-1281
▁ren	-1282
▁difficult	-1283
▁hal	-1284
formation	-1285
com	-1286
▁dr	-1287
rael	-1288
▁progress	-1289
▁show	-1290
ogn	-1291
▁cut	-1292
▁key	-1293
inister	-1294
▁spending	-1295
▁4	-1296
▁means	-1297
▁access	-1298
ork	-1299
▁ph	-1300
▁innov	-1301
ission	-1302
▁free	-1303
acy	-1304
itiz	-1305
▁decades	-1306
cies	-1307
anced	-1308
▁come	-1309
ides	-1310
▁big	-1311
▁why	-1312
▁small	-1313
▁meet	-1314
▁peace	-1315
▁further	-1316
ird	-1317
▁find	-1318
idence	-1319
▁control	-1320
rastructure	-1321
▁fe	-1322
▁fall	-1323
▁happ	-1324
▁currency	-1325
▁suff	-1326
▁price	-1327
▁efforts	-1328
▁during	-1329
▁build	-1330
▁Israel	-1331
▁simp	-1332
▁group	-1333
ash	-1334
▁increasingly	-1335
▁cond	-1336
▁rese	-1337
▁reforms	-1338
▁get	-1339
▁poor	-1340
▁gain	-1341
▁relations	-1342
▁Yet	-1343
▁say	-1344
istan	-1345
izing	-1346
wh	-1347
▁conflic	-1348
▁requi	-1349
ave	-1350
ators	-1351
▁deep	-1352
sequ	-1353
▁Obama	-1354
▁integ	-1355
▁local	-1356
▁appe	-1357
▁eng	-1358
▁citiz	-1359
▁longer	-1360
▁respons	-1361
▁growing	-1362
▁ago	-1363
▁shif	-1364
▁industr	-1365
▁question	-1366
oti	-1367
ON	-1368
▁slow	-1369
▁almost	-1370
▁target	-1371
▁serious	-1372
pite	-1373
▁care	-1374
▁prevent	-1375
rate	-1376
▁init	-1377
▁however	-1378
▁require	-1379
arm	-1380
reed	-1381
▁treat	-1382
ata	-1383
▁Rep	-1384
▁mass	-1385
icient	-1386
rop	-1387
▁given	-1388
▁yet	-1389
vious	-1390
▁within	-1391
way	-1392
▁challenges	-1393
reng	-1394
000	-1395
▁hold	-1396
▁UK	-1397
▁resources	-1398
▁oil	-1399
▁itself	-1400
▁strateg	-1401
▁infrastructure	-1402
▁col	-1403
▁stud	-1404
▁recently	-1405
▁democracy	-1406
ror	-1407
pris	-1408
▁best	-1409
,000	-1410
lam	-1411
▁lower	-1412
▁seems	-1413
▁One	-1414
▁An	-1415
▁streng	-1416
▁return	-1417
▁event	-1418
▁house	-1419
▁benefits	-1420
ale	-1421
rab	-1422
▁nat	-1423
ention	-1424
▁claim	-1425
▁recogn	-1426
▁consider	-1427
▁He	-1428
▁viol	-1429
udget	-1430
▁While	-1431
5%	-1432
▁cho	-1433
▁tru	-1434
verage	-1435
▁ur	-1436
▁comple	-1437
▁lib	-1438
▁want	-1439
yn	-1440
acc	-1441
▁second	-1442
▁population	-1443
▁contrib	-1444
▁greater	-1445
ences	-1446
epend	-1447
▁enough	-1448
▁member	-1449
hes	-1450
▁bor	-1451
▁rapid	-1452
▁impact	-1453
te	-1454
akers	-1455
ording	-1456
▁particularly	-1457
▁After	-1458
ased	-1459
▁found	-1460
▁negoti	-1461
▁By	-1462
▁fam	-1463
▁lack	-1464
▁women	-1465
▁citizens	-1466
▁interests	-1467
▁others	-1468
20	-1469
▁common	-1470
omet	-1471
▁think	-1472
▁Part	-1473
▁workers	-1474
▁investors	-1475
▁sug	-1476
▁understand	-1477
▁terms	-1478
cent	-1479
ided	-1480
▁caus	-1481
▁France	-1482
▁pred	-1483
▁These	-1484
▁strategy	-1485
nce	-1486
▁risks	-1487
▁Be	-1488
ivil	-1489
▁organ	-1490
ners	-1491
ier	-1492
ool	-1493
▁er	-1494
▁pat	-1495
▁home	-1496
▁post	-1497
where	-1498
ned	-1499
▁her	-1500
ither	-1501
▁value	-1502
▁budget	-1503
ession	-1504
▁rights	-1505
▁camp	-1506
▁used	-1507
▁direct	-1508
▁sav	-1509
▁hand	-1510
▁half	-1511
▁administ	-1512
▁War	-1513
▁election	-1514
▁coll	-1515
lus	-1516
▁broad	-1517
▁number	-1518
ope	-1519
empt	-1520
▁depend	-1521
atic	-1522
tain	-1523
selves	-1524
▁suggest	-1525
ai	-1526
▁Gree	-1527
▁Britain	-1528
▁reduce	-1529
▁6	-1530
the	-1531
▁bond	-1532
onal	-1533
▁data	-1534
▁create	-1535
▁oper	-1536
ateral	-1537
▁occ	-1538
makers	-1539
▁certain	-1540
▁provide	-1541
▁Korea	-1542
▁cle	-1543
▁mean	-1544
▁Ar	-1545
▁Arab	-1546
▁mult	-1547
▁open	-1548
▁min	-1549
▁Even	-1550
atives	-1551
▁ensure	-1552
▁rising	-1553
ield	-1554
ression	-1555
▁children	-1556
▁my	-1557
▁relative	-1558
ug	-1559
▁you	-1560
▁rules	-1561
▁report	-1562
be	-1563
▁possible	-1564
lf	-1565
iqu	-1566
▁New	-1567
▁Tur	-1568
yr	-1569
▁she	-1570
▁thus	-1571
▁simil	-1572
▁jobs	-1573
▁implement	-1574
▁never	-1575
▁improve	-1576
▁gr	-1577
gent	-1578
like	-1579
▁coop	-1580
▁British	-1581
▁reflect	-1582
▁exchange	-1583
▁force	-1584
▁measures	-1585
ipl	-1586
oura	-1587
▁Cent	-1588
rime	-1589
▁spe	-1590
▁land	-1591
▁leadership	-1592
▁levels	-1593
iod	-1594
▁step	-1595
▁civil	-1596
▁deal	-1597
▁left	-1598
overty	-1599
▁face	-1600
▁place	-1601
vention	-1602
▁Western	-1603
▁Con	-1604
▁youn	-1605
▁consequ	-1606
▁regional	-1607
▁Sp	-1608
come	-1609
▁cult	-1610
▁fuel	-1611
▁agreement	-1612
▁enc	-1613
▁purs	-1614
just	-1615
▁fl	-1616
▁each	-1617
ived	-1618
▁2008	-1619
▁life	-1620
lation	-1621
haps	-1622
▁dev	-1623
▁finance	-1624
aged	-1625
▁systems	-1626
ards	-1627
bon	-1628
▁begin	-1629
▁dollar	-1630
▁struct	-1631
▁individ	-1632
▁fear	-1633
▁bl	-1634
oid	-1635
yond	-1636
▁consumption	-1637
▁Fin	-1638
▁politics	-1639
▁stability	-1640
▁technology	-1641
▁challenge	-1642
▁action	-1643
side	-1644
▁ear	-1645
▁boost	-1646
▁influ	-1647
▁disp	-1648
▁funda	-1649
▁balance	-1650
man	-1651
ified	-1652
▁terror	-1653
abil	-1654
▁deb	-1655
▁stat	-1656
▁commit	-1657
▁individual	-1658
oint	-1659
chool	-1660
▁Republic	-1661
ceed	-1662
▁blo	-1663
▁ever	-1664
ik	-1665
▁dest	-1666
gether	-1667
▁together	-1668
▁Sh	-1669
▁dang	-1670
▁poverty	-1671
▁productivity	-1672
ront	-1673
▁che	-1674
▁dou	-1675
▁What	-1676
▁attack	-1677
ilateral	-1678
▁household	-1679
▁Pol	-1680
▁anti	-1681
ination	-1682
▁former	-1683
aken	-1684
▁net	-1685
▁char	-1686
RI	-1687
▁him	-1688
rex	-1689
▁tal	-1690
▁exist	-1691
▁issues	-1692
▁four	-1693
▁wealth	-1694
▁decision	-1695
kra	-1696
ised	-1697
▁themselves	-1698
▁firms	-1699
▁gra	-1700
▁met	-1701
emoc	-1702
then	-1703
▁unt	-1704
acity	-1705
▁across	-1706
▁Of	-1707
▁comb	-1708
issions	-1709
▁necess	-1710
▁ru	-1711
istic	-1712
▁expl	-1713
▁pract	-1714
▁head	-1715
▁accept	-1716
▁export	-1717
raw	-1718
▁$1	-1719
ming	-1720
▁saf	-1721
▁Ukra	-1722
uation	-1723
▁manage	-1724
though	-1725
▁increased	-1726
raz	-1727
▁annual	-1728
▁program	-1729
conomic	-1730
igration	-1731
▁look	-1732
ys	-1733
ban	-1734
▁En	-1735
irst	-1736
▁news	-1737
erve	-1738
▁once	-1739
CB	-1740
▁fight	-1741
▁Sec	-1742
▁times	-1743
▁repres	-1744
▁sing	-1745
▁able	-1746
▁North	-1747
▁based	-1748
▁initi	-1749
quality	-1750
▁making	-1751
0.	-1752
▁tre	-1753
▁borrow	-1754
▁politic	-1755
ee	-1756
dom	-1757
▁Syr	-1758
▁emb	-1759
▁extrem	-1760
▁believe	-1761
▁conflict	-1762
▁period	-1763
ins	-1764
aign	-1765
▁similar	-1766
▁developed	-1767
▁sure	-1768
▁history	-1769
ways	-1770
▁food	-1771
▁bring	-1772
▁somet	-1773
▁achieve	-1774
ah	-1775
▁top	-1776
▁early	-1777
ruption	-1778
▁research	-1779
▁7	-1780
rupt	-1781
▁Islam	-1782
▁amount	-1783
▁sl	-1784
cial	-1785
reak	-1786
▁young	-1787
▁officials	-1788
▁campaign	-1789
▁strengthen	-1790
raq	-1791
▁tot	-1792
iation	-1793
▁refuge	-1794
▁becom	-1795
az	-1796
igr	-1797
▁sk	-1798
veral	-1799
▁keep	-1800
▁true	-1801
▁decade	-1802
▁old	-1803
▁sense	-1804
▁society	-1805
▁independ	-1806
▁information	-1807
den	-1808
omp	-1809
▁Iraq	-1810
rexit	-1811
▁modern	-1812
▁administration	-1813
▁entire	-1814
ively	-1815
▁close	-1816
▁cr	-1817
▁sit	-1818
▁Central	-1819
razil	-1820
▁dise	-1821
▁loss	-1822
isions	-1823
▁promot	-1824
▁maintain	-1825
rodu	-1826
▁bord	-1827
▁five	-1828
▁areas	-1829
▁corpor	-1830
▁largest	-1831
▁establish	-1832
▁policymakers	-1833
ief	-1834
▁encoura	-1835
fact	-1836
▁dam	-1837
▁water	-1838
▁average	-1839
▁effects	-1840
▁community	-1841
cil	-1842
▁else	-1843
yp	-1844
ler	-1845
▁adop	-1846
▁ECB	-1847
arent	-1848
▁issue	-1849
▁union	-1850
▁la	-1851
onse	-1852
▁Inst	-1853
▁changes	-1854
▁conditions	-1855
to	-1856
▁regime	-1857
▁recover	-1858
▁advanced	-1859
ource	-1860
utional	-1861
▁UN	-1862
▁led	-1863
▁sovere	-1864
ium	-1865
▁aim	-1866
illions	-1867
▁Middle	-1868
▁simply	-1869
▁single	-1870
▁deficit	-1871
▁environmental	-1872
key	-1873
rench	-1874
▁century	-1875
▁working	-1876
▁pressure	-1877
pped	-1878
▁rule	-1879
aring	-1880
▁unem	-1881
▁liberal	-1882
▁rece	-1883
▁forces	-1884
ean	-1885
ify	-1886
▁gre	-1887
lia	-1888
▁Some	-1889
▁hope	-1890
aster	-1891
▁position	-1892
▁opportunity	-1893
▁avoid	-1894
▁danger	-1895
▁response	-1896
uing	-1897
▁Res	-1898
▁reach	-1899
▁Brazil	-1900
wise	-1901
arian	-1902
▁industry	-1903
rag	-1904
gypt	-1905
▁unc	-1906
▁supply	-1907
▁parties	-1908
▁despite	-1909
king	-1910
▁Par	-1911
▁oppos	-1912
min	-1913
▁198	-1914
▁total	-1915
▁Minister	-1916
▁Egypt	-1917
▁Party	-1918
▁requires	-1919
ufact	-1920
▁Asian	-1921
0’	-1922
▁expand	-1923
mm	-1924
ina	-1925
▁creat	-1926
▁Cl	-1927
▁employment	-1928
▁done	-1929
▁Italy	-1930
▁Turkey	-1931
▁regard	-1932
▁African	-1933
▁production	-1934
ctions	-1935
▁International	-1936
▁All	-1937
▁abs	-1938
▁full	-1939
▁capacity	-1940
ival	-1941
iting	-1942
▁coal	-1943
▁consequences	-1944
▁Or	-1945
ising	-1946
▁democratic	-1947
▁mar	-1948
▁shift	-1949
▁several	-1950
▁emissions	-1951
▁bad	-1952
▁effort	-1953
▁created	-1954
▁environment	-1955
▁subst	-1956
▁cooperation	-1957
cl	-1958
▁Democ	-1959
▁always	-1960
▁exports	-1961
▁massive	-1962
▁manufact	-1963
▁ess	-1964
incip	-1965
▁lear	-1966
▁Ukraine	-1967
down	-1968
oral	-1969
▁Americans	-1970
▁ident	-1971
▁school	-1972
▁vict	-1973
cut	-1974
▁test	-1975
▁assum	-1976
▁structural	-1977
▁excess	-1978
▁banking	-1979
▁innovation	-1980
▁media	-1981
aging	-1982
ricult	-1983
▁Greece	-1984
▁predict	-1985
▁8	-1986
ended	-1987
▁politicians	-1988
ds	-1989
based	-1990
▁flow	-1991
▁alone	-1992
▁leading	-1993
▁norm	-1994
▁invol	-1995
imul	-1996
▁sustainable	-1997
▁Cong	-1998
▁kind	-1999
ruction	-2000
▁King	-2001
▁Brexit	-2002
▁princip	-2003
▁clos	-2004
liament	-2005
▁unlike	-2006
iplom	-2007
▁death	-2008
▁perform	-2009
▁strategic	-2010
lt	-2011
▁cy	-2012
ring	-2013
wide	-2014
▁taken	-2015
▁day	-2016
▁Bush	-2017
rated	-2018
▁failed	-2019
ighb	-2020
▁trillion	-2021
ills	-2022
▁industrial	-2023
▁said	-2024
▁called	-2025
▁unemployment	-2026
alest	-2027
▁funds	-2028
iversity	-2029
▁decline	-2030
ured	-2031
▁poll	-2032
▁histor	-2033
▁authorities	-2034
▁vis	-2035
▁self	-2036
▁voters	-2037
▁Acc	-2038
▁agg	-2039
▁stimul	-2040
rec	-2041
ensive	-2042
▁don	-2043
▁prob	-2044
▁ways	-2045
▁French	-2046
▁beyond	-2047
oday	-2048
▁Pro	-2049
▁makes	-2050
iveness	-2051
▁respect	-2052
by	-2053
▁whose	-2054
▁nearly	-2055
▁largely	-2056
▁prosper	-2057
utin	-2058
atory	-2059
▁Cons	-2060
▁drug	-2061
lim	-2062
▁Le	-2063
▁bar	-2064
itted	-2065
▁proper	-2066
▁expected	-2067
reg	-2068
market	-2069
▁Today	-2070
▁cause	-2071
ortunately	-2072
▁object	-2073
edi	-2074
line	-2075
rong	-2076
▁diplom	-2077
▁transp	-2078
rad	-2079
▁fav	-2080
ected	-2081
ented	-2082
▁goods	-2083
ends	-2084
alled	-2085
▁scient	-2086
ently	-2087
▁Commission	-2088
ched	-2089
▁assets	-2090
▁Afgh	-2091
▁values	-2092
▁economists	-2093
▁Such	-2094
▁particular	-2095
0,	-2096
rams	-2097
▁until	-2098
▁counter	-2099
▁technologies	-2100
▁Given	-2101
▁Fund	-2102
▁having	-2103
ne	-2104
▁prec	-2105
▁projects	-2106
iding	-2107
▁lives	-2108
▁incent	-2109
▁essential	-2110
▁inequality	-2111
lev	-2112
▁powerful	-2113
ien	-2114
▁Many	-2115
▁partners	-2116
▁cities	-2117
▁attempt	-2118
fer	-2119
ctors	-2120
▁began	-2121
▁months	-2122
▁underm	-2123
▁Develop	-2124
▁opt	-2125
▁stock	-2126
▁successful	-2127
▁integration	-2128
▁tem	-2129
▁party	-2130
istance	-2131
▁altern	-2132
▁neighb	-2133
▁experience	-2134
▁increasing	-2135
▁opportunities	-2136
ories	-2137
▁fram	-2138
▁Afghan	-2139
▁particip	-2140
▁investments	-2141
irc	-2142
▁ten	-2143
verse	-2144
▁doing	-2145
▁quick	-2146
▁ability	-2147
sw	-2148
▁mis	-2149
▁mov	-2150
▁natural	-2151
▁respond	-2152
▁agricult	-2153
▁class	-2154
▁influence	-2155
bi	-2156
▁Now	-2157
▁2015	-2158
▁activ	-2159
▁constit	-2160
▁fundamental	-2161
enda	-2162
rade	-2163
▁vol	-2164
▁reven	-2165
▁governance	-2166
▁Palest	-2167
▁popular	-2168
AN	-2169
uted	-2170
▁gas	-2171
ternal	-2172
▁trend	-2173
▁ill	-2174
▁bonds	-2175
▁perhaps	-2176
mber	-2177
▁dig	-2178
▁lost	-2179
▁soon	-2180
▁subs	-2181
▁determ	-2182
oment	-2183
while	-2184
▁away	-2185
▁Kingdom	-2186
▁programs	-2187
▁German	-2188
lies	-2189
▁path	-2190
▁owing	-2191
▁197	-2192
▁idea	-2193
▁comes	-2194
▁adjust	-2195
▁leader	-2196
▁necessary	-2197
▁advant	-2198
▁debate	-2199
▁traditional	-2200
▁AI	-2201
▁aid	-2202
▁goal	-2203
▁rich	-2204
ream	-2205
▁obs	-2206
ights	-2207
head	-2208
arily	-2209
▁weap	-2210
▁domin	-2211
▁relationship	-2212
▁bur	-2213
▁del	-2214
ously	-2215
▁violence	-2216
ored	-2217
▁May	-2218
aving	-2219
▁Prime	-2220
▁prior	-2221
▁Nations	-2222
▁Russian	-2223
▁According	-2224
put	-2225
▁ge	-2226
ises	-2227
▁win	-2228
thing	-2229
▁elections	-2230
reedom	-2231
set	-2232
hood	-2233
▁Bar	-2234
▁unp	-2235
▁design	-2236
▁var	-2237
force	-2238
▁along	-2239
▁Global	-2240
▁highly	-2241
ym	-2242
▁Coun	-2243
▁behind	-2244
▁groups	-2245
ape	-2246
icy	-2247
lying	-2248
▁Syria	-2249
▁prim	-2250
▁evidence	-2251
▁break	-2252
▁Congress	-2253
MF	-2254
▁9	-2255
▁recovery	-2256
▁propos	-2257
▁Council	-2258
▁Mon	-2259
▁vir	-2260
▁later	-2261
▁sw	-2262
ulner	-2263
▁moment	-2264
▁taking	-2265
▁corruption	-2266
▁san	-2267
▁First	-2268
▁external	-2269
▁Ag	-2270
▁enter	-2271
akistan	-2272
▁surpris	-2273
oh	-2274
aced	-2275
▁status	-2276
▁benefit	-2277
▁amb	-2278
▁Putin	-2279
ember	-2280
▁actually	-2281
▁contrast	-2282
▁attention	-2283
1,	-2284
med	-2285
▁air	-2286
▁probably	-2287
ledge	-2288
▁estim	-2289
▁wrong	-2290
▁failure	-2291
▁pass	-2292
chan	-2293
▁IMF	-2294
▁cat	-2295
▁financing	-2296
▁ult	-2297
▁indic	-2298
▁majority	-2299
urs	-2300
▁third	-2301
▁complex	-2302
▁discuss	-2303
▁Pe	-2304
▁demon	-2305
▁substant	-2306
▁mob	-2307
minbi	-2308
▁live	-2309
▁using	-2310
omb	-2311
▁rat	-2312
uslim	-2313
▁give	-2314
▁previous	-2315
▁recession	-2316
erves	-2317
▁framew	-2318
▁vulner	-2319
▁territ	-2320
▁reality	-2321
▁wide	-2322
▁worse	-2323
igrants	-2324
▁record	-2325
▁Instead	-2326
▁avail	-2327
▁cases	-2328
▁agenda	-2329
▁solution	-2330
olit	-2331
oring	-2332
▁achie	-2333
▁asset	-2334
▁uncertain	-2335
▁rad	-2336
▁argu	-2337
▁feel	-2338
ulation	-2339
▁coming	-2340
▁middle	-2341
▁nothing	-2342
▁National	-2343
▁eth	-2344
▁wee	-2345
▁taxes	-2346
▁Pakistan	-2347
▁revolution	-2348
▁situation	-2349
▁attract	-2350
▁prospect	-2351
▁exc	-2352
▁immedi	-2353
▁extreme	-2354
TO	-2355
▁lat	-2356
▁huge	-2357
▁legit	-2358
▁larger	-2359
▁living	-2360
▁renminbi	-2361
▁decisions	-2362
▁farm	-2363
▁perm	-2364
▁shar	-2365
▁things	-2366
rats	-2367
itarian	-2368
▁limited	-2369
▁Europeans	-2370
▁Development	-2371
▁competition	-2372
▁seen	-2373
▁Argent	-2374
▁meeting	-2375
▁manufacturing	-2376
▁Like	-2377
▁behav	-2378
▁legal	-2379
▁include	-2380
▁circ	-2381
▁Muslim	-2382
▁defense	-2383
rep	-2384
▁corporate	-2385
go	-2386
▁z	-2387
leg	-2388
▁jo	-2389
▁either	-2390
izations	-2391
▁demonst	-2392
▁represent	-2393
▁nar	-2394
uster	-2395
▁rein	-2396
▁vote	-2397
▁How	-2398
▁expans	-2399
▁reducing	-2400
▁relatively	-2401
ton	-2402
rugg	-2403
▁carbon	-2404
▁commitment	-2405
year	-2406
▁pow	-2407
▁easy	-2408
▁kill	-2409
▁relig	-2410
▁Lat	-2411
▁cru	-2412
▁late	-2413
income	-2414
▁announ	-2415
▁subsid	-2416
▁di	-2417
▁ign	-2418
called	-2419
itable	-2420
het	-2421
▁den	-2422
▁answ	-2423
imately	-2424
ets	-2425
▁ve	-2426
ters	-2427
arant	-2428
▁read	-2429
▁purch	-2430
▁willing	-2431
▁strugg	-2432
▁standards	-2433
arter	-2434
rought	-2435
▁renew	-2436
▁solutions	-2437
sh	-2438
agn	-2439
vest	-2440
▁fed	-2441
chanism	-2442
▁ground	-2443
▁collect	-2444
▁concerns	-2445
▁refugees	-2446
▁continent	-2447
▁sharp	-2448
▁indeed	-2449
▁freedom	-2450
▁produce	-2451
▁elsewhere	-2452
▁Afghanistan	-2453
▁words	-2454
▁became	-2455
EW	-2456
tle	-2457
▁resol	-2458
▁really	-2459
▁general	-2460
▁Ge	-2461
▁refere	-2462
▁held	-2463
▁green	-2464
▁employ	-2465
▁expert	-2466
plus	-2467
OR	-2468
▁1.	-2469
utes	-2470
▁near	-2471
ancing	-2472
ung	-2473
▁quickly	-2474
rel	-2475
▁Ex	-2476
▁NEW	-2477
▁Sim	-2478
▁jud	-2479
ensus	-2480
▁miss	-2481
▁favor	-2482
▁weapons	-2483
▁protection	-2484
▁took	-2485
▁powers	-2486
▁explain	-2487
▁guarant	-2488
▁Palestin	-2489
▁dyn	-2490
▁digital	-2491
ification	-2492
▁deficits	-2493
▁something	-2494
rict	-2495
▁heav	-2496
ological	-2497
▁science	-2498
▁businesses	-2499
ired	-2500
▁arr	-2501
ception	-2502
onald	-2503
ension	-2504
▁urban	-2505
DG	-2506
▁Latin	-2507
▁currently	-2508
▁established	-2509
▁above	-2510
▁products	-2511
▁expansion	-2512
50	-2513
▁severe	-2514
use	-2515
osing	-2516
▁mist	-2517
▁positive	-2518
▁Mean	-2519
▁conv	-2520
▁prep	-2521
▁tool	-2522
▁Spain	-2523
▁Internet	-2524
▁unlikely	-2525
▁following	-2526
▁Can	-2527
oviet	-2528
▁known	-2529
▁offer	-2530
▁surplus	-2531
▁generation	-2532
▁performance	-2533
▁2013	-2534
▁hous	-2535
▁disease	-2536
▁Ro	-2537
rary	-2538
▁deli	-2539
▁introdu	-2540
▁Meanwhile	-2541
▁confidence	-2542
▁households	-2543
▁mind	-2544
▁movement	-2545
▁negotiations	-2546
ane	-2547
ici	-2548
ody	-2549
ones	-2550
▁ask	-2551
ached	-2552
▁sectors	-2553
▁behavior	-2554
▁presidential	-2555
aid	-2556
▁ce	-2557
iance	-2558
▁Most	-2559
▁reserves	-2560
▁worldwide	-2561
▁globalization	-2562
app	-2563
orn	-2564
▁crises	-2565
▁results	-2566
▁critical	-2567
▁certainly	-2568
▁continues	-2569
iated	-2570
making	-2571
▁millions	-2572
▁technological	-2573
▁ir	-2574
▁vision	-2575
▁funding	-2576
▁obvious	-2577
▁opposition	-2578
▁2014	-2579
▁legis	-2580
▁occur	-2581
▁matter	-2582
▁additional	-2583
▁Per	-2584
▁div	-2585
ature	-2586
▁fair	-2587
▁repl	-2588
▁ahead	-2589
▁below	-2590
▁Although	-2591
apse	-2592
iment	-2593
▁univers	-2594
▁becoming	-2595
▁creating	-2596
▁existing	-2597
▁beginning	-2598
▁framework	-2599
▁prosperity	-2600
▁institutional	-2601
kn	-2602
ext	-2603
ustr	-2604
▁art	-2605
▁uns	-2606
▁Since	-2607
▁Federal	-2608
▁mechanism	-2609
▁alternative	-2610
▁Sc	-2611
▁six	-2612
▁stop	-2613
▁cover	-2614
▁overall	-2615
▁sent	-2616
▁side	-2617
▁source	-2618
▁industries	-2619
▁laun	-2620
▁line	-2621
▁available	-2622
erb	-2623
▁Ab	-2624
ault	-2625
▁mort	-2626
▁sovereign	-2627
crib	-2628
ular	-2629
▁typ	-2630
▁dram	-2631
▁leave	-2632
▁scale	-2633
ressive	-2634
ya	-2635
▁boom	-2636
▁Great	-2637
▁dynam	-2638
▁commod	-2639
▁factors	-2640
▁transition	-2641
▁Ad	-2642
ator	-2643
hest	-2644
▁host	-2645
▁insur	-2646
▁raise	-2647
▁recognize	-2648
oph	-2649
phas	-2650
▁fig	-2651
iquid	-2652
▁tend	-2653
▁output	-2654
▁spread	-2655
▁consumer	-2656
▁loans	-2657
▁caused	-2658
▁reasons	-2659
-1	-2660
ots	-2661
exic	-2662
▁link	-2663
usterity	-2664
▁continued	-2665
ees	-2666
ero	-2667
uth	-2668
acro	-2669
omin	-2670
part	-2671
▁fle	-2672
ordin	-2673
▁gains	-2674
▁rough	-2675
unction	-2676
▁clearly	-2677
▁responsibility	-2678
SE	-2679
bo	-2680
loc	-2681
▁18	-2682
▁thing	-2683
▁organizations	-2684
IN	-2685
-20	-2686
▁mere	-2687
▁trou	-2688
▁Japanese	-2689
▁Monetary	-2690
▁contract	-2691
▁Argentina	-2692
▁doubt	-2693
▁distrib	-2694
▁advantage	-2695
hem	-2696
pro	-2697
▁Sw	-2698
▁let	-2699
▁mess	-2700
ressed	-2701
▁gradu	-2702
lin	-2703
ries	-2704
▁Mexic	-2705
▁incentives	-2706
▁canc	-2707
▁cand	-2708
▁federal	-2709
▁collapse	-2710
▁according	-2711
fortunately	-2712
▁management	-2713
ogra	-2714
omes	-2715
ology	-2716
▁inev	-2717
▁summ	-2718
▁helped	-2719
▁imposs	-2720
▁outcome	-2721
▁creation	-2722
ech	-2723
ili	-2724
▁models	-2725
une	-2726
lier	-2727
acter	-2728
▁jour	-2729
▁State	-2730
▁minister	-2731
▁stimulus	-2732
care	-2733
▁Des	-2734
▁rob	-2735
▁basic	-2736
▁worth	-2737
ilities	-2738
2,	-2739
sp	-2740
bol	-2741
aries	-2742
▁equity	-2743
▁Security	-2744
▁everyone	-2745
▁sanctions	-2746
af	-2747
▁came	-2748
▁surv	-2749
▁answer	-2750
▁center	-2751
▁emphas	-2752
▁negative	-2753
▁stronger	-2754
%.	-2755
pol	-2756
▁det	-2757
▁imper	-2758
▁Soviet	-2759
▁afford	-2760
▁Economic	-2761
▁cal	-2762
▁cuts	-2763
▁outside	-2764
▁special	-2765
▁competit	-2766
▁NA	-2767
▁liquid	-2768
▁rapidly	-2769
▁effectively	-2770
right	-2771
▁trust	-2772
▁facing	-2773
▁savings	-2774
account	-2775
▁candid	-2776
▁choice	-2777
▁company	-2778
▁protest	-2779
lig	-2780
▁ste	-2781
ograph	-2782
▁elimin	-2783
▁communities	-2784
equ	-2785
▁soft	-2786
action	-2787
▁flows	-2788
▁Second	-2789
▁focused	-2790
▁building	-2791
▁impossible	-2792
aud	-2793
aper	-2794
▁age	-2795
▁bub	-2796
▁suc	-2797
▁harm	-2798
▁repe	-2799
▁divid	-2800
▁macro	-2801
▁skills	-2802
▁allowed	-2803
▁forward	-2804
▁consumers	-2805
lling	-2806
▁Donald	-2807
▁points	-2808
▁internal	-2809
cle	-2810
▁Reserve	-2811
▁quality	-2812
▁succeed	-2813
hel	-2814
emic	-2815
▁writ	-2816
ortion	-2817
▁Commun	-2818
▁Govern	-2819
▁forced	-2820
▁implic	-2821
%,	-2822
do	-2823
els	-2824
erc	-2825
ilt	-2826
osp	-2827
ites	-2828
ware	-2829
▁deg	-2830
▁won	-2831
gence	-2832
▁personal	-2833
▁suggests	-2834
▁enterpris	-2835
7,	-2836
ients	-2837
ossil	-2838
▁shared	-2839
▁warming	-2840
▁required	-2841
▁austerity	-2842
▁treatment	-2843
of	-2844
▁No	-2845
▁wat	-2846
▁assoc	-2847
▁basis	-2848
▁men	-2849
▁affect	-2850
▁service	-2851
▁dangerous	-2852
▁transform	-2853
▁independence	-2854
off	-2855
▁conn	-2856
▁Barack	-2857
▁chance	-2858
▁roughly	-2859
▁economics	-2860
▁knowledge	-2861
unt	-2862
iter	-2863
▁mid	-2864
▁Geor	-2865
▁study	-2866
▁twent	-2867
▁damage	-2868
▁referend	-2869
nces	-2870
used	-2871
▁gap	-2872
▁Just	-2873
▁road	-2874
▁saving	-2875
▁borders	-2876
▁housing	-2877
▁activities	-2878
hens	-2879
economic	-2880
▁reached	-2881
▁parliament	-2882
iff	-2883
▁flo	-2884
celer	-2885
▁area	-2886
▁commer	-2887
▁thereby	-2888
▁experien	-2889
▁eventually	-2890
▁mot	-2891
▁2016	-2892
encies	-2893
ustain	-2894
work	-2895
ought	-2896
▁fast	-2897
opolit	-2898
▁assess	-2899
▁losses	-2900
▁reject	-2901
▁contain	-2902
▁societies	-2903
▁intervention	-2904
▁exe	-2905
▁fix	-2906
▁virt	-2907
ishing	-2908
▁explo	-2909
ensions	-2910
▁pursue	-2911
▁proposed	-2912
▁questions	-2913
▁regulation	-2914
▁belie	-2915
▁deter	-2916
▁vital	-2917
▁claims	-2918
▁critic	-2919
▁brought	-2920
▁constra	-2921
▁instead	-2922
draw	-2923
iety	-2924
ustom	-2925
▁extra	-2926
▁engage	-2927
▁normal	-2928
▁attacks	-2929
▁dollars	-2930
▁Col	-2931
abilities	-2932
▁regulatory	-2933
▁Unfortunately	-2934
2.	-2935
▁Lib	-2936
▁poore	-2937
▁cancer	-2938
itud	-2939
▁seek	-2940
▁corre	-2941
▁ideas	-2942
▁fossil	-2943
▁Tw	-2944
▁emp	-2945
▁sym	-2946
retary	-2947
▁cross	-2948
▁events	-2949
▁II	-2950
▁office	-2951
▁matters	-2952
pr	-2953
▁bi	-2954
▁Dep	-2955
▁Mar	-2956
▁Other	-2957
▁moral	-2958
▁deliver	-2959
▁15	-2960
hers	-2961
▁tas	-2962
▁core	-2963
▁days	-2964
▁fully	-2965
▁simple	-2966
▁committed	-2967
▁efficient	-2968
mb	-2969
oks	-2970
▁frag	-2971
lusion	-2972
▁analy	-2973
▁argue	-2974
▁limit	-2975
▁From	-2976
▁pain	-2977
iciency	-2978
▁family	-2979
▁sources	-2980
ann	-2981
olid	-2982
▁reb	-2983
ptember	-2984
▁widely	-2985
▁Finally	-2986
▁Ken	-2987
arity	-2988
lands	-2989
▁Simil	-2990
▁reduced	-2991
▁increases	-2992
▁immigration	-2993
rust	-2994
ashing	-2995
▁People	-2996
▁Paris	-2997
▁sound	-2998
▁agreed	-2999
▁person	-3000
fficient	-3001
▁victory	-3002
▁Go	-3003
ands	-3004
ibly	-3005
▁quant	-3006
▁yield	-3007
▁targets	-3008
▁September	-3009
▁encourage	-3010
▁consensus	-3011
auc	-3012
▁autom	-3013
▁clean	-3014
▁minist	-3015
▁Despite	-3016
▁crucial	-3017
▁regions	-3018
▁independent	-3019
nal	-3020
lled	-3021
▁NATO	-3022
▁plac	-3023
▁engine	-3024
▁trading	-3025
vert	-3026
▁mark	-3027
▁meaning	-3028
9,	-3029
augh	-3030
▁196	-3031
▁hop	-3032
rehens	-3033
▁allies	-3034
▁precise	-3035
▁accounts	-3036
▁complete	-3037
▁electric	-3038
▁migration	-3039
uct	-3040
war	-3041
ender	-3042
▁trig	-3043
▁block	-3044
▁super	-3045
ventional	-3046
▁withdraw	-3047
umb	-3048
rest	-3049
▁red	-3050
▁goals	-3051
▁shows	-3052
▁compared	-3053
▁referendum	-3054
▁significantly	-3055
ried	-3056
▁10%	-3057
▁pus	-3058
erate	-3059
order	-3060
▁Over	-3061
▁scen	-3062
▁vacc	-3063
ancial	-3064
▁Islamic	-3065
▁legitim	-3066
▁provided	-3067
▁providing	-3068
▁vulnerable	-3069
▁construction	-3070
ij	-3071
▁Rev	-3072
pping	-3073
▁draw	-3074
▁minim	-3075
▁surve	-3076
▁thought	-3077
▁thinking	-3078
▁sufficient	-3079
▁Nor	-3080
light	-3081
▁vast	-3082
▁Indian	-3083
▁stable	-3084
▁biggest	-3085
▁primary	-3086
▁cultural	-3087
▁property	-3088
▁bilateral	-3089
▁initiative	-3090
▁individuals	-3091
oot	-3092
rist	-3093
▁Eng	-3094
▁mut	-3095
▁sal	-3096
ellig	-3097
▁list	-3098
▁parts	-3099
▁tight	-3100
atically	-3101
▁actions	-3102
▁commodity	-3103
▁direction	-3104
▁membership	-3105
▁expectations	-3106
val	-3107
duct	-3108
▁fri	-3109
atever	-3110
▁falling	-3111
▁My	-3112
angu	-3113
▁enh	-3114
house	-3115
▁phys	-3116
▁aimed	-3117
▁border	-3118
▁trying	-3119
▁conserv	-3120
▁describ	-3121
▁directly	-3122
▁difference	-3123
▁importance	-3124
eng	-3125
ott	-3126
airs	-3127
hern	-3128
▁nor	-3129
▁embra	-3130
▁faces	-3131
▁field	-3132
▁front	-3133
aterial	-3134
▁acceler	-3135
ustainable	-3136
▁neighbors	-3137
▁bat	-3138
antic	-3139
▁whole	-3140
▁Econom	-3141
▁appear	-3142
▁secure	-3143
▁farmers	-3144
▁throughout	-3145
mp	-3146
par	-3147
▁Bo	-3148
▁Not	-3149
▁minor	-3150
▁steps	-3151
▁context	-3152
▁promote	-3153
aff	-3154
▁BE	-3155
▁unf	-3156
▁game	-3157
eneral	-3158
sector	-3159
▁Mexico	-3160
▁burden	-3161
▁seemed	-3162
▁seeking	-3163
▁commercial	-3164
▁ultimately	-3165
▁Med	-3166
▁name	-3167
▁enable	-3168
▁latest	-3169
▁contrary	-3170
▁supposed	-3171
rus	-3172
▁0.	-3173
fully	-3174
▁orig	-3175
▁purp	-3176
▁partly	-3177
▁culture	-3178
▁geopolit	-3179
▁multilateral	-3180
▁-	-3181
ats	-3182
ita	-3183
▁mal	-3184
▁adap	-3185
▁opin	-3186
▁save	-3187
▁therefore	-3188
▁uncertainty	-3189
co	-3190
car	-3191
▁Pl	-3192
cast	-3193
cont	-3194
▁era	-3195
rowth	-3196
▁heart	-3197
▁margin	-3198
▁pattern	-3199
▁character	-3200
elt	-3201
▁30	-3202
ulated	-3203
▁displ	-3204
▁story	-3205
▁custom	-3206
▁default	-3207
▁facilit	-3208
▁followed	-3209
aul	-3210
rain	-3211
▁Sen	-3212
▁2000	-3213
policy	-3214
▁imbal	-3215
▁radical	-3216
▁Likewise	-3217
ony	-3218
▁sup	-3219
▁becomes	-3220
▁religious	-3221
▁terrorism	-3222
-2	-3223
my	-3224
▁abroad	-3225
▁nation	-3226
▁turned	-3227
▁material	-3228
nam	-3229
oman	-3230
andon	-3231
▁reve	-3232
▁House	-3233
▁thous	-3234
▁truth	-3235
▁Though	-3236
▁option	-3237
▁leaving	-3238
▁subject	-3239
▁competitive	-3240
..	-3241
ING	-3242
urm	-3243
▁193	-3244
▁bro	-3245
▁zero	-3246
undred	-3247
▁plans	-3248
▁recon	-3249
▁extent	-3250
▁scenar	-3251
▁summit	-3252
▁consist	-3253
▁imports	-3254
▁Ke	-3255
eria	-3256
ique	-3257
ondon	-3258
▁laws	-3259
▁push	-3260
▁wind	-3261
▁Trade	-3262
▁drive	-3263
▁argued	-3264
▁apparent	-3265
▁strategies	-3266
▁politically	-3267
▁understanding	-3268
CD	-3269
ORK	-3270
men	-3271
izes	-3272
▁Cam	-3273
▁city	-3274
▁plat	-3275
▁sens	-3276
▁London	-3277
▁nature	-3278
▁students	-3279
▁announced	-3280
▁liquidity	-3281
▁Republican	-3282
▁profession	-3283
▁responsible	-3284
ox	-3285
▁Am	-3286
▁YORK	-3287
▁mand	-3288
outher	-3289
▁serve	-3290
▁faster	-3291
▁theory	-3292
▁argument	-3293
▁produced	-3294
▁reflects	-3295
aled	-3296
ignt	-3297
ocks	-3298
requ	-3299
▁Its	-3300
▁buy	-3301
▁Last	-3302
▁barri	-3303
▁tools	-3304
▁volat	-3305
▁limits	-3306
▁abandon	-3307
▁pollution	-3308
▁hour	-3309
▁week	-3310
illing	-3311
racies	-3312
▁going	-3313
▁mortg	-3314
▁wants	-3315
▁bankers	-3316
jo	-3317
yl	-3318
ety	-3319
sec	-3320
▁2.	-3321
back	-3322
going	-3323
ignty	-3324
▁Comp	-3325
▁port	-3326
▁circum	-3327
▁execut	-3328
▁journal	-3329
▁Secretary	-3330
edly	-3331
ether	-3332
illed	-3333
▁Chile	-3334
▁Treat	-3335
▁rural	-3336
▁capita	-3337
▁confront	-3338
gn	-3339
asion	-3340
gency	-3341
▁cash	-3342
▁coup	-3343
▁size	-3344
onents	-3345
▁adopt	-3346
▁sides	-3347
▁urgent	-3348
▁broader	-3349
▁immediate	-3350
▁insurance	-3351
▁substantial	-3352
▁CA	-3353
rene	-3354
▁Only	-3355
▁here	-3356
▁lose	-3357
▁happen	-3358
▁conclud	-3359
▁standard	-3360
▁Republicans	-3361
▁agriculture	-3362
nder	-3363
▁Ham	-3364
third	-3365
▁imag	-3366
actions	-3367
outhern	-3368
▁adopted	-3369
▁payments	-3370
▁borrowing	-3371
▁excessive	-3372
▁prospects	-3373
anu	-3374
yed	-3375
▁tell	-3376
▁talks	-3377
▁wages	-3378
▁exceed	-3379
▁comprom	-3380
▁authority	-3381
▁reduction	-3382
▁currencies	-3383
▁enterprises	-3384
OND	-3385
oses	-3386
▁Joh	-3387
▁pan	-3388
ulate	-3389
▁safe	-3390
porary	-3391
▁takes	-3392
related	-3393
▁specific	-3394
▁efficiency	-3395
ls	-3396
ONDON	-3397
cause	-3398
▁worry	-3399
holders	-3400
reprene	-3401
▁changed	-3402
▁hundred	-3403
rehensive	-3404
▁activity	-3405
▁platform	-3406
DS	-3407
orial	-3408
▁dict	-3409
▁flex	-3410
▁sett	-3411
levant	-3412
century	-3413
▁LONDON	-3414
▁earlier	-3415
▁Similarly	-3416
arc	-3417
ubl	-3418
▁Ph	-3419
▁lot	-3420
▁final	-3421
▁compar	-3422
▁lending	-3423
▁promise	-3424
▁intellig	-3425
▁assistance	-3426
▁historical	-3427
▁initiatives	-3428
erke	-3429
fect	-3430
ching	-3431
▁John	-3432
▁built	-3433
▁calls	-3434
▁stagn	-3435
▁Treaty	-3436
▁demands	-3437
▁deflation	-3438
▁competitiveness	-3439
know	-3440
uine	-3441
inton	-3442
▁advoc	-3443
▁carry	-3444
▁enorm	-3445
▁causes	-3446
▁elected	-3447
▁agreements	-3448
▁sovereignty	-3449
2%	-3450
▁hy	-3451
SEAN	-3452
▁log	-3453
▁range	-3454
▁shown	-3455
▁solid	-3456
ovember	-3457
▁easily	-3458
▁easing	-3459
▁origin	-3460
▁revenues	-3461
▁improving	-3462
▁practices	-3463
▁precisely	-3464
▁subsidies	-3465
▁addressing	-3466
▁diplomatic	-3467
▁legitimacy	-3468
▁transformation	-3469
▁spent	-3470
▁achieved	-3471
▁happened	-3472
▁populist	-3473
▁regulations	-3474
7%	-3475
enth	-3476
ilies	-3477
▁Sing	-3478
▁paid	-3479
lusive	-3480
▁fuels	-3481
▁Clinton	-3482
▁measure	-3483
▁November	-3484
▁migrants	-3485
5,	-3486
▁Sea	-3487
▁try	-3488
aches	-3489
uting	-3490
▁Organ	-3491
orthern	-3492
▁safety	-3493
▁stabil	-3494
▁improved	-3495
1.	-3496
lif	-3497
cale	-3498
ethe	-3499
vail	-3500
iring	-3501
▁Climate	-3502
▁anything	-3503
▁contribute	-3504
▁agricultural	-3505
ains	-3506
▁Saud	-3507
ureauc	-3508
▁spend	-3509
▁Invest	-3510
▁police	-3511
▁finally	-3512
▁neither	-3513
reciation	-3514
▁allowing	-3515
▁diseases	-3516
▁scientific	-3517
▁ty	-3518
reced	-3519
▁1990	-3520
▁book	-3521
itting	-3522
▁driven	-3523
▁merely	-3524
▁slowdown	-3525
▁estimated	-3526
see	-3527
▁$3	-3528
icro	-3529
▁publ	-3530
▁your	-3531
▁oblig	-3532
▁deaths	-3533
▁factor	-3534
▁produc	-3535
▁appears	-3536
▁families	-3537
▁provides	-3538
recedented	-3539
▁Palestinian	-3540
▁geopolitical	-3541
comes	-3542
scale	-3543
state	-3544
idency	-3545
▁meant	-3546
▁perman	-3547
▁Eastern	-3548
▁University	-3549
▁regulators	-3550
MB	-3551
bank	-3552
look	-3553
▁Ass	-3554
▁His	-3555
▁Mac	-3556
▁hit	-3557
erkel	-3558
iable	-3559
▁Dece	-3560
▁June	-3561
▁acqu	-3562
coming	-3563
▁langu	-3564
▁inform	-3565
▁planet	-3566
▁concent	-3567
▁experts	-3568
▁Consider	-3569
▁considerable	-3570
▁unprecedented	-3571
6%	-3572
ded	-3573
anda	-3574
stit	-3575
▁hur	-3576
▁wel	-3577
reland	-3578
▁Their	-3579
▁separ	-3580
▁online	-3581
▁speech	-3582
sy	-3583
▁spur	-3584
▁wage	-3585
▁depos	-3586
▁optim	-3587
▁Merkel	-3588
▁narrow	-3589
▁temper	-3590
▁quarter	-3591
▁revenue	-3592
▁macroeconomic	-3593
orb	-3594
iles	-3595
▁pun	-3596
▁Both	-3597
▁mach	-3598
▁Ireland	-3599
▁advance	-3600
▁bureauc	-3601
▁conduct	-3602
▁December	-3603
▁Financial	-3604
▁resulting	-3605
▁structure	-3606
▁entreprene	-3607
▁Organization	-3608
isc	-3609
bles	-3610
idesp	-3611
▁Aust	-3612
lantic	-3613
▁acknow	-3614
▁running	-3615
idespread	-3616
▁training	-3617
▁associated	-3618
1%	-3619
3%	-3620
4%	-3621
cap	-3622
ugh	-3623
oric	-3624
uild	-3625
▁equal	-3626
itative	-3627
▁opinion	-3628
▁raising	-3629
▁received	-3630
▁conflicts	-3631
▁principle	-3632
▁sometimes	-3633
▁scientists	-3634
▁possibility	-3635
pay	-3636
orks	-3637
ynes	-3638
▁100	-3639
▁ASEAN	-3640
▁shock	-3641
▁worst	-3642
▁George	-3643
▁Perhaps	-3644
▁consolid	-3645
mar	-3646
lied	-3647
▁dead	-3648
▁fell	-3649
▁rhet	-3650
▁went	-3651
rative	-3652
▁closer	-3653
▁remark	-3654
standing	-3655
▁Because	-3656
ructuring	-3657
▁barriers	-3658
▁communic	-3659
▁designed	-3660
▁remained	-3661
▁sustained	-3662
TON	-3663
hib	-3664
lar	-3665
itig	-3666
ittee	-3667
risis	-3668
ifying	-3669
istics	-3670
▁debts	-3671
▁prime	-3672
▁destro	-3673
▁unable	-3674
▁returns	-3675
▁Democrats	-3676
▁exception	-3677
▁operations	-3678
▁electricity	-3679
upp	-3680
aves	-3681
▁Mal	-3682
owned	-3683
ellect	-3684
▁amounts	-3685
▁depends	-3686
▁helping	-3687
▁present	-3688
▁prevail	-3689
▁changing	-3690
▁circumst	-3691
▁widespread	-3692
fin	-3693
▁Ma	-3694
▁York	-3695
▁dism	-3696
▁meth	-3697
▁pack	-3698
▁rare	-3699
▁task	-3700
ference	-3701
▁insist	-3702
▁confere	-3703
▁addition	-3704
▁strength	-3705
▁principles	-3706
IV	-3707
ops	-3708
ote	-3709
▁ec	-3710
fall	-3711
ables	-3712
inary	-3713
▁Anot	-3714
▁bail	-3715
▁capt	-3716
▁enjo	-3717
▁Polit	-3718
▁prove	-3719
▁stake	-3720
▁Another	-3721
▁connect	-3722
▁message	-3723
▁started	-3724
▁Parliament	-3725
EN	-3726
▁CO	-3727
icip	-3728
acific	-3729
▁deploy	-3730
▁instru	-3731
▁highest	-3732
▁medical	-3733
▁greatest	-3734
▁outcomes	-3735
▁promises	-3736
▁democracies	-3737
▁instability	-3738
▁bound	-3739
▁occup	-3740
▁victim	-3741
▁managed	-3742
▁entirely	-3743
▁thousands	-3744
▁transport	-3745
pri	-3746
mark	-3747
▁ban	-3748
▁sum	-3749
▁Thus	-3750
▁manip	-3751
raction	-3752
▁choose	-3753
▁double	-3754
etheless	-3755
▁Israeli	-3756
▁incomes	-3757
▁fighting	-3758
▁forecast	-3759
▁generate	-3760
▁supported	-3761
▁comprehensive	-3762
EL	-3763
iagn	-3764
urren	-3765
▁insp	-3766
▁belief	-3767
▁giving	-3768
▁Austral	-3769
▁circumstances	-3770
sis	-3771
▁Co	-3772
inet	-3773
▁Cal	-3774
▁Har	-3775
▁der	-3776
▁tro	-3777
endit	-3778
ijing	-3779
▁lies	-3780
atures	-3781
▁crimin	-3782
▁places	-3783
▁schools	-3784
▁threats	-3785
▁restrict	-3786
▁productive	-3787
Ch	-3788
ira	-3789
uck	-3790
lows	-3791
▁team	-3792
▁ratio	-3793
▁viewed	-3794
▁disrupt	-3795
ares	-3796
rich	-3797
▁BRI	-3798
▁defe	-3799
▁rele	-3800
idered	-3801
▁adapt	-3802
▁ended	-3803
▁learn	-3804
▁treaty	-3805
▁enormous	-3806
▁rhetoric	-3807
▁struggle	-3808
▁intellect	-3809
▁universal	-3810
▁experienced	-3811
AS	-3812
ietnam	-3813
▁Saudi	-3814
▁space	-3815
▁easier	-3816
▁receive	-3817
▁agencies	-3818
▁controls	-3819
▁function	-3820
▁fundament	-3821
▁collective	-3822
▁considered	-3823
▁everywhere	-3824
▁partnership	-3825
▁Bl	-3826
▁spir	-3827
aching	-3828
ashington	-3829
▁appropri	-3830
▁expendit	-3831
▁economist	-3832
▁implemented	-3833
7.	-3834
▁$2	-3835
▁bul	-3836
▁har	-3837
▁unw	-3838
rimin	-3839
▁pace	-3840
▁tack	-3841
▁Greek	-3842
▁eight	-3843
▁frequ	-3844
▁moving	-3845
▁trends	-3846
▁unless	-3847
▁presidency	-3848
▁intelligence	-3849
yle	-3850
fuel	-3851
▁Soc	-3852
adequ	-3853
▁2010	-3854
▁Cold	-3855
▁sell	-3856
▁vers	-3857
▁suffer	-3858
▁Vietnam	-3859
▁percent	-3860
▁refugee	-3861
▁capitalism	-3862
▁legislation	-3863
▁restructuring	-3864
▁strengthening	-3865
urb	-3866
wan	-3867
▁mer	-3868
ipher	-3869
▁stem	-3870
▁wars	-3871
▁welf	-3872
▁drugs	-3873
▁views	-3874
▁anyone	-3875
▁mention	-3876
▁launched	-3877
▁scenario	-3878
▁southern	-3879
▁undermine	-3880
Euro	-3881
kept	-3882
whel	-3883
▁50%	-3884
▁pen	-3885
which	-3886
▁Those	-3887
▁light	-3888
▁seven	-3889
▁visit	-3890
▁raised	-3891
▁resist	-3892
▁Beijing	-3893
▁concept	-3894
▁genuine	-3895
▁perspect	-3896
▁weakness	-3897
▁otherwise	-3898
ios	-3899
nic	-3900
▁wa	-3901
▁Dav	-3902
reasury	-3903
▁absence	-3904
▁welfare	-3905
▁objectives	-3906
umm	-3907
▁Gu	-3908
▁Non	-3909
▁ord	-3910
▁During	-3911
▁revers	-3912
▁robust	-3913
▁dynamic	-3914
▁justice	-3915
▁profits	-3916
▁Communist	-3917
▁inevitable	-3918
run	-3919
▁($	-3920
▁Ju	-3921
▁Why	-3922
▁whom	-3923
Europe	-3924
▁asked	-3925
▁Christ	-3926
▁Rather	-3927
▁intens	-3928
▁General	-3929
▁driving	-3930
▁coalition	-3931
▁estimates	-3932
▁adjustment	-3933
▁territorial	-3934
▁Er	-3935
aling	-3936
▁isol	-3937
▁prem	-3938
anuary	-3939
govern	-3940
▁alloc	-3941
▁quite	-3942
▁solar	-3943
▁Keynes	-3944
▁accomp	-3945
▁deeply	-3946
▁medium	-3947
▁played	-3948
▁smaller	-3949
▁combined	-3950
▁disaster	-3951
▁repeated	-3952
sc	-3953
rid	-3954
ogue	-3955
▁squ	-3956
▁diss	-3957
▁adequ	-3958
itation	-3959
▁comput	-3960
▁mostly	-3961
▁January	-3962
▁complic	-3963
▁inadequ	-3964
▁involved	-3965
▁overwhel	-3966
▁Revolution	-3967
▁everything	-3968
hic	-3969
▁gl	-3970
▁arms	-3971
▁drop	-3972
▁lines	-3973
▁bubble	-3974
▁worked	-3975
▁getting	-3976
▁implies	-3977
▁ensuring	-3978
▁hundreds	-3979
▁tensions	-3980
▁Washington	-3981
▁credibility	-3982
gen	-3983
▁50	-3984
▁194	-3985
▁HIV	-3986
▁Tai	-3987
▁sen	-3988
▁wast	-3989
iction	-3990
▁aware	-3991
▁forms	-3992
▁hands	-3993
▁remov	-3994
▁stage	-3995
flation	-3996
▁affairs	-3997
▁enforce	-3998
▁poorest	-3999
▁priority	-4000
▁transfer	-4001
▁Democratic	-4002
DGE	-4003
MBRI	-4004
dden	-4005
ores	-4006
▁Whe	-4007
itude	-4008
▁Kong	-4009
▁Under	-4010
MBRIDGE	-4011
▁lesson	-4012
▁offers	-4013
▁correct	-4014
▁sharply	-4015
▁declared	-4016
▁peripher	-4017
▁resource	-4018
▁CAMBRIDGE	-4019
▁creditors	-4020
▁imbalances	-4021
CS	-4022
ints	-4023
▁beg	-4024
▁sex	-4025
rison	-4026
▁2006	-4027
▁Hong	-4028
▁goes	-4029
▁hardly	-4030
▁prefer	-4031
▁compens	-4032
▁himself	-4033
▁lessons	-4034
▁generally	-4035
▁terrorist	-4036
.)	-4037
4,	-4038
los	-4039
ods	-4040
enez	-4041
more	-4042
uses	-4043
level	-4044
ronic	-4045
▁perce	-4046
▁resil	-4047
▁Taiwan	-4048
▁owners	-4049
▁proved	-4050
▁decided	-4051
▁persist	-4052
▁promoting	-4053
8%	-4054
iate	-4055
▁Port	-4056
▁Then	-4057
▁Canad	-4058
▁colle	-4059
▁compl	-4060
▁faced	-4061
enezuel	-4062
▁ongoing	-4063
▁typically	-4064
▁resistance	-4065
▁differences	-4066
▁developments	-4067
▁intellectual	-4068
reet	-4069
antly	-4070
aught	-4071
▁root	-4072
▁Third	-4073
▁fallen	-4074
▁arrange	-4075
▁options	-4076
▁collabor	-4077
▁includes	-4078
▁expanding	-4079
▁distribution	-4080
AR	-4081
ode	-4082
▁2%	-4083
▁203	-4084
carbon	-4085
▁round	-4086
▁Colomb	-4087
▁tariff	-4088
▁underp	-4089
▁Venezuel	-4090
▁proposal	-4091
▁populations	-4092
inks	-4093
▁due	-4094
▁base	-4095
▁obst	-4096
▁2008,	-4097
▁fears	-4098
▁joint	-4099
▁speak	-4100
▁trial	-4101
▁mainly	-4102
▁sought	-4103
▁sudden	-4104
▁overcome	-4105
▁diplomacy	-4106
▁ministers	-4107
▁implications	-4108
-200	-4109
fers	-4110
▁cra	-4111
▁hor	-4112
▁Cour	-4113
▁Erdo	-4114
▁Swed	-4115
▁hours	-4116
▁mount	-4117
▁forest	-4118
▁stands	-4119
▁heavily	-4120
▁resolve	-4121
▁usually	-4122
▁various	-4123
▁leverage	-4124
▁patients	-4125
▁practice	-4126
▁greenhouse	-4127
▁potentially	-4128
▁organization	-4129
cto	-4130
▁DC	-4131
▁Do	-4132
▁ey	-4133
▁20%	-4134
inent	-4135
▁Octo	-4136
▁earn	-4137
▁firm	-4138
▁join	-4139
▁March	-4140
▁accum	-4141
▁dimin	-4142
▁actors	-4143
▁formal	-4144
▁October	-4145
▁cutting	-4146
▁profound	-4147
▁expensive	-4148
ev	-4149
▁12	-4150
▁ut	-4151
ieth	-4152
long	-4153
sels	-4154
▁Nig	-4155
eenth	-4156
▁rely	-4157
▁stay	-4158
▁blame	-4159
▁hopes	-4160
▁obser	-4161
▁tried	-4162
▁assert	-4163
▁defend	-4164
▁devast	-4165
▁Without	-4166
▁regimes	-4167
▁reinfor	-4168
▁guarantee	-4169
▁objective	-4170
5.	-4171
Es	-4172
rud	-4173
▁ep	-4174
ager	-4175
ames	-4176
asing	-4177
▁talk	-4178
▁ties	-4179
▁1990’	-4180
▁gender	-4181
▁technical	-4182
▁virtually	-4183
▁innovative	-4184
▁mechanisms	-4185
▁percentage	-4186
▁authoritarian	-4187
▁participation	-4188
pet	-4189
uman	-4190
▁dro	-4191
apore	-4192
ffect	-4193
▁room	-4194
▁cheap	-4195
▁cycle	-4196
▁exact	-4197
▁stead	-4198
▁vehic	-4199
▁aggreg	-4200
▁multip	-4201
▁offered	-4202
▁credible	-4203
▁volatility	-4204
▁establishment	-4205
aut	-4206
ull	-4207
▁vo	-4208
▁Bro	-4209
▁sil	-4210
▁gone	-4211
▁pled	-4212
▁told	-4213
▁motiv	-4214
▁confron	-4215
▁coordin	-4216
▁emerged	-4217
▁mistake	-4218
▁bankrupt	-4219
▁language	-4220
oz	-4221
▁10	-4222
aren	-4223
aria	-4224
▁Ber	-4225
▁Man	-4226
iders	-4227
▁susp	-4228
itious	-4229
▁Court	-4230
▁heavy	-4231
▁medic	-4232
▁track	-4233
▁works	-4234
▁unique	-4235
▁useful	-4236
▁partner	-4237
▁purpose	-4238
▁permanent	-4239
▁immigrants	-4240
▁entrepreneurs	-4241
ping	-4242
▁mor	-4243
astro	-4244
usion	-4245
▁Here	-4246
▁bott	-4247
▁Still	-4248
▁chann	-4249
▁diagn	-4250
▁appoint	-4251
▁relevant	-4252
▁suffering	-4253
▁conference	-4254
alle	-4255
▁2020	-4256
▁Ital	-4257
▁sold	-4258
▁upon	-4259
▁figure	-4260
▁causing	-4261
ery	-4262
oil	-4263
fort	-4264
sych	-4265
heast	-4266
illeg	-4267
▁acad	-4268
Americ	-4269
▁Beyond	-4270
▁Poland	-4271
▁Portug	-4272
▁ethnic	-4273
▁involve	-4274
▁whereas	-4275
▁learning	-4276
▁pursuing	-4277
▁starters	-4278
▁whatever	-4279
▁Singapore	-4280
▁commitments	-4281
▁transactions	-4282
3,	-4283
enh	-4284
book	-4285
uous	-4286
wing	-4287
uries	-4288
▁2009	-4289
▁ones	-4290
▁stra	-4291
▁Count	-4292
▁deval	-4293
uations	-4294
▁Korean	-4295
▁travel	-4296
▁numbers	-4297
▁territory	-4298
atis	-4299
agers	-4300
herent	-4301
▁shape	-4302
▁spect	-4303
ographic	-4304
▁aggregate	-4305
▁processes	-4306
▁producers	-4307
▁renewable	-4308
uk	-4309
ECD	-4310
▁30%	-4311
▁Sil	-4312
▁dri	-4313
▁grew	-4314
▁mitig	-4315
▁degree	-4316
▁desper	-4317
▁choices	-4318
▁failing	-4319
▁turning	-4320
▁prepared	-4321
▁described	-4322
▁positions	-4323
▁dramatically	-4324
iot	-4325
leb	-4326
anks	-4327
▁Two	-4328
acerb	-4329
▁Will	-4330
stream	-4331
▁Hamas	-4332
▁exacerb	-4333
▁friends	-4334
▁planning	-4335
▁declining	-4336
▁determine	-4337
▁remaining	-4338
▁Fortunately	-4339
▁counterpart	-4340
▁generations	-4341
▁unsustainable	-4342
▁Pr	-4343
ague	-4344
ties	-4345
▁OECD	-4346
arency	-4347
▁board	-4348
▁Health	-4349
▁applic	-4350
▁elites	-4351
▁explan	-4352
▁recomm	-4353
▁remind	-4354
▁divided	-4355
▁happens	-4356
▁replace	-4357
▁investing	-4358
▁movements	-4359
▁temporary	-4360
▁discussion	-4361
▁recognized	-4362
▁combination	-4363
▁immediately	-4364
▁1980	-4365
▁wond	-4366
▁2015,	-4367
▁delay	-4368
▁knows	-4369
▁mobil	-4370
▁weeks	-4371
▁accord	-4372
▁deeper	-4373
▁troops	-4374
▁Treasury	-4375
▁Australia	-4376
▁inadequate	-4377
▁integrated	-4378
▁conventional	-4379
8,	-4380
▁195	-4381
▁Eth	-4382
▁gir	-4383
▁hon	-4384
▁sto	-4385
power	-4386
▁army	-4387
▁bear	-4388
▁faith	-4389
▁illeg	-4390
▁persu	-4391
ialogue	-4392
lements	-4393
ructive	-4394
urities	-4395
▁battle	-4396
▁annually	-4397
▁appropriate	-4398
-19	-4399
add	-4400
ift	-4401
▁Me	-4402
iant	-4403
time	-4404
anted	-4405
chang	-4406
▁July	-4407
▁body	-4408
▁fulf	-4409
▁type	-4410
▁signs	-4411
▁Arabia	-4412
▁Instit	-4413
▁conver	-4414
▁ruling	-4415
▁equally	-4416
▁learned	-4417
▁addressed	-4418
▁continuing	-4419
▁introduced	-4420
let	-4421
ancy	-4422
bled	-4423
ikes	-4424
rage	-4425
▁Jew	-4426
abled	-4427
▁Serb	-4428
▁aris	-4429
▁bold	-4430
▁fost	-4431
luding	-4432
▁court	-4433
▁schem	-4434
▁youth	-4435
▁Policy	-4436
▁humans	-4437
▁infect	-4438
▁holding	-4439
▁pension	-4440
▁promised	-4441
▁starting	-4442
US	-4443
dr	-4444
eron	-4445
▁Sch	-4446
▁bre	-4447
oking	-4448
▁calc	-4449
▁cell	-4450
inking	-4451
▁2010,	-4452
▁dream	-4453
▁grown	-4454
▁parent	-4455
▁summer	-4456
▁undert	-4457
ibilities	-4458
▁ambitious	-4459
▁destruction	-4460
▁perspective	-4461
lad	-4462
debt	-4463
▁Kos	-4464
▁wis	-4465
fense	-4466
▁Fore	-4467
▁feed	-4468
▁foot	-4469
idents	-4470
▁begun	-4471
▁exerc	-4472
ivalent	-4473
▁losing	-4474
▁studies	-4475
▁purchases	-4476
▁quantitative	-4477
▁sustainability	-4478
BO	-4479
enn	-4480
▁3.	-4481
▁li	-4482
llor	-4483
▁mur	-4484
count	-4485
itter	-4486
▁Bang	-4487
▁anim	-4488
▁evol	-4489
▁lend	-4490
▁react	-4491
▁stress	-4492
▁playing	-4493
▁putting	-4494
▁billions	-4495
▁electoral	-4496
▁reflected	-4497
▁twentieth	-4498
▁represents	-4499
▁underlying	-4500
la	-4501
The	-4502
iled	-4503
▁40%	-4504
▁Car	-4505
iences	-4506
▁imped	-4507
▁solve	-4508
▁issued	-4509
▁legisl	-4510
▁plants	-4511
▁critics	-4512
▁bringing	-4513
▁ordinary	-4514
▁aggressive	-4515
▁transparency	-4516
axim	-4517
first	-4518
licit	-4519
▁looks	-4520
▁assume	-4521
▁desire	-4522
▁reluct	-4523
▁Indones	-4524
▁discipl	-4525
▁trigger	-4526
▁occurred	-4527
▁observers	-4528
▁candidates	-4529
▁encouraging	-4530
▁corporations	-4531
▁requirements	-4532
gu	-4533
DGs	-4534
aza	-4535
itz	-4536
bola	-4537
ches	-4538
cons	-4539
▁sea	-4540
lines	-4541
▁Kosov	-4542
▁grand	-4543
▁psych	-4544
▁ready	-4545
▁Syrian	-4546
▁gained	-4547
▁preced	-4548
▁perfect	-4549
▁trouble	-4550
▁analysis	-4551
▁tradition	-4552
asc	-4553
ken	-4554
acco	-4555
resp	-4556
▁Abe	-4557
▁fert	-4558
orient	-4559
rowing	-4560
▁Leban	-4561
▁nomin	-4562
▁detail	-4563
▁England	-4564
▁healthy	-4565
▁nations	-4566
▁species	-4567
▁towards	-4568
▁believed	-4569
▁surprise	-4570
▁underpin	-4571
▁priorities	-4572
▁economically	-4573
▁liberalization	-4574
conn	-4575
enty	-4576
ires	-4577
▁Act	-4578
▁Our	-4579
class	-4580
ested	-4581
iling	-4582
▁gave	-4583
▁trip	-4584
▁impose	-4585
▁although	-4586
▁rational	-4587
▁contributed	-4588
▁conservative	-4589
ze	-4590
gas	-4591
igor	-4592
reen	-4593
ylum	-4594
▁Bal	-4595
▁Unt	-4596
ilipp	-4597
▁Road	-4598
apital	-4599
▁Ebola	-4600
▁Social	-4601
▁confir	-4602
▁modest	-4603
▁offset	-4604
▁Cameron	-4605
▁exactly	-4606
▁seriously	-4607
▁Depression	-4608
▁Investment	-4609
▁Palestinians	-4610
han	-4611
iers	-4612
▁Nob	-4613
atisf	-4614
works	-4615
▁fire	-4616
▁phil	-4617
icious	-4618
▁2014,	-4619
▁leads	-4620
▁monit	-4621
aration	-4622
ustrial	-4623
▁Philipp	-4624
▁restore	-4625
▁victims	-4626
▁identity	-4627
▁reaching	-4628
▁contracts	-4629
▁inclusive	-4630
▁published	-4631
4.	-4632
son	-4633
ula	-4634
unn	-4635
▁80%	-4636
▁flaw	-4637
▁peak	-4638
lihood	-4639
▁added	-4640
▁fixed	-4641
▁decide	-4642
▁killed	-4643
▁profit	-4644
▁imposed	-4645
▁related	-4646
▁Partners	-4647
▁affected	-4648
▁dramatic	-4649
▁Committee	-4650
▁criticism	-4651
▁protecting	-4652
▁accountability	-4653
onom	-4654
▁mix	-4655
anied	-4656
ibiot	-4657
iforn	-4658
▁tough	-4659
russels	-4660
uilding	-4661
▁twenty	-4662
▁Brother	-4663
▁reports	-4664
▁underst	-4665
▁Californ	-4666
▁Portugal	-4667
▁physical	-4668
▁possibly	-4669
▁protests	-4670
▁achieving	-4671
▁experiment	-4672
che	-4673
ray	-4674
with	-4675
▁ric	-4676
alyst	-4677
▁Prot	-4678
▁Wall	-4679
▁2012,	-4680
▁2013,	-4681
▁Kenya	-4682
▁elite	-4683
▁maxim	-4684
▁truly	-4685
▁Growth	-4686
▁Kosovo	-4687
▁active	-4688
▁arrest	-4689
▁emerge	-4690
▁obstac	-4691
▁Constit	-4692
▁figures	-4693
▁violent	-4694
▁investig	-4695
▁transfers	-4696
▁approaches	-4697
▁substantially	-4698
oly	-4699
arsh	-4700
▁BER	-4701
▁wid	-4702
itably	-4703
roduct	-4704
▁Until	-4705
▁aging	-4706
▁compe	-4707
▁cyber	-4708
▁decis	-4709
▁earth	-4710
▁fewer	-4711
▁asylum	-4712
▁mutual	-4713
▁compris	-4714
▁Brussels	-4715
▁Indonesia	-4716
▁concerned	-4717
▁attractive	-4718
▁equivalent	-4719
▁proportion	-4720
▁accompanied	-4721
ns	-4722
imb	-4723
▁60%	-4724
▁got	-4725
orpor	-4726
▁2007	-4727
▁Vlad	-4728
▁bomb	-4729
▁tact	-4730
mented	-4731
▁Trans	-4732
▁enact	-4733
▁disputes	-4734
▁suffered	-4735
▁emergence	-4736
▁practical	-4737
▁supporting	-4738
▁Kh	-4739
▁Ne	-4740
adow	-4741
ogle	-4742
▁quo	-4743
ugust	-4744
▁Turk	-4745
ground	-4746
▁accur	-4747
appoint	-4748
▁Canada	-4749
▁bottom	-4750
▁signed	-4751
▁superv	-4752
exchange	-4753
▁content	-4754
▁gradually	-4755
▁establishing	-4756
cks	-4757
ipe	-4758
ulf	-4759
▁25	-4760
aily	-4761
pril	-4762
reme	-4763
▁fem	-4764
▁east	-4765
▁exit	-4766
overed	-4767
▁armed	-4768
▁paper	-4769
ospital	-4770
▁Sweden	-4771
▁costly	-4772
▁symbol	-4773
European	-4774
▁defined	-4775
▁engaged	-4776
▁welcome	-4777
▁identify	-4778
▁networks	-4779
▁candidate	-4780
▁accounting	-4781
▁Partnership	-4782
▁journalists	-4783
ih	-4784
ney	-4785
▁11	-4786
ibet	-4787
ifth	-4788
ison	-4789
osis	-4790
pric	-4791
▁Jin	-4792
anish	-4793
irect	-4794
▁inde	-4795
▁none	-4796
crisis	-4797
▁tempt	-4798
▁Chance	-4799
▁fueled	-4800
▁senior	-4801
▁notably	-4802
▁Colombia	-4803
▁boosting	-4804
▁criminal	-4805
▁supplies	-4806
▁borrowers	-4807
▁incentive	-4808
▁institution	-4809
▁nationalism	-4810
▁constitutional	-4811
ASH	-4812
era	-4813
mon	-4814
imir	-4815
▁ver	-4816
ading	-4817
ained	-4818
secut	-4819
INGTON	-4820
igrant	-4821
▁celeb	-4822
▁liter	-4823
▁Energy	-4824
▁Google	-4825
▁paying	-4826
▁showed	-4827
▁wanted	-4828
▁Italian	-4829
▁researc	-4830
▁secular	-4831
▁Vladimir	-4832
▁alliance	-4833
▁antibiot	-4834
▁equality	-4835
▁historic	-4836
▁mortgage	-4837
▁evolution	-4838
▁platforms	-4839
▁California	-4840
▁surprising	-4841
▁Governments	-4842
gic	-4843
rog	-4844
▁Ant	-4845
▁fal	-4846
▁shr	-4847
▁thr	-4848
▁Plan	-4849
border	-4850
rating	-4851
▁revol	-4852
▁users	-4853
country	-4854
▁Jinping	-4855
▁benefic	-4856
▁centers	-4857
▁network	-4858
▁operate	-4859
ASHINGTON	-4860
▁opposite	-4861
▁eliminate	-4862
▁highlight	-4863
▁perceived	-4864
▁proposals	-4865
▁preventing	-4866
▁previously	-4867
▁remarkable	-4868
GO	-4869
▁13	-4870
▁40	-4871
-201	-4872
igned	-4873
▁AIDS	-4874
▁Shan	-4875
▁wake	-4876
▁April	-4877
▁Tibet	-4878
▁uncon	-4879
▁August	-4880
▁mobile	-4881
▁observ	-4882
▁Muslims	-4883
▁closely	-4884
▁setting	-4885
▁accepted	-4886
▁dialogue	-4887
▁Venezuela	-4888
▁pressures	-4889
▁structures	-4890
▁Nonetheless	-4891
▁maintaining	-4892
▁recognition	-4893
▁implementation	-4894
CC	-4895
iop	-4896
▁Any	-4897
▁aud	-4898
▁brut	-4899
▁iron	-4900
▁irre	-4901
▁phen	-4902
▁Nobel	-4903
▁girls	-4904
▁parad	-4905
▁Foreign	-4906
▁embrace	-4907
▁expanded	-4908
▁humanity	-4909
▁intended	-4910
▁opponents	-4911
▁WASHINGTON	-4912
▁compromise	-4913
eth	-4914
ocu	-4915
ingu	-4916
mbly	-4917
▁dow	-4918
lades	-4919
orted	-4920
▁Ange	-4921
▁chem	-4922
▁crop	-4923
icking	-4924
▁2011,	-4925
▁Every	-4926
▁sales	-4927
▁defeat	-4928
▁search	-4929
▁shocks	-4930
▁Lebanon	-4931
▁exposed	-4932
▁explicit	-4933
▁included	-4934
liferation	-4935
▁employees	-4936
▁engagement	-4937
DR	-4938
rs	-4939
oke	-4940
appe	-4941
free	-4942
ghai	-4943
idel	-4944
raft	-4945
▁Reg	-4946
▁Gaza	-4947
▁enem	-4948
▁race	-4949
driven	-4950
ladesh	-4951
▁BRICS	-4952
▁apply	-4953
▁reput	-4954
Pacific	-4955
urrency	-4956
▁chronic	-4957
▁weather	-4958
▁Shanghai	-4959
▁managers	-4960
▁managing	-4961
▁peaceful	-4962
▁reported	-4963
▁centuries	-4964
▁negotiate	-4965
▁Bangladesh	-4966
▁determined	-4967
▁threatened	-4968
▁essentially	-4969
▁humanitarian	-4970
▁restrictions	-4971
OEs	-4972
▁Te	-4973
lete	-4974
oubt	-4975
pass	-4976
▁Off	-4977
▁asp	-4978
uable	-4979
▁nine	-4980
▁says	-4981
arters	-4982
iberal	-4983
▁apart	-4984
▁doesn	-4985
▁ideal	-4986
▁Ethiop	-4987
▁incomp	-4988
▁sheets	-4989
▁surely	-4990
▁weight	-4991
▁Iranian	-4992
▁anticip	-4993
▁express	-4994
▁mandate	-4995
▁pushing	-4996
intensive	-4997
▁periphery	-4998
▁sentiment	-4999
▁resolution	-5000
▁nationalist	-5001
▁researchers	-5002
▁parliamentary	-5003
AI	-5004
EO	-5005
▁Em	-5006
atal	-5007
inct	-5008
mosp	-5009
rown	-5010
▁Bel	-5011
ament	-5012
ipped	-5013
oming	-5014
▁Hung	-5015
▁arch	-5016
▁fort	-5017
contro	-5018
▁downt	-5019
▁smart	-5020
cession	-5021
▁ignore	-5022
▁warned	-5023
national	-5024
oriented	-5025
security	-5026
ventions	-5027
▁creates	-5028
▁enhance	-5029
▁interven	-5030
▁phenomen	-5031
▁solidarity	-5032
▁withdrawal	-5033
▁undermining	-5034
▁constitution	-5035
eb	-5036
ife	-5037
oud	-5038
rap	-5039
iang	-5040
lock	-5041
▁lay	-5042
arely	-5043
▁Burm	-5044
▁cong	-5045
ultane	-5046
▁Libya	-5047
▁micro	-5048
▁scope	-5049
▁toler	-5050
ogether	-5051
▁Macron	-5052
▁atmosp	-5053
▁crimes	-5054
▁legacy	-5055
▁budgets	-5056
▁opening	-5057
▁shifting	-5058
▁survival	-5059
▁supporters	-5060
▁devastating	-5061
▁necessarily	-5062
CA	-5063
▁Mc	-5064
etic	-5065
outs	-5066
▁Cont	-5067
▁exam	-5068
▁outs	-5069
▁alike	-5070
▁closed	-5071
▁pushed	-5072
▁initial	-5073
▁keeping	-5074
▁northern	-5075
ordination	-5076
▁emergency	-5077
▁primarily	-5078
▁promising	-5079
▁legitimate	-5080
▁Philippines	-5081
▁demographic	-5082
▁educational	-5083
ari	-5084
imp	-5085
comm	-5086
pted	-5087
▁Mod	-5088
▁nav	-5089
bling	-5090
▁Spec	-5091
▁shap	-5092
inding	-5093
▁reass	-5094
▁rival	-5095
reement	-5096
▁prison	-5097
▁rating	-5098
▁weaker	-5099
▁Further	-5100
▁illegal	-5101
▁players	-5102
▁sharing	-5103
▁subsequ	-5104
▁advances	-5105
▁deterior	-5106
▁targeted	-5107
▁Countries	-5108
▁simultane	-5109
▁securities	-5110
▁innovations	-5111
▁instruments	-5112
▁threatening	-5113
att	-5114
iny	-5115
ahar	-5116
urch	-5117
▁Ear	-5118
▁Rom	-5119
▁sus	-5120
being	-5121
onent	-5122
▁Once	-5123
▁Paul	-5124
▁born	-5125
▁gold	-5126
aining	-5127
▁deals	-5128
▁disag	-5129
▁moved	-5130
▁Street	-5131
▁allows	-5132
▁placed	-5133
▁taxpay	-5134
▁Conserv	-5135
▁However	-5136
▁marginal	-5137
▁momentum	-5138
▁populism	-5139
▁imperative	-5140
▁willingness	-5141
▁universities	-5142
8.	-5143
iti	-5144
rue	-5145
uit	-5146
bert	-5147
ional	-5148
▁epid	-5149
▁sort	-5150
▁champ	-5151
▁libert	-5152
▁prohib	-5153
▁imagine	-5154
▁tariffs	-5155
▁failures	-5156
▁hospital	-5157
▁minority	-5158
▁neighbor	-5159
▁regarded	-5160
▁rejected	-5161
▁vehicles	-5162
▁concluded	-5163
▁extremely	-5164
▁operating	-5165
▁constraints	-5166
▁contributions	-5167
ume	-5168
▁Big	-5169
break	-5170
▁Face	-5171
▁Krem	-5172
▁rose	-5173
▁rebal	-5174
▁risky	-5175
▁tests	-5176
▁attrib	-5177
▁conven	-5178
▁reward	-5179
ophistic	-5180
▁Kremlin	-5181
▁Whether	-5182
▁autonom	-5183
▁ethical	-5184
▁finding	-5185
ineteenth	-5186
▁downturn	-5187
▁globally	-5188
▁Chancellor	-5189
▁stagnation	-5190
▁understood	-5191
▁obligations	-5192
what	-5193
▁Add	-5194
▁Cub	-5195
▁Sud	-5196
▁ded	-5197
icial	-5198
lected	-5199
▁Again	-5200
▁guide	-5201
▁settle	-5202
reaching	-5203
▁capable	-5204
▁survive	-5205
▁downward	-5206
▁strongly	-5207
▁regardless	-5208
▁demonstrated	-5209
ole	-5210
uty	-5211
▁17	-5212
▁3%	-5213
fare	-5214
olst	-5215
rote	-5216
▁Tal	-5217
▁anx	-5218
adays	-5219
erous	-5220
abling	-5221
resent	-5222
▁heads	-5223
▁phase	-5224
ulating	-5225
▁depart	-5226
▁linked	-5227
▁tackle	-5228
ffective	-5229
▁adverse	-5230
▁bubbles	-5231
▁calling	-5232
▁collaps	-5233
▁comfort	-5234
▁corrupt	-5235
▁coverage	-5236
▁discover	-5237
▁offering	-5238
▁vaccines	-5239
▁ownership	-5240
▁bankruptcy	-5241
▁depreciation	-5242
▁BR	-5243
▁Lab	-5244
▁Sub	-5245
▁tim	-5246
▁Bern	-5247
▁burn	-5248
▁ment	-5249
clical	-5250
pected	-5251
▁black	-5252
▁flood	-5253
▁index	-5254
▁newly	-5255
▁Market	-5256
▁absorb	-5257
▁interp	-5258
▁slight	-5259
▁stance	-5260
▁Nigeria	-5261
▁looking	-5262
▁adequate	-5263
▁threaten	-5264
▁condition	-5265
▁facilitate	-5266
▁inevitably	-5267
▁explanation	-5268
▁capabilities	-5269
▁coordination	-5270
AD	-5271
udd	-5272
uff	-5273
utr	-5274
▁1%	-5275
▁Ky	-5276
cean	-5277
▁Are	-5278
▁Sup	-5279
▁alt	-5280
▁ben	-5281
▁eru	-5282
▁esc	-5283
▁fate	-5284
▁tour	-5285
▁table	-5286
▁joined	-5287
▁raises	-5288
▁secret	-5289
▁viable	-5290
ifically	-5291
▁artific	-5292
▁wealthy	-5293
▁presence	-5294
▁systemic	-5295
▁reasonable	-5296
▁transparent	-5297
sk	-5298
yal	-5299
point	-5300
▁magn	-5301
▁resc	-5302
airman	-5303
rights	-5304
▁Human	-5305
▁absol	-5306
▁blood	-5307
▁coast	-5308
▁skept	-5309
▁twice	-5310
▁votes	-5311
▁father	-5312
▁proced	-5313
function	-5314
▁applied	-5315
▁Facebook	-5316
▁standing	-5317
▁dominated	-5318
▁sophistic	-5319
▁accelerate	-5320
▁completely	-5321
▁settlement	-5322
▁terrorists	-5323
▁improvement	-5324
9%	-5325
ux	-5326
iox	-5327
isp	-5328
▁5%	-5329
irth	-5330
ompl	-5331
unis	-5332
▁tow	-5333
trade	-5334
▁High	-5335
▁Prog	-5336
▁wave	-5337
itness	-5338
▁Never	-5339
▁older	-5340
▁woman	-5341
osystem	-5342
▁punish	-5343
▁served	-5344
oubtedly	-5345
▁dispute	-5346
▁enabled	-5347
▁fragile	-5348
▁nominal	-5349
▁opposed	-5350
▁warning	-5351
▁destabil	-5352
▁acknowled	-5353
▁displaced	-5354
▁advantages	-5355
▁counterparts	-5356
▁consolidation	-5357
BOC	-5358
aba	-5359
bit	-5360
how	-5361
▁$4	-5362
▁Su	-5363
▁$1.	-5364
▁90%	-5365
▁sac	-5366
China	-5367
ommod	-5368
rence	-5369
rific	-5370
▁kept	-5371
▁reck	-5372
▁diver	-5373
▁wrote	-5374
termath	-5375
through	-5376
▁Senate	-5377
▁appeal	-5378
▁aspect	-5379
▁buying	-5380
▁condem	-5381
▁entail	-5382
▁satisf	-5383
▁broadly	-5384
▁claimed	-5385
▁painful	-5386
ressional	-5387
▁deposits	-5388
▁aftermath	-5389
▁customers	-5390
▁dependent	-5391
▁disappoint	-5392
▁participants	-5393
▁interventions	-5394
IA	-5395
ino	-5396
rete	-5397
▁cha	-5398
▁die	-5399
▁sch	-5400
▁via	-5401
▁wors	-5402
ivered	-5403
urally	-5404
▁bolst	-5405
▁defin	-5406
▁escal	-5407
▁multi	-5408
▁speed	-5409
▁extend	-5410
▁series	-5411
▁carried	-5412
▁diverse	-5413
▁package	-5414
▁pursued	-5415
▁revealed	-5416
▁controvers	-5417
▁extraordin	-5418
▁repression	-5419
▁ideological	-5420
▁contribution	-5421
▁professional	-5422
▁14	-5423
▁TB	-5424
▁Mor	-5425
▁cry	-5426
▁lag	-5427
▁obt	-5428
anmar	-5429
sight	-5430
▁2012	-5431
▁Summ	-5432
▁Tunis	-5433
▁chief	-5434
▁logic	-5435
▁norms	-5436
▁Rights	-5437
▁chains	-5438
▁courts	-5439
▁ending	-5440
▁harder	-5441
▁intent	-5442
▁latter	-5443
▁leaves	-5444
▁wonder	-5445
▁Spanish	-5446
▁reserve	-5447
▁dictators	-5448
▁undoubtedly	-5449
▁implementing	-5450
PP	-5451
ha	-5452
ket	-5453
▁16	-5454
▁Ac	-5455
iver	-5456
▁70%	-5457
▁anc	-5458
▁mus	-5459
▁pie	-5460
▁ple	-5461
known	-5462
style	-5463
▁tort	-5464
estate	-5465
▁daily	-5466
▁Labour	-5467
▁bigger	-5468
▁except	-5469
▁review	-5470
▁survey	-5471
▁thanks	-5472
veraging	-5473
▁concrete	-5474
▁enabling	-5475
▁properly	-5476
▁Stability	-5477
▁delivered	-5478
▁ecosystem	-5479
▁encouraged	-5480
▁alternatives	-5481
▁strengthened	-5482
▁successfully	-5483
fe	-5484
egu	-5485
▁She	-5486
▁fil	-5487
▁tob	-5488
▁$100	-5489
▁aims	-5490
▁crow	-5491
▁emot	-5492
▁sole	-5493
▁Austr	-5494
▁Forum	-5495
▁Franc	-5496
▁holds	-5497
▁monop	-5498
▁plant	-5499
▁polls	-5500
▁unity	-5501
▁voted	-5502
agement	-5503
ulative	-5504
▁Recent	-5505
▁Strate	-5506
▁relief	-5507
▁retail	-5508
▁retire	-5509
▁disappe	-5510
▁tobacco	-5511
▁elements	-5512
▁patterns	-5513
▁religion	-5514
▁returned	-5515
▁repeatedly	-5516
▁arrangements	-5517
ONG	-5518
cri	-5519
ozy	-5520
ple	-5521
uan	-5522
▁60	-5523
empl	-5524
rish	-5525
vard	-5526
view	-5527
▁App	-5528
▁Naz	-5529
▁2011	-5530
▁cars	-5531
▁docu	-5532
▁text	-5533
▁turm	-5534
anging	-5535
▁Sudan	-5536
▁artic	-5537
▁delib	-5538
▁recip	-5539
▁scand	-5540
▁surge	-5541
▁decent	-5542
▁divers	-5543
▁slower	-5544
▁yields	-5545
▁Harvard	-5546
▁Myanmar	-5547
▁compete	-5548
▁realize	-5549
▁turmoil	-5550
▁variety	-5551
ufficient	-5552
▁accommod	-5553
▁announce	-5554
▁balanced	-5555
▁educated	-5556
▁emphasis	-5557
▁examples	-5558
▁moderate	-5559
▁outbreak	-5560
▁severely	-5561
▁discrimin	-5562
▁generated	-5563
▁populists	-5564
▁atmosphere	-5565
▁prosperous	-5566
▁flexibility	-5567
▁improvements	-5568
9.	-5569
ips	-5570
now	-5571
she	-5572
ebru	-5573
olar	-5574
▁Cle	-5575
▁hyd	-5576
using	-5577
▁ball	-5578
▁zone	-5579
arkozy	-5580
growth	-5581
health	-5582
thirds	-5583
▁David	-5584
▁shale	-5585
ebruary	-5586
▁Change	-5587
▁Spring	-5588
▁acting	-5589
▁actual	-5590
▁caught	-5591
▁charge	-5592
▁philos	-5593
outheast	-5594
▁reverse	-5595
▁workforce	-5596
▁dependence	-5597
▁mainstream	-5598
▁nineteenth	-5599
▁struggling	-5600
▁Furthermore	-5601
▁antibiotics	-5602
▁challenging	-5603
emb	-5604
▁bra	-5605
ellow	-5606
inced	-5607
ollah	-5608
▁rout	-5609
00,000	-5610
▁links	-5611
▁posed	-5612
▁prede	-5613
▁waste	-5614
▁Angela	-5615
▁escape	-5616
▁estate	-5617
▁rarely	-5618
▁shifts	-5619
levision	-5620
▁Turkish	-5621
▁command	-5622
▁expense	-5623
▁slowing	-5624
including	-5625
▁released	-5626
▁valuable	-5627
▁responses	-5628
▁conclusion	-5629
▁generating	-5630
▁temperatures	-5631
na	-5632
urd	-5633
▁clin	-5634
▁pret	-5635
▁vill	-5636
ailand	-5637
▁alarm	-5638
▁equip	-5639
▁helps	-5640
▁overh	-5641
▁penal	-5642
rations	-5643
▁perpet	-5644
▁strike	-5645
▁Sarkozy	-5646
▁minimum	-5647
▁parents	-5648
▁pointed	-5649
▁stopped	-5650
▁Ethiopia	-5651
▁February	-5652
▁somewhat	-5653
▁narrative	-5654
▁predecess	-5655
▁stimulate	-5656
▁tightening	-5657
▁negotiating	-5658
CE	-5659
GDP	-5660
duc	-5661
ias	-5662
▁Im	-5663
aded	-5664
cker	-5665
Sahar	-5666
itect	-5667
oning	-5668
price	-5669
▁Four	-5670
▁Gulf	-5671
▁Lead	-5672
▁loan	-5673
▁runs	-5674
▁Burma	-5675
▁frust	-5676
Saharan	-5677
ortions	-5678
▁Unlike	-5679
▁apprec	-5680
▁combat	-5681
▁donors	-5682
▁wisdom	-5683
▁Through	-5684
▁killing	-5685
▁mission	-5686
▁Thailand	-5687
▁declined	-5688
▁mobility	-5689
▁multiple	-5690
▁provision	-5691
▁shortfall	-5692
▁consistent	-5693
▁guarantees	-5694
▁purchasing	-5695
▁manipulation	-5696
▁relationships	-5697
IP	-5698
We	-5699
ashed	-5700
gered	-5701
▁bill	-5702
▁hege	-5703
▁wait	-5704
asters	-5705
depend	-5706
▁1980’	-5707
▁acute	-5708
▁gives	-5709
▁south	-5710
▁Serbia	-5711
▁female	-5712
▁launch	-5713
▁poorer	-5714
▁safegu	-5715
▁spirit	-5716
▁weaken	-5717
▁fueling	-5718
▁ignored	-5719
▁inflows	-5720
▁proceed	-5721
▁prolong	-5722
▁worried	-5723
▁Islamist	-5724
▁computer	-5725
▁flexible	-5726
▁architect	-5727
▁expertise	-5728
▁isolation	-5729
▁producing	-5730
▁statistics	-5731
▁devaluation	-5732
▁expenditures	-5733
▁policymaking	-5734
zz	-5735
oes	-5736
xic	-5737
▁Ah	-5738
▁aw	-5739
lish	-5740
▁25%	-5741
▁Kim	-5742
▁swe	-5743
agger	-5744
party	-5745
▁qual	-5746
▁seas	-5747
adjust	-5748
commun	-5749
estern	-5750
lessly	-5751
ounded	-5752
▁crime	-5753
▁pharm	-5754
▁wider	-5755
▁Nether	-5756
▁gather	-5757
▁shares	-5758
▁volunt	-5759
▁accompl	-5760
▁profess	-5761
▁treated	-5762
inational	-5763
inflation	-5764
▁absolute	-5765
▁attempts	-5766
▁informal	-5767
▁measured	-5768
▁publicly	-5769
▁seemingly	-5770
▁taxpayers	-5771
▁discipline	-5772
▁resilience	-5773
▁Netherlands	-5774
▁effectiveness	-5775
RIS	-5776
oon	-5777
▁PA	-5778
▁od	-5779
▁CEO	-5780
▁fra	-5781
▁saw	-5782
acing	-5783
▁Much	-5784
▁SOEs	-5785
ptions	-5786
▁advis	-5787
▁catch	-5788
▁polar	-5789
▁barely	-5790
▁height	-5791
▁saying	-5792
▁slowly	-5793
▁disorder	-5794
▁meetings	-5795
▁Institute	-5796
▁conducted	-5797
▁responded	-5798
▁suggested	-5799
rum	-5800
▁je	-5801
agen	-5802
arak	-5803
▁Law	-5804
▁Yes	-5805
emics	-5806
idden	-5807
inian	-5808
ivate	-5809
▁None	-5810
▁blam	-5811
▁blow	-5812
▁curb	-5813
▁tele	-5814
alysts	-5815
illenn	-5816
iments	-5817
itudes	-5818
▁2016,	-5819
▁autoc	-5820
▁heard	-5821
▁minds	-5822
▁risen	-5823
▁Resear	-5824
▁broken	-5825
▁friend	-5826
▁resort	-5827
▁transm	-5828
▁version	-5829
▁democrat	-5830
▁outright	-5831
▁expressed	-5832
▁mortgages	-5833
▁similarly	-5834
▁triggered	-5835
▁unwilling	-5836
AV	-5837
EY	-5838
ius	-5839
oor	-5840
rew	-5841
rig	-5842
soc	-5843
▁$5	-5844
▁El	-5845
cles	-5846
▁Pen	-5847
▁hot	-5848
▁lie	-5849
ilemm	-5850
ordan	-5851
▁alle	-5852
▁grid	-5853
▁pill	-5854
▁prud	-5855
▁trap	-5856
ashion	-5857
▁enlar	-5858
▁noted	-5859
product	-5860
▁advice	-5861
▁unders	-5862
American	-5863
▁Defense	-5864
▁Supreme	-5865
▁gradual	-5866
▁someone	-5867
▁witness	-5868
▁exercise	-5869
▁limiting	-5870
▁suddenly	-5871
▁convinced	-5872
▁executives	-5873
▁frequently	-5874
▁maintained	-5875
▁presidents	-5876
▁considerably	-5877
▁fundamentals	-5878
ma	-5879
rees	-5880
▁202	-5881
▁vac	-5882
agues	-5883
▁Sunn	-5884
▁vent	-5885
▁homes	-5886
▁argues	-5887
▁define	-5888
▁transl	-5889
▁waters	-5890
▁charges	-5891
▁academic	-5892
▁resulted	-5893
▁Southeast	-5894
▁carefully	-5895
▁diversity	-5896
▁attempting	-5897
▁commission	-5898
▁sophisticated	-5899
gia	-5900
ica	-5901
ini	-5902
ugg	-5903
iban	-5904
prof	-5905
▁Bet	-5906
▁Cyp	-5907
▁Den	-5908
eping	-5909
integ	-5910
▁2001,	-5911
▁Found	-5912
▁Roman	-5913
▁facts	-5914
▁newsp	-5915
▁refer	-5916
develop	-5917
osition	-5918
▁cooper	-5919
▁opened	-5920
▁overse	-5921
▁united	-5922
▁Taliban	-5923
▁comment	-5924
▁dismiss	-5925
▁renewed	-5926
▁creative	-5927
▁damaging	-5928
▁arguments	-5929
▁assessment	-5930
▁acknowledge	-5931
▁participate	-5932
▁experiencing	-5933
▁fundamentally	-5934
?”	-5935
ami	-5936
▁Li	-5937
ador	-5938
body	-5939
face	-5940
port	-5941
▁Cop	-5942
▁Dar	-5943
▁cul	-5944
▁doz	-5945
odies	-5946
place	-5947
▁drag	-5948
▁Blair	-5949
▁abuse	-5950
▁false	-5951
▁ruled	-5952
▁steel	-5953
▁traff	-5954
▁white	-5955
perform	-5956
ressing	-5957
▁Jordan	-5958
▁fourth	-5959
▁presum	-5960
▁talent	-5961
atlantic	-5962
▁assumed	-5963
▁contrad	-5964
▁showing	-5965
▁stories	-5966
▁annivers	-5967
▁dominant	-5968
▁benefited	-5969
▁equipment	-5970
▁executive	-5971
▁predicted	-5972
▁recommend	-5973
▁university	-5974
▁consequence	-5975
▁progressive	-5976
▁Constitution	-5977
▁appreciation	-5978
▁shareholders	-5979
▁simultaneously	-5980
▁transportation	-5981
CO	-5982
que	-5983
▁6.	-5984
grad	-5985
ocol	-5986
oked	-5987
oles	-5988
osen	-5989
▁Aut	-5990
▁rig	-5991
inded	-5992
▁died	-5993
▁gets	-5994
ection	-5995
▁2000,	-5996
▁Goals	-5997
▁Peace	-5998
▁cells	-5999
▁enjoy	-6000
▁moves	-6001
▁north	-6002
▁poses	-6003
▁types	-6004
▁usual	-6005
▁Agency	-6006
▁brings	-6007
▁shadow	-6008
▁Clearly	-6009
▁destroy	-6010
▁evident	-6011
▁routine	-6012
▁vaccine	-6013
▁Atlantic	-6014
▁chemical	-6015
▁invested	-6016
▁nowadays	-6017
▁straight	-6018
▁urgently	-6019
▁ambitions	-6020
▁demanding	-6021
▁statement	-6022
▁affordable	-6023
▁apparently	-6024
▁controlled	-6025
▁television	-6026
▁coordinated	-6027
▁communication	-6028
cor	-6029
oms	-6030
pan	-6031
▁Os	-6032
adic	-6033
onia	-6034
oted	-6035
rine	-6036
▁ast	-6037
▁bit	-6038
▁hab	-6039
nings	-6040
▁PBOC	-6041
▁bloc	-6042
▁cast	-6043
▁dark	-6044
▁pool	-6045
▁puts	-6046
urance	-6047
▁Assad	-6048
▁White	-6049
▁night	-6050
▁staff	-6051
▁murder	-6052
▁plenty	-6053
interest	-6054
▁Hungary	-6055
▁channel	-6056
▁selling	-6057
▁decisive	-6058
▁supports	-6059
▁weakened	-6060
▁awareness	-6061
▁happening	-6062
▁initially	-6063
▁weakening	-6064
▁concerning	-6065
▁indicators	-6066
▁reductions	-6067
▁complicated	-6068
▁breakthrough	-6069
▁extraordinary	-6070
IB	-6071
TA	-6072
ragm	-6073
rity	-6074
▁Mub	-6075
▁lob	-6076
▁Conf	-6077
▁eyes	-6078
▁seed	-6079
▁shut	-6080
▁trib	-6081
▁uses	-6082
▁wish	-6083
econom	-6084
ioxide	-6085
ranean	-6086
▁2009,	-6087
▁2015.	-6088
▁crack	-6089
▁eager	-6090
▁imply	-6091
▁kinds	-6092
▁thres	-6093
enhagen	-6094
▁Depart	-6095
▁Robert	-6096
▁deprec	-6097
▁proven	-6098
▁rulers	-6099
▁voting	-6100
currency	-6101
idelines	-6102
▁dealing	-6103
▁deposit	-6104
▁eastern	-6105
▁payment	-6106
▁privile	-6107
▁Egyptian	-6108
▁Northern	-6109
▁discoura	-6110
▁distingu	-6111
▁financed	-6112
▁pressing	-6113
▁reaction	-6114
▁inclusion	-6115
▁ourselves	-6116
▁requiring	-6117
▁Copenhagen	-6118
▁meaningful	-6119
▁phenomenon	-6120
▁enforcement	-6121
▁problematic	-6122
▁consistently	-6123
▁contributing	-6124
▁insufficient	-6125
KEL	-6126
eda	-6127
gor	-6128
hab	-6129
kers	-6130
odes	-6131
rant	-6132
resh	-6133
▁15%	-6134
essim	-6135
iking	-6136
▁Asse	-6137
▁Cuba	-6138
▁Five	-6139
▁felt	-6140
▁pure	-6141
▁rail	-6142
astrop	-6143
istrib	-6144
▁Board	-6145
▁birth	-6146
▁crash	-6147
▁match	-6148
▁BERKEL	-6149
▁divide	-6150
▁exclud	-6151
▁strict	-6152
▁Justice	-6153
▁Mubarak	-6154
▁empower	-6155
▁malaria	-6156
connected	-6157
▁reliance	-6158
▁connected	-6159
▁governing	-6160
▁threshold	-6161
▁assumption	-6162
▁minorities	-6163
▁reputation	-6164
▁expenditure	-6165
▁foundations	-6166
bor	-6167
urt	-6168
▁$6	-6169
▁$7	-6170
▁Sm	-6171
cost	-6172
isan	-6173
lash	-6174
serv	-6175
stan	-6176
▁Ben	-6177
▁dim	-6178
opard	-6179
unger	-6180
▁1970	-6181
▁Bill	-6182
▁send	-6183
umping	-6184
▁chain	-6185
▁lacks	-6186
▁simpl	-6187
▁manner	-6188
▁stocks	-6189
▁consult	-6190
▁justify	-6191
▁BERKELEY	-6192
▁reconcil	-6193
▁reliable	-6194
▁dominance	-6195
▁exporters	-6196
▁reluctant	-6197
▁surpluses	-6198
▁Department	-6199
▁identified	-6200
▁discussions	-6201
▁rebalancing	-6202
▁compensation	-6203
▁multinational	-6204
ES	-6205
HI	-6206
...	-6207
alf	-6208
anke	-6209
claim	-6210
enses	-6211
▁True	-6212
▁pick	-6213
▁unex	-6214
▁aside	-6215
▁write	-6216
growing	-6217
▁Malays	-6218
adjusted	-6219
▁English	-6220
▁dangers	-6221
▁forcing	-6222
▁foresee	-6223
▁fulfill	-6224
▁refused	-6225
▁removed	-6226
▁traject	-6227
▁Research	-6228
▁accurate	-6229
▁extended	-6230
▁prosecut	-6231
▁Represent	-6232
▁catastrop	-6233
▁favorable	-6234
▁materials	-6235
▁threatens	-6236
▁Foundation	-6237
▁foreigners	-6238
▁impressive	-6239
governmental	-6240
▁demonstrate	-6241
▁recognizing	-6242
▁overwhelming	-6243
▁characterized	-6244
▁collaboration	-6245
mad	-6246
▁4.	-6247
aeda	-6248
amed	-6249
hand	-6250
otic	-6251
phic	-6252
ruit	-6253
▁gun	-6254
▁City	-6255
▁Hist	-6256
▁hurt	-6257
▁image	-6258
▁seeks	-6259
▁voice	-6260
▁watch	-6261
▁advert	-6262
▁backed	-6263
▁mother	-6264
▁remote	-6265
▁scheme	-6266
▁capture	-6267
▁jeopard	-6268
▁methods	-6269
▁Africans	-6270
▁civilian	-6271
▁focusing	-6272
▁imperial	-6273
▁lowering	-6274
▁Democracy	-6275
▁Palestine	-6276
▁prevented	-6277
▁realistic	-6278
▁facilities	-6279
▁subsequent	-6280
▁inefficient	-6281
▁urbanization	-6282
CT	-6283
eal	-6284
ria	-6285
▁IP	-6286
alem	-6287
ande	-6288
beit	-6289
▁205	-6290
▁Bas	-6291
▁Pan	-6292
▁cop	-6293
onial	-6294
▁Deng	-6295
▁Holl	-6296
▁enth	-6297
▁epis	-6298
iously	-6299
▁Among	-6300
▁Frank	-6301
▁anger	-6302
▁aspir	-6303
▁badly	-6304
▁deleg	-6305
▁insol	-6306
illance	-6307
veraged	-6308
▁openly	-6309
▁oppose	-6310
▁Capital	-6311
▁Mediter	-6312
▁debates	-6313
▁spectac	-6314
▁undersc	-6315
▁Assembly	-6316
▁adopting	-6317
▁imposing	-6318
▁mitigate	-6319
▁occasion	-6320
▁sacrific	-6321
▁separate	-6322
▁underest	-6323
▁upcoming	-6324
▁Political	-6325
▁organized	-6326
▁projected	-6327
▁artificial	-6328
▁statements	-6329
▁undermined	-6330
▁anniversary	-6331
▁engineering	-6332
▁liabilities	-6333
▁partnerships	-6334
▁Mediterranean	-6335
▁internationally	-6336
▁representatives	-6337
EA	-6338
Is	-6339
tax	-6340
born	-6341
omed	-6342
onds	-6343
orld	-6344
▁Far	-6345
▁lab	-6346
urers	-6347
▁1930	-6348
▁Educ	-6349
▁teac	-6350
▁wild	-6351
holder	-6352
▁arise	-6353
▁entit	-6354
theless	-6355
▁Unless	-6356
▁brutal	-6357
▁couple	-6358
▁driver	-6359
▁flight	-6360
▁inside	-6361
▁alleged	-6362
▁greatly	-6363
▁planned	-6364
▁Bernanke	-6365
▁backlash	-6366
▁preserve	-6367
▁slightly	-6368
▁ultimate	-6369
▁Christian	-6370
▁component	-6371
▁confident	-6372
▁stabilize	-6373
▁background	-6374
▁beneficial	-6375
▁Sustainable	-6376
tt	-6377
oto	-6378
raf	-6379
sey	-6380
agan	-6381
imal	-6382
omal	-6383
▁BEI	-6384
▁Dut	-6385
asive	-6386
enced	-6387
osure	-6388
▁barg	-6389
▁brid	-6390
▁didn	-6391
▁rank	-6392
▁scar	-6393
establ	-6394
▁2008.	-6395
▁Group	-6396
▁PARIS	-6397
▁crypt	-6398
▁forth	-6399
▁fresh	-6400
▁novel	-6401
▁repay	-6402
▁Berlin	-6403
▁Public	-6404
▁dilemm	-6405
▁island	-6406
▁signal	-6407
▁steady	-6408
ominated	-6409
▁Already	-6410
▁Tunisia	-6411
▁accused	-6412
▁dropped	-6413
▁gaining	-6414
▁substit	-6415
▁analysts	-6416
▁appeared	-6417
▁remember	-6418
▁replaced	-6419
▁Agreement	-6420
▁regarding	-6421
▁automation	-6422
▁colleagues	-6423
▁vulnerability	-6424
▁unconventional	-6425
▁understandable	-6426
SEL	-6427
fol	-6428
ked	-6429
ihad	-6430
supp	-6431
▁Mao	-6432
aceut	-6433
dered	-6434
utral	-6435
▁2017	-6436
▁Char	-6437
▁Each	-6438
▁Hill	-6439
▁eval	-6440
▁hero	-6441
▁unit	-6442
racted	-6443
▁2007,	-6444
▁Alger	-6445
▁Sunni	-6446
▁fails	-6447
▁postp	-6448
▁virus	-6449
▁adding	-6450
▁basket	-6451
▁eradic	-6452
▁famili	-6453
▁passed	-6454
▁propag	-6455
▁regist	-6456
▁exchang	-6457
▁machine	-6458
aceutical	-6459
▁dynamics	-6460
▁machines	-6461
▁purchase	-6462
▁abandoned	-6463
▁attitudes	-6464
▁convergence	-6465
▁applications	-6466
▁surveillance	-6467
▁modernization	-6468
adv	-6469
amb	-6470
ein	-6471
ley	-6472
olf	-6473
▁1,	-6474
▁Cz	-6475
▁Hu	-6476
aunt	-6477
rank	-6478
▁avo	-6479
reens	-6480
▁dele	-6481
▁knew	-6482
▁stre	-6483
iaries	-6484
▁1970’	-6485
▁arbit	-6486
▁falls	-6487
▁pragm	-6488
▁Norway	-6489
▁attend	-6490
▁notion	-6491
▁retain	-6492
▁slowed	-6493
▁unrest	-6494
▁avoided	-6495
▁chances	-6496
▁courage	-6497
▁decreas	-6498
▁feature	-6499
▁champion	-6500
▁mobilize	-6501
▁original	-6502
▁wellbeing	-6503
▁comparable	-6504
▁foundation	-6505
▁perception	-6506
▁bureaucracy	-6507
▁surprisingly	-6508
CP	-6509
NA	-6510
vis	-6511
JING	-6512
dict	-6513
ilib	-6514
▁Nic	-6515
oples	-6516
▁forg	-6517
▁gaps	-6518
▁nutr	-6519
▁pict	-6520
▁plun	-6521
▁roll	-6522
▁turb	-6523
tering	-6524
▁Front	-6525
▁drawn	-6526
▁toxic	-6527
▁turns	-6528
▁Should	-6529
▁enthus	-6530
▁hunger	-6531
▁sexual	-6532
▁bailout	-6533
▁missile	-6534
▁missing	-6535
▁streets	-6536
▁approved	-6537
▁mistakes	-6538
▁persuade	-6539
▁underway	-6540
▁activists	-6541
▁obstacles	-6542
▁sensitive	-6543
▁negotiated	-6544
▁reinforced	-6545
▁protectionism	-6546
BI	-6547
NP	-6548
lu	-6549
zb	-6550
osn	-6551
tic	-6552
odox	-6553
uate	-6554
uris	-6555
▁SDR	-6556
democ	-6557
hered	-6558
unity	-6559
▁Balk	-6560
▁Free	-6561
▁cate	-6562
▁ease	-6563
▁wise	-6564
▁word	-6565
invest	-6566
▁Earth	-6567
▁sites	-6568
zbollah	-6569
▁traged	-6570
▁BEIJING	-6571
▁Denmark	-6572
▁cheaper	-6573
▁convers	-6574
▁liberty	-6575
▁winning	-6576
▁written	-6577
▁estimate	-6578
▁finances	-6579
▁medicine	-6580
▁openness	-6581
▁accounted	-6582
▁intention	-6583
▁obviously	-6584
▁presented	-6585
▁prolonged	-6586
▁compelling	-6587
▁trajectory	-6588
▁revolutionary	-6589
▁considerations	-6590
▁discrimination	-6591
▁pharmaceutical	-6592
DB	-6593
DI	-6594
▁eg	-6595
SELS	-6596
etty	-6597
lder	-6598
such	-6599
▁500	-6600
▁Hit	-6601
▁Jun	-6602
▁Wen	-6603
▁hed	-6604
▁meg	-6605
apers	-6606
▁Back	-6607
▁Coop	-6608
▁SDGs	-6609
▁ally	-6610
▁hear	-6611
▁judg	-6612
▁outl	-6613
▁pose	-6614
USSELS	-6615
accept	-6616
icated	-6617
▁2005,	-6618
▁align	-6619
▁check	-6620
▁grave	-6621
▁seats	-6622
▁enlarge	-6623
▁entered	-6624
▁lenders	-6625
▁portfol	-6626
▁skilled	-6627
▁testing	-6628
▁autonomy	-6629
▁mounting	-6630
▁mortality	-6631
▁Industrial	-6632
▁Brotherhood	-6633
▁adjustments	-6634
▁considering	-6635
▁transformed	-6636
▁dictatorship	-6637
▁neighborhood	-6638
SA	-6639
bur	-6640
yan	-6641
▁24	-6642
alls	-6643
iest	-6644
ivot	-6645
tech	-6646
▁Sal	-6647
▁dys	-6648
▁hyp	-6649
▁slo	-6650
▁tri	-6651
icism	-6652
isher	-6653
ophob	-6654
water	-6655
▁Camb	-6656
▁doct	-6657
▁onto	-6658
alling	-6659
minded	-6660
▁Gates	-6661
▁Somal	-6662
▁storm	-6663
essions	-6664
▁Church	-6665
▁exists	-6666
▁fields	-6667
▁judges	-6668
▁marked	-6669
▁unfair	-6670
▁uphold	-6671
▁careful	-6672
▁doctors	-6673
▁patient	-6674
▁prepare	-6675
▁pricing	-6676
▁pursuit	-6677
▁BRUSSELS	-6678
▁anywhere	-6679
▁conclude	-6680
▁ideology	-6681
▁reversed	-6682
▁treaties	-6683
▁Hezbollah	-6684
▁desperate	-6685
▁disasters	-6686
▁involving	-6687
▁redistrib	-6688
▁shortages	-6689
▁targeting	-6690
▁complement	-6691
▁procedures	-6692
▁neighboring	-6693
▁concentrated	-6694
3.	-6695
lex	-6696
▁27	-6697
abwe	-6698
coni	-6699
mony	-6700
▁Mos	-6701
sheet	-6702
▁2004	-6703
▁Scot	-6704
▁cope	-6705
▁ends	-6706
energy	-6707
ighter	-6708
▁books	-6709
▁juris	-6710
▁print	-6711
imbabwe	-6712
▁Berlus	-6713
▁explos	-6714
▁famous	-6715
▁pessim	-6716
▁scarce	-6717
chnology	-6718
▁anxiety	-6719
▁binding	-6720
▁disturb	-6721
▁enacted	-6722
▁fashion	-6723
▁joining	-6724
▁restric	-6725
astrophic	-6726
▁Business	-6727
▁disinteg	-6728
▁inherent	-6729
▁numerous	-6730
▁overseas	-6731
▁surround	-6732
▁alongside	-6733
▁construct	-6734
▁existence	-6735
▁interpret	-6736
▁resilient	-6737
▁catastrophe	-6738
▁temperature	-6739
▁Nevertheless	-6740
6,	-6741
CH	-6742
aks	-6743
roc	-6744
win	-6745
▁21	-6746
fire	-6747
inst	-6748
oned	-6749
ooth	-6750
pper	-6751
size	-6752
▁Her	-6753
▁Inc	-6754
▁neo	-6755
▁une	-6756
grade	-6757
itime	-6758
rates	-6759
▁Bash	-6760
▁Jews	-6761
▁dign	-6762
▁fine	-6763
▁indu	-6764
▁jump	-6765
▁symp	-6766
▁toll	-6767
▁vice	-6768
iances	-6769
inated	-6770
▁Three	-6771
▁adult	-6772
▁gross	-6773
▁harsh	-6774
▁manif	-6775
▁plaus	-6776
▁dispar	-6777
▁dispos	-6778
▁namely	-6779
▁privat	-6780
▁unions	-6781
building	-6782
▁Against	-6783
▁dioxide	-6784
▁grounds	-6785
▁lasting	-6786
▁outlook	-6787
▁paralle	-6788
▁Malaysia	-6789
▁Scotland	-6790
▁balances	-6791
▁constant	-6792
▁enhanced	-6793
▁epidemic	-6794
▁invasion	-6795
▁overlook	-6796
▁recorded	-6797
▁deepening	-6798
▁explained	-6799
▁integrity	-6800
▁motivated	-6801
▁succeeded	-6802
▁Berlusconi	-6803
▁Economists	-6804
▁depression	-6805
▁disruption	-6806
▁supposedly	-6807
▁accountable	-6808
▁dysfunction	-6809
bed	-6810
iev	-6811
band	-6812
irty	-6813
izon	-6814
ruck	-6815
▁Let	-6816
▁Pet	-6817
▁You	-6818
▁cab	-6819
▁sem	-6820
▁spl	-6821
▁tum	-6822
ailed	-6823
child	-6824
oping	-6825
riend	-6826
▁AIIB	-6827
▁date	-6828
▁desp	-6829
irable	-6830
▁2010.	-6831
▁tasks	-6832
respons	-6833
▁Jewish	-6834
▁albeit	-6835
▁bodies	-6836
▁degrad	-6837
▁foster	-6838
▁resent	-6839
▁Germans	-6840
▁feeling	-6841
▁granted	-6842
▁landing	-6843
▁nowhere	-6844
▁picture	-6845
▁rightly	-6846
▁Hollande	-6847
▁accident	-6848
▁adoption	-6849
▁approval	-6850
▁believes	-6851
▁complain	-6852
▁findings	-6853
▁mutually	-6854
▁worrying	-6855
▁Keynesian	-6856
▁divisions	-6857
▁protected	-6858
▁residents	-6859
▁contradict	-6860
▁interested	-6861
▁unilateral	-6862
▁legislative	-6863
▁announcement	-6864
▁difficulties	-6865
▁inflationary	-6866
DA	-6867
ky	-6868
imm	-6869
ply	-6870
rav	-6871
▁sy	-6872
icon	-6873
iful	-6874
orsi	-6875
rect	-6876
▁Mad	-6877
▁Out	-6878
eting	-6879
inger	-6880
olars	-6881
▁Rich	-6882
▁star	-6883
ipping	-6884
▁2006,	-6885
▁2013.	-6886
▁Czech	-6887
▁Dutch	-6888
▁abund	-6889
▁hydro	-6890
largest	-6891
▁Hitler	-6892
▁chosen	-6893
▁incumb	-6894
▁lowest	-6895
▁spring	-6896
▁Austria	-6897
▁forests	-6898
▁shifted	-6899
▁talking	-6900
efficient	-6901
ideration	-6902
roportion	-6903
▁Whatever	-6904
▁distinct	-6905
▁exposure	-6906
▁implicit	-6907
▁indicate	-6908
▁resolved	-6909
▁unaccept	-6910
government	-6911
▁reinforce	-6912
▁altogether	-6913
▁responding	-6914
▁contraction	-6915
oy	-6916
afi	-6917
def	-6918
spe	-6919
uls	-6920
▁5.	-6921
▁Ha	-6922
▁Rw	-6923
ding	-6924
indu	-6925
rase	-6926
rium	-6927
▁Aff	-6928
▁Rel	-6929
▁bip	-6930
▁eye	-6931
▁seg	-6932
orrow	-6933
▁acts	-6934
▁deny	-6935
▁halt	-6936
▁heat	-6937
▁pull	-6938
chmark	-6939
icians	-6940
orship	-6941
stable	-6942
▁2017,	-6943
▁Medic	-6944
▁Morsi	-6945
▁Power	-6946
▁cease	-6947
▁crops	-6948
▁donor	-6949
▁elder	-6950
▁enfor	-6951
▁jihad	-6952
▁plays	-6953
▁pound	-6954
▁saved	-6955
forward	-6956
▁Reform	-6957
▁funded	-6958
▁upward	-6959
▁volume	-6960
▁weapon	-6961
rational	-6962
▁Nuclear	-6963
▁arguing	-6964
▁request	-6965
▁Russians	-6966
▁Strategy	-6967
▁channels	-6968
▁dominate	-6969
▁explains	-6970
▁familiar	-6971
▁civilians	-6972
▁inability	-6973
▁introduce	-6974
▁operation	-6975
▁criticized	-6976
▁emphasized	-6977
▁extremists	-6978
▁livelihood	-6979
▁persistent	-6980
▁prevailing	-6981
▁retirement	-6982
▁competitors	-6983
▁declaration	-6984
▁eliminating	-6985
▁importantly	-6986
▁influential	-6987
▁catastrophic	-6988
6.	-6989
MR	-6990
ef	-6991
new	-6992
▁7.	-6993
anes	-6994
athy	-6995
emen	-6996
fund	-6997
rors	-6998
▁Few	-6999
▁hes	-7000
ourse	-7001
▁Jean	-7002
▁cart	-7003
▁lawy	-7004
▁unle	-7005
aution	-7006
necess	-7007
ployed	-7008
▁Crime	-7009
▁Somet	-7010
▁finds	-7011
▁seize	-7012
▁skill	-7013
sharing	-7014
▁abuses	-7015
▁asking	-7016
▁poorly	-7017
▁prompt	-7018
▁restra	-7019
▁richer	-7020
▁sooner	-7021
▁stream	-7022
cription	-7023
emporary	-7024
▁Georgia	-7025
▁Juncker	-7026
▁backing	-7027
▁citizen	-7028
▁closing	-7029
▁preserv	-7030
▁ratings	-7031
▁relying	-7032
▁tactics	-7033
▁torture	-7034
▁earnings	-7035
▁famously	-7036
▁proclaim	-7037
▁superior	-7038
▁Education	-7039
▁cooperate	-7040
▁premature	-7041
▁reporting	-7042
iodiversity	-7043
▁confronting	-7044
▁enlargement	-7045
▁sufficiently	-7046
▁controversial	-7047
▁disproportion	-7048
LA	-7049
tr	-7050
cow	-7051
dig	-7052
▁4%	-7053
▁TV	-7054
real	-7055
▁Dra	-7056
▁Env	-7057
▁ang	-7058
▁fun	-7059
▁mag	-7060
▁web	-7061
ifies	-7062
night	-7063
▁male	-7064
▁outf	-7065
▁rock	-7066
▁tons	-7067
▁vary	-7068
active	-7069
gorith	-7070
▁Irish	-7071
▁chaos	-7072
▁fluct	-7073
▁happy	-7074
▁laure	-7075
▁roads	-7076
▁Before	-7077
▁Reagan	-7078
▁School	-7079
▁advent	-7080
▁headed	-7081
▁select	-7082
▁struck	-7083
▁triump	-7084
▁ancient	-7085
▁exploit	-7086
▁fastest	-7087
▁genetic	-7088
▁Alliance	-7089
▁convince	-7090
▁disagree	-7091
▁features	-7092
▁foremost	-7093
▁investor	-7094
▁monopoly	-7095
▁collapsed	-7096
▁competing	-7097
▁forecasts	-7098
▁resolving	-7099
▁Convention	-7100
▁allocation	-7101
▁expression	-7102
▁guaranteed	-7103
▁optimistic	-7104
▁recognizes	-7105
▁treatments	-7106
▁weaknesses	-7107
▁constrained	-7108
▁involvement	-7109
▁Conservative	-7110
▁administrative	-7111
90	-7112
ER	-7113
EU	-7114
WI	-7115
cel	-7116
▁7%	-7117
▁Mu	-7118
▁Ug	-7119
aval	-7120
soft	-7121
▁Hol	-7122
▁Lis	-7123
▁dub	-7124
▁gar	-7125
▁glo	-7126
▁sun	-7127
atism	-7128
vency	-7129
▁Silk	-7130
▁meat	-7131
▁reap	-7132
▁sets	-7133
▁spot	-7134
▁ster	-7135
▁subm	-7136
Brexit	-7137
advant	-7138
ispens	-7139
▁brain	-7140
▁conce	-7141
▁stood	-7142
▁Center	-7143
▁Crisis	-7144
▁Cyprus	-7145
▁Moscow	-7146
▁belong	-7147
▁career	-7148
▁disarm	-7149
▁fairly	-7150
▁inject	-7151
▁looked	-7152
▁ratios	-7153
▁resign	-7154
▁rooted	-7155
▁Islands	-7156
▁Pacific	-7157
▁ceiling	-7158
▁enemies	-7159
▁erupted	-7160
▁illness	-7161
▁immense	-7162
▁intense	-7163
▁peoples	-7164
▁regular	-7165
▁tragedy	-7166
▁younger	-7167
▁avoiding	-7168
▁declines	-7169
▁generous	-7170
▁meantime	-7171
▁sensible	-7172
▁software	-7173
▁taxation	-7174
▁volatile	-7175
▁Consensus	-7176
▁Recession	-7177
▁benchmark	-7178
▁communist	-7179
▁disadvant	-7180
▁fertility	-7181
▁integrate	-7182
▁prominent	-7183
▁safeguard	-7184
▁secondary	-7185
▁livelihoods	-7186
▁predictable	-7187
▁consideration	-7188
ghi	-7189
tra	-7190
ums	-7191
berg	-7192
gers	-7193
ille	-7194
itch	-7195
owed	-7196
uity	-7197
▁300	-7198
▁Inf	-7199
▁Ult	-7200
▁bid	-7201
▁ble	-7202
▁fit	-7203
chain	-7204
edded	-7205
itzer	-7206
orate	-7207
polit	-7208
▁2001	-7209
▁Supp	-7210
▁abol	-7211
▁note	-7212
▁pipe	-7213
▁rain	-7214
owners	-7215
▁ample	-7216
▁innoc	-7217
▁input	-7218
▁plumm	-7219
▁route	-7220
▁stark	-7221
▁agency	-7222
▁exclus	-7223
▁invent	-7224
▁marria	-7225
▁refuse	-7226
▁remove	-7227
▁rescue	-7228
▁aspects	-7229
▁distant	-7230
▁drivers	-7231
▁element	-7232
▁paradox	-7233
▁possess	-7234
▁scandal	-7235
▁delivery	-7236
▁doctrine	-7237
▁holdings	-7238
▁striking	-7239
▁affecting	-7240
▁intervene	-7241
▁principal	-7242
▁successor	-7243
▁Conference	-7244
▁commodities	-7245
▁represented	-7246
▁revolutions	-7247
▁accelerating	-7248
▁deflationary	-7249
▁communications	-7250
no	-7251
ana	-7252
cer	-7253
▁23	-7254
▁ES	-7255
▁Lo	-7256
▁MI	-7257
agon	-7258
eted	-7259
roll	-7260
spec	-7261
▁Adm	-7262
▁Che	-7263
▁Moh	-7264
▁San	-7265
▁hub	-7266
▁nom	-7267
▁pul	-7268
erted	-7269
ollar	-7270
tical	-7271
▁Food	-7272
▁burd	-7273
▁coun	-7274
▁laid	-7275
▁myth	-7276
▁quot	-7277
ounced	-7278
rators	-7279
redict	-7280
▁2030.	-7281
▁Davos	-7282
▁Inter	-7283
▁blind	-7284
▁facto	-7285
▁giant	-7286
▁navig	-7287
▁train	-7288
alities	-7289
erately	-7290
iration	-7291
▁Draghi	-7292
▁Summit	-7293
▁Within	-7294
▁doubts	-7295
▁flawed	-7296
▁parity	-7297
▁declare	-7298
▁pledged	-7299
▁reduces	-7300
ronically	-7301
▁criteria	-7302
▁employed	-7303
▁missiles	-7304
▁observed	-7305
▁purposes	-7306
▁realized	-7307
▁troubled	-7308
▁advocates	-7309
▁alliances	-7310
▁attempted	-7311
▁discussed	-7312
▁acceptable	-7313
▁collateral	-7314
▁infectious	-7315
▁likelihood	-7316
▁Cooperation	-7317
▁assumptions	-7318
▁nonetheless	-7319
▁congressional	-7320
▁proliferation	-7321
▁straightforward	-7322
ny	-7323
Ass	-7324
akh	-7325
irm	-7326
len	-7327
sen	-7328
sun	-7329
▁BO	-7330
coin	-7331
educ	-7332
lymp	-7333
made	-7334
wind	-7335
▁$10	-7336
▁191	-7337
▁Dis	-7338
▁Net	-7339
▁dog	-7340
▁los	-7341
erman	-7342
redit	-7343
▁cens	-7344
▁code	-7345
▁fill	-7346
▁flee	-7347
▁scre	-7348
▁tech	-7349
▁uphe	-7350
▁2014.	-7351
▁Catal	-7352
▁Initi	-7353
▁Popul	-7354
▁guard	-7355
▁remed	-7356
▁sympt	-7357
▁valid	-7358
▁zones	-7359
astrous	-7360
▁Lisbon	-7361
▁Others	-7362
▁Rwanda	-7363
▁blamed	-7364
▁cycles	-7365
▁solely	-7366
▁Environ	-7367
▁Hillary	-7368
▁Program	-7369
▁classes	-7370
▁customs	-7371
▁harmful	-7372
▁spurred	-7373
▁surpass	-7374
▁constitu	-7375
▁embraced	-7376
▁incorpor	-7377
▁soldiers	-7378
▁steadily	-7379
▁accepting	-7380
▁computers	-7381
▁initiated	-7382
▁Ultimately	-7383
▁definition	-7384
▁discovered	-7385
▁desperately	-7386
▁experiences	-7387
▁supervision	-7388
▁underpinned	-7389
▁acknowledged	-7390
▁constructive	-7391
▁professionals	-7392
80	-7393
OM	-7394
hi	-7395
igm	-7396
atar	-7397
cell	-7398
ione	-7399
lets	-7400
mmet	-7401
oler	-7402
▁Ang	-7403
▁Lar	-7404
▁Mah	-7405
▁McK	-7406
▁bab	-7407
▁cas	-7408
▁dur	-7409
▁mun	-7410
▁tom	-7411
itate	-7412
prime	-7413
scape	-7414
▁Chen	-7415
▁Sand	-7416
▁Shin	-7417
▁Year	-7418
▁feas	-7419
▁grav	-7420
▁melt	-7421
▁mood	-7422
▁pays	-7423
▁tail	-7424
iating	-7425
iciary	-7426
incing	-7427
othing	-7428
▁Olymp	-7429
▁entry	-7430
▁lived	-7431
▁overt	-7432
▁Greens	-7433
▁begins	-7434
▁exempl	-7435
▁missed	-7436
▁relies	-7437
▁smooth	-7438
ilibrium	-7439
quarters	-7440
▁Algeria	-7441
▁Finance	-7442
▁Switzer	-7443
▁cabinet	-7444
▁closest	-7445
▁coastal	-7446
▁deserve	-7447
▁fishing	-7448
▁schemes	-7449
▁somehow	-7450
▁telling	-7451
▁actively	-7452
▁division	-7453
▁founding	-7454
▁fraction	-7455
▁geograph	-7456
▁produces	-7457
▁teachers	-7458
▁unnecess	-7459
▁Brazilian	-7460
▁destroyed	-7461
▁imbalance	-7462
▁naturally	-7463
▁plausible	-7464
▁comparison	-7465
▁disastrous	-7466
▁enterprise	-7467
▁explicitly	-7468
▁insecurity	-7469
▁propaganda	-7470
▁Switzerland	-7471
HO	-7472
oe	-7473
oo	-7474
ani	-7475
arr	-7476
asp	-7477
bas	-7478
ham	-7479
ses	-7480
▁CD	-7481
bted	-7482
cked	-7483
igen	-7484
ught	-7485
▁Cor	-7486
▁Imp	-7487
▁gam	-7488
▁hom	-7489
▁ran	-7490
Assad	-7491
elect	-7492
icing	-7493
itely	-7494
▁2005	-7495
▁Emer	-7496
▁Peru	-7497
▁Shia	-7498
▁brib	-7499
▁fasc	-7500
▁lift	-7501
▁love	-7502
▁mism	-7503
▁sequ	-7504
▁suic	-7505
▁suit	-7506
▁tsun	-7507
imated	-7508
lights	-7509
reform	-7510
▁Kyoto	-7511
▁McKin	-7512
▁Women	-7513
▁bills	-7514
▁inequ	-7515
▁sheet	-7516
▁unequ	-7517
▁Follow	-7518
▁Having	-7519
▁Simply	-7520
▁Uganda	-7521
▁contag	-7522
▁empire	-7523
▁endors	-7524
▁trials	-7525
▁upgrad	-7526
▁Somalia	-7527
▁Twitter	-7528
▁details	-7529
▁dilemma	-7530
▁focuses	-7531
▁technoc	-7532
▁ambition	-7533
▁attitude	-7534
▁claiming	-7535
▁clearing	-7536
▁indebted	-7537
▁maritime	-7538
▁reminder	-7539
▁confirmed	-7540
▁restoring	-7541
▁diminished	-7542
▁frameworks	-7543
▁suggesting	-7544
▁arrangement	-7545
▁distributed	-7546
▁existential	-7547
▁achievements	-7548
▁bureaucratic	-7549
▁respectively	-7550
▁transatlantic	-7551
cu	-7552
anz	-7553
sur	-7554
AIDS	-7555
aces	-7556
aker	-7557
hani	-7558
iced	-7559
▁Ann	-7560
▁isn	-7561
▁wal	-7562
haust	-7563
ivals	-7564
▁Marx	-7565
▁Sino	-7566
▁bust	-7567
▁inex	-7568
▁terr	-7569
▁trem	-7570
▁deriv	-7571
▁honor	-7572
▁loyal	-7573
ounding	-7574
▁fellow	-7575
▁forget	-7576
▁memory	-7577
▁occurs	-7578
▁stated	-7579
ceptions	-7580
▁Special	-7581
▁bolster	-7582
▁contest	-7583
▁elderly	-7584
▁legally	-7585
▁municip	-7586
▁periods	-7587
▁waiting	-7588
struction	-7589
▁Chairman	-7590
▁advocate	-7591
▁algorith	-7592
▁cyclical	-7593
▁indirect	-7594
▁involves	-7595
▁manifest	-7596
▁overhaul	-7597
industrial	-7598
ispensable	-7599
▁exchanges	-7600
▁overwhelm	-7601
▁Initiative	-7602
▁complexity	-7603
▁delivering	-7604
▁achievement	-7605
▁functioning	-7606
▁biodiversity	-7607
▁expansionary	-7608
▁stakeholders	-7609
▁destabilizing	-7610
It	-7611
Th	-7612
RID	-7613
jud	-7614
mal	-7615
▁70	-7616
ache	-7617
cher	-7618
cure	-7619
fold	-7620
olas	-7621
rick	-7622
rill	-7623
velt	-7624
▁AMR	-7625
▁son	-7626
▁yen	-7627
ADRID	-7628
think	-7629
under	-7630
▁Modi	-7631
▁Pact	-7632
▁Roma	-7633
▁bias	-7634
▁deem	-7635
▁depr	-7636
▁duty	-7637
▁erod	-7638
▁prox	-7639
▁warm	-7640
apping	-7641
▁Ocean	-7642
▁Times	-7643
▁Where	-7644
▁burst	-7645
▁coinc	-7646
▁fault	-7647
▁gases	-7648
▁inher	-7649
▁lands	-7650
▁merit	-7651
▁notes	-7652
▁pione	-7653
▁ranks	-7654
▁rigid	-7655
osevelt	-7656
society	-7657
ultural	-7658
▁Author	-7659
▁agents	-7660
▁method	-7661
▁paraly	-7662
▁tempor	-7663
▁turbul	-7664
▁voices	-7665
ologists	-7666
▁aggress	-7667
▁college	-7668
▁cryptoc	-7669
▁earthqu	-7670
▁follows	-7671
▁looming	-7672
▁prefere	-7673
▁release	-7674
illennium	-7675
▁McKinsey	-7676
▁coherent	-7677
▁cultures	-7678
▁deployed	-7679
▁entering	-7680
▁laureate	-7681
▁minimize	-7682
▁scholars	-7683
▁widening	-7684
controlled	-7685
▁judiciary	-7686
▁preferred	-7687
▁realities	-7688
▁receiving	-7689
▁returning	-7690
▁confronted	-7691
▁politician	-7692
▁prevention	-7693
▁violations	-7694
▁aspirations	-7695
▁comparative	-7696
▁exacerbated	-7697
▁contemporary	-7698
▁deleveraging	-7699
▁introduction	-7700
▁concentration	-7701
▁protectionist	-7702
RC	-7703
Sem	-7704
col	-7705
cul	-7706
lor	-7707
▁8%	-7708
▁Op	-7709
▁ST	-7710
ELHI	-7711
iary	-7712
laud	-7713
left	-7714
rand	-7715
well	-7716
▁Exp	-7717
▁Had	-7718
▁NGO	-7719
▁Ren	-7720
▁WTO	-7721
▁raw	-7722
arked	-7723
cking	-7724
exist	-7725
inter	-7726
ishes	-7727
▁2003	-7728
▁Good	-7729
▁Nazi	-7730
▁card	-7731
▁caut	-7732
▁flag	-7733
▁pand	-7734
▁rent	-7735
▁seat	-7736
▁wall	-7737
irical	-7738
licted	-7739
uction	-7740
▁2004,	-7741
▁2012.	-7742
▁DELHI	-7743
▁categ	-7744
▁cohes	-7745
▁dying	-7746
▁haven	-7747
▁mixed	-7748
▁sight	-7749
▁tends	-7750
capital	-7751
iaoping	-7752
oration	-7753
▁Cambod	-7754
▁formed	-7755
▁harmon	-7756
▁honest	-7757
▁precip	-7758
▁revive	-7759
▁applies	-7760
▁dignity	-7761
▁doubled	-7762
▁visible	-7763
▁warfare	-7764
▁arguably	-7765
▁borrowed	-7766
▁carrying	-7767
▁demanded	-7768
▁engaging	-7769
▁informed	-7770
▁outflows	-7771
▁theories	-7772
corruption	-7773
▁Greenspan	-7774
▁Otherwise	-7775
▁Roosevelt	-7776
▁Ukrainian	-7777
▁attracted	-7778
▁committee	-7779
▁employers	-7780
▁extensive	-7781
▁headlines	-7782
▁popularity	-7783
▁punishment	-7784
▁dangerously	-7785
▁destructive	-7786
▁predictions	-7787
▁temporarily	-7788
▁architecture	-7789
▁confrontation	-7790
▁interconnected	-7791
▁representative	-7792
EM	-7793
yc	-7794
tar	-7795
▁28	-7796
atri	-7797
ball	-7798
ocal	-7799
onym	-7800
▁Abd	-7801
▁Est	-7802
Semit	-7803
erson	-7804
inces	-7805
▁Deal	-7806
▁perv	-7807
ailing	-7808
istant	-7809
▁brand	-7810
▁hyper	-7811
▁owned	-7812
▁piece	-7813
▁resur	-7814
▁split	-7815
aunting	-7816
▁Corpor	-7817
▁MADRID	-7818
▁animal	-7819
▁freely	-7820
▁robots	-7821
▁stakes	-7822
▁devices	-7823
▁devoted	-7824
▁drought	-7825
▁enables	-7826
▁factory	-7827
▁farming	-7828
▁privacy	-7829
▁richest	-7830
▁tension	-7831
▁triumph	-7832
▁venture	-7833
mentation	-7834
▁admitted	-7835
▁colonial	-7836
▁feasible	-7837
▁optimism	-7838
▁quarters	-7839
▁Following	-7840
▁landscape	-7841
▁selection	-7842
▁components	-7843
▁ecosystems	-7844
▁guidelines	-7845
▁monitoring	-7846
▁reflecting	-7847
▁unexpected	-7848
▁financially	-7849
▁Policymakers	-7850
▁traditionally	-7851
▁reconciliation	-7852
me	-7853
ito	-7854
ola	-7855
osm	-7856
aked	-7857
ixon	-7858
unch	-7859
▁Bol	-7860
▁Don	-7861
▁Fut	-7862
▁Rec	-7863
▁Who	-7864
▁ham	-7865
▁ing	-7866
▁map	-7867
▁scr	-7868
dated	-7869
egoti	-7870
vered	-7871
▁Wolf	-7872
▁amid	-7873
▁cold	-7874
▁lobb	-7875
▁luck	-7876
▁mira	-7877
▁rend	-7878
▁unus	-7879
▁wins	-7880
addafi	-7881
arians	-7882
friend	-7883
▁2020.	-7884
▁Assoc	-7885
▁Iraqi	-7886
▁Macri	-7887
▁admit	-7888
▁arsen	-7889
▁enemy	-7890
▁grows	-7891
▁hedge	-7892
▁immun	-7893
▁phone	-7894
▁waves	-7895
iations	-7896
leading	-7897
▁Review	-7898
▁anemic	-7899
▁denied	-7900
▁lately	-7901
▁overth	-7902
▁vested	-7903
lessness	-7904
▁Francis	-7905
▁Leaders	-7906
▁acquire	-7907
▁exhaust	-7908
▁neutral	-7909
▁scrutin	-7910
▁statist	-7911
▁2008-200	-7912
▁Israelis	-7913
▁assuming	-7914
▁creditor	-7915
▁marriage	-7916
▁obstacle	-7917
▁pensions	-7918
▁tendency	-7919
▁tomorrow	-7920
investment	-7921
▁	-7922
e	-7923
t	-7924
a	-7925
i	-7926
n	-7927
o	-7928
s	-7929
r	-7930
l	-7931
h	-7932
c	-7933
d	-7934
u	-7935
m	-7936
p	-7937
g	-7938
f	-7939
y	-7940
w	-7941
b	-7942
,	-7943
v	-7944
.	-7945
k	-7946
T	-7947
-	-7948
A	-7949
’	-7950
I	-7951
S	-7952
C	-7953
x	-7954
E	-7955
B	-7956
0	-7957
–	-7958
U	-7959
z	-7960
P	-7961
M	-7962
1	-7963
2	-7964
W	-7965
q	-7966
j	-7967
F	-7968
G	-7969
N	-7970
D	-7971
R	-7972
O	-7973
“	-7974
”	-7975
9	-7976
H	-7977
)	-7978
(	-7979
%	-7980
L	-7981
K	-7982
5	-7983
J	-7984
:	-7985
3	-7986
8	-7987
;	-7988
7	-7989
4	-7990
6	-7991
?	-7992
Y	-7993
$	-7994
V	-7995
