<pad>	0
<unk>	0
<s>	0
</s>	0
▁t	-0
▁a	-1
in	-2
he	-3
re	-4
on	-5
▁the	-6
er	-7
at	-8
en	-9
▁c	-10
▁s	-11
an	-12
▁o	-13
es	-14
it	-15
▁w	-16
or	-17
al	-18
is	-19
▁p	-20
▁b	-21
▁in	-22
▁f	-23
ic	-24
nd	-25
ed	-26
ing	-27
▁to	-28
▁m	-29
ar	-30
ion	-31
▁of	-32
ro	-33
▁and	-34
▁d	-35
ou	-36
ent	-37
le	-38
▁th	-39
st	-40
▁e	-41
▁h	-42
▁re	-43
om	-44
il	-45
▁n	-46
ve	-47
as	-48
ly	-49
▁A	-50
▁l	-51
▁g	-52
▁be	-53
ct	-54
ut	-55
▁is	-56
ation	-57
ol	-58
▁T	-59
▁that	-60
im	-61
ce	-62
se	-63
ver	-64
▁for	-65
ra	-66
▁de	-67
ur	-68
ot	-69
ment	-70
ld	-71
ri	-72
▁I	-73
▁on	-74
id	-75
et	-76
ow	-77
ill	-78
nt	-79
▁st	-80
▁it	-81
ch	-82
ad	-83
▁pro	-84
ig	-85
▁u	-86
ate	-87
ir	-88
ul	-89
▁con	-90
▁mo	-91
ers	-92
▁as	-93
op	-94
est	-95
ith	-96
ity	-97
▁S	-98
▁–	-99
▁B	-100
▁The	-101
▁wh	-102
▁su	-103
▁cou	-104
ort	-105
▁are	-106
▁al	-107
her	-108
ess	-109
▁ne	-110
th	-111
▁with	-112
▁C	-113
ric	-114
ge	-115
ab	-116
ies	-117
ay	-118
▁E	-119
▁U	-120
ist	-121
▁ex	-122
pe	-123
▁an	-124
res	-125
ain	-126
con	-127
▁com	-128
am	-129
ter	-130
us	-131
▁we	-132
ive	-133
▁by	-134
▁ha	-135
▁not	-136
ci	-137
ke	-138
▁Af	-139
pp	-140
if	-141
em	-142
▁wor	-143
and	-144
▁se	-145
▁M	-146
▁will	-147
ust	-148
ac	-149
▁count	-150
▁W	-151
▁y	-152
▁have	-153
▁has	-154
lo	-155
▁le	-156
conom	-157
qu	-158
iv	-159
▁r	-160
ould	-161
▁v	-162
um	-163
gh	-164
▁en	-165
▁he	-166
▁pol	-167
▁sh	-168
rom	-169
▁econom	-170
▁im	-171
iz	-172
▁go	-173
▁ch	-174
▁F	-175
ap	-176
un	-177
▁more	-178
▁P	-179
▁at	-180
ical	-181
▁Afric	-182
ia	-183
▁from	-184
ure	-185
ant	-186
art	-187
ome	-188
▁their	-189
ries	-190
ans	-191
▁or	-192
▁“	-193
▁G	-194
ions	-195
red	-196
ast	-197
os	-198
▁imp	-199
od	-200
el	-201
▁N	-202
▁countries	-203
uro	-204
mer	-205
ong	-206
ear	-207
ff	-208
row	-209
▁so	-210
▁inc	-211
vel	-212
▁can	-213
ore	-214
▁res	-215
▁un	-216
▁its	-217
▁int	-218
igh	-219
▁ag	-220
▁US	-221
▁But	-222
end	-223
ther	-224
du	-225
▁In	-226
all	-227
▁R	-228
▁was	-229
ak	-230
cial	-231
▁ad	-232
cc	-233
ru	-234
ance	-235
able	-236
▁D	-237
▁ab	-238
ich	-239
▁cont	-240
▁than	-241
ational	-242
▁would	-243
reat	-244
vern	-245
ect	-246
▁year	-247
▁this	-248
▁world	-249
ult	-250
ud	-251
▁which	-252
urope	-253
▁j	-254
▁man	-255
▁O	-256
ous	-257
▁grow	-258
ations	-259
oc	-260
rou	-261
▁govern	-262
▁they	-263
▁Europe	-264
▁comp	-265
pt	-266
ary	-267
bal	-268
out	-269
▁Ch	-270
▁Africa	-271
▁pe	-272
ib	-273
ress	-274
▁all	-275
▁H	-276
ven	-277
▁dis	-278
ard	-279
ign	-280
ost	-281
▁fin	-282
ated	-283
▁whe	-284
ates	-285
velop	-286
▁Th	-287
lobal	-288
▁fa	-289
lic	-290
▁tra	-291
▁rec	-292
ial	-293
▁new	-294
▁exp	-295
ments	-296
og	-297
▁part	-298
▁economic	-299
ie	-300
▁but	-301
meric	-302
ms	-303
▁bec	-304
▁inv	-305
ry	-306
ack	-307
ike	-308
ide	-309
▁do	-310
ark	-311
for	-312
ip	-313
▁(	-314
ren	-315
▁polit	-316
one	-317
▁J	-318
ub	-319
▁Americ	-320
▁pl	-321
▁out	-322
▁me	-323
ence	-324
▁Chin	-325
ag	-326
ction	-327
▁global	-328
▁lead	-329
so	-330
age	-331
▁Un	-332
ople	-333
▁polic	-334
▁need	-335
▁one	-336
ors	-337
▁comm	-338
de	-339
▁other	-340
ris	-341
▁reg	-342
ree	-343
▁people	-344
▁who	-345
▁develop	-346
are	-347
▁over	-348
ight	-349
▁been	-350
ank	-351
pport	-352
▁K	-353
▁dec	-354
▁inter	-355
▁L	-356
fic	-357
ime	-358
▁growth	-359
▁ma	-360
au	-361
ces	-362
ire	-363
ition	-364
ll	-365
ens	-366
ile	-367
ine	-368
ern	-369
ities	-370
reas	-371
ility	-372
illion	-373
ue	-374
ower	-375
our	-376
nder	-377
▁invest	-378
ord	-379
▁like	-380
▁work	-381
▁po	-382
▁eff	-383
▁also	-384
ally	-385
▁acc	-386
ts	-387
ose	-388
▁most	-389
▁As	-390
▁China	-391
▁tr	-392
ced	-393
▁years	-394
ian	-395
▁must	-396
▁should	-397
▁political	-398
▁could	-399
▁per	-400
alth	-401
ited	-402
▁only	-403
▁about	-404
ep	-405
ism	-406
ere	-407
ew	-408
ident	-409
▁under	-410
▁pre	-411
ublic	-412
▁finan	-413
▁many	-414
▁mark	-415
▁bet	-416
▁cons	-417
▁some	-418
eral	-419
▁rem	-420
▁increas	-421
ert	-422
▁now	-423
very	-424
ative	-425
ble	-426
▁Ind	-427
▁up	-428
▁you	-429
▁there	-430
amp	-431
▁such	-432
av	-433
▁even	-434
▁these	-435
▁government	-436
uch	-437
▁cl	-438
▁dem	-439
▁str	-440
▁ar	-441
▁sp	-442
▁policy	-443
▁long	-444
▁were	-445
▁qu	-446
▁chan	-447
▁ris	-448
low	-449
▁em	-450
ach	-451
▁produ	-452
und	-453
▁contin	-454
▁no	-455
▁his	-456
▁tw	-457
uc	-458
▁te	-459
ause	-460
lect	-461
old	-462
▁ra	-463
ious	-464
▁market	-465
▁It	-466
ough	-467
▁sy	-468
▁ta	-469
form	-470
▁intern	-471
▁And	-472
▁cap	-473
▁ind	-474
erv	-475
▁app	-476
▁them	-477
▁cur	-478
▁far	-479
cy	-480
ons	-481
▁co	-482
ild	-483
▁power	-484
ace	-485
ame	-486
▁country	-487
▁k	-488
ital	-489
rough	-490
▁This	-491
ob	-492
▁St	-493
ade	-494
▁African	-495
▁leaders	-496
per	-497
▁may	-498
we	-499
rit	-500
▁rel	-501
▁international	-502
vers	-503
▁lar	-504
arly	-505
stem	-506
ution	-507
▁support	-508
▁if	-509
▁financial	-510
ating	-511
▁cris	-512
resident	-513
olog	-514
ish	-515
▁into	-516
▁system	-517
▁us	-518
▁public	-519
▁ac	-520
ory	-521
▁any	-522
▁what	-523
▁import	-524
ng	-525
ass	-526
cess	-527
▁when	-528
gy	-529
ful	-530
▁inf	-531
act	-532
▁ro	-533
ount	-534
▁just	-535
▁ter	-536
▁att	-537
▁time	-538
▁ow	-539
▁how	-540
▁much	-541
▁United	-542
▁America	-543
hip	-544
ics	-545
▁ri	-546
pect	-547
▁For	-548
▁rep	-549
ks	-550
int	-551
▁deb	-552
ov	-553
▁economy	-554
▁trans	-555
ization	-556
ents	-557
▁way	-558
▁health	-559
▁proble	-560
▁two	-561
lp	-562
ind	-563
its	-564
▁prog	-565
imate	-566
▁help	-567
ists	-568
▁recent	-569
ger	-570
▁pos	-571
ber	-572
get	-573
▁act	-574
▁gen	-575
▁prov	-576
ual	-577
apan	-578
▁had	-579
▁because	-580
▁am	-581
ives	-582
hed	-583
▁war	-584
▁dif	-585
▁trade	-586
▁crisis	-587
ise	-588
ues	-589
ruct	-590
▁development	-591
.”	-592
chn	-593
lud	-594
rent	-595
urn	-596
uss	-597
read	-598
▁Japan	-599
▁those	-600
▁remain	-601
ound	-602
▁Y	-603
ural	-604
▁fir	-605
▁our	-606
ood	-607
▁examp	-608
▁European	-609
▁inst	-610
▁less	-611
ase	-612
iss	-613
ize	-614
ween	-615
▁well	-616
▁$	-617
▁bank	-618
allen	-619
▁fore	-620
▁mod	-621
▁high	-622
own	-623
▁add	-624
uring	-625
▁conf	-626
▁techn	-627
▁change	-628
▁real	-629
▁great	-630
lear	-631
▁between	-632
▁fact	-633
▁again	-634
riv	-635
▁cent	-636
itt	-637
ond	-638
oth	-639
ible	-640
ific	-641
orts	-642
▁good	-643
▁billion	-644
▁example	-645
ges	-646
▁young	-647
ump	-648
▁end	-649
hen	-650
led	-651
ite	-652
▁make	-653
ject	-654
▁sec	-655
erest	-656
ene	-657
▁EU	-658
▁Is	-659
▁become	-660
▁national	-661
ice	-662
cing	-663
▁own	-664
ok	-665
opul	-666
▁sol	-667
▁fund	-668
▁off	-669
▁cost	-670
▁righ	-671
min	-672
▁On	-673
▁wom	-674
▁challen	-675
▁current	-676
▁Wh	-677
ration	-678
▁Al	-679
▁appro	-680
▁popul	-681
▁while	-682
ict	-683
▁ob	-684
▁des	-685
▁sub	-686
▁requ	-687
eration	-688
loy	-689
ption	-690
round	-691
ail	-692
ram	-693
ices	-694
▁sim	-695
▁sur	-696
▁commun	-697
▁investment	-698
man	-699
▁bo	-700
ploy	-701
iness	-702
ging	-703
▁adv	-704
▁ext	-705
day	-706
sel	-707
▁important	-708
rib	-709
ings	-710
▁ent	-711
cal	-712
▁ed	-713
▁where	-714
▁governments	-715
ential	-716
▁large	-717
ized	-718
▁interest	-719
als	-720
▁technolog	-721
▁De	-722
▁redu	-723
ability	-724
▁includ	-725
▁partic	-726
▁result	-727
ese	-728
ten	-729
▁ev	-730
▁kn	-731
▁col	-732
▁both	-733
utions	-734
▁impro	-735
▁American	-736
pl	-737
▁Tr	-738
ures	-739
aking	-740
aw	-741
▁Russ	-742
▁effect	-743
xt	-744
ink	-745
gest	-746
▁resp	-747
usiness	-748
▁region	-749
▁job	-750
ather	-751
▁educ	-752
▁last	-753
▁seem	-754
arch	-755
ince	-756
ward	-757
▁social	-758
uture	-759
gan	-760
ater	-761
▁ref	-762
▁economies	-763
jor	-764
▁pric	-765
▁sign	-766
▁today	-767
▁capital	-768
▁through	-769
not	-770
fore	-771
fter	-772
ready	-773
▁back	-774
▁debt	-775
ically	-776
ici	-777
▁Se	-778
▁ke	-779
▁bene	-780
▁serv	-781
▁future	-782
▁against	-783
iven	-784
eed	-785
ran	-786
ilit	-787
over	-788
ivers	-789
▁too	-790
▁indust	-791
▁President	-792
rat	-793
▁cor	-794
▁est	-795
ged	-796
ily	-797
▁If	-798
ting	-799
▁made	-800
▁already	-801
▁set	-802
▁after	-803
▁women	-804
▁product	-805
▁ass	-806
ention	-807
▁first	-808
▁major	-809
▁sa	-810
▁dep	-811
▁use	-812
▁val	-813
ality	-814
▁conc	-815
▁sect	-816
li	-817
▁To	-818
▁West	-819
▁state	-820
▁strong	-821
omm	-822
uth	-823
ved	-824
▁bu	-825
urity	-826
▁every	-827
▁business	-828
ergy	-829
less	-830
▁def	-831
▁mon	-832
stain	-833
▁prom	-834
▁sustain	-835
▁lo	-836
▁Trump	-837
pportun	-838
▁demand	-839
▁markets	-840
ning	-841
▁spe	-842
▁That	-843
ral	-844
ving	-845
▁iss	-846
▁does	-847
▁benef	-848
▁States	-849
▁climate	-850
les	-851
abor	-852
ared	-853
▁being	-854
▁child	-855
▁opportun	-856
DP	-857
ty	-858
ron	-859
▁More	-860
▁cred	-861
▁foreign	-862
ract	-863
▁Wor	-864
ertain	-865
▁still	-866
▁see	-867
▁prev	-868
▁short	-869
▁tax	-870
▁euro	-871
▁const	-872
▁million	-873
rast	-874
▁cre	-875
▁equ	-876
▁Bank	-877
▁rese	-878
▁bas	-879
mental	-880
▁likely	-881
ays	-882
▁We	-883
ants	-884
uman	-885
ingly	-886
▁emer	-887
gin	-888
▁op	-889
▁pr	-890
ined	-891
ccess	-892
▁fail	-893
▁main	-894
,”	-895
▁level	-896
▁often	-897
▁cannot	-898
▁sm	-899
hing	-900
ieve	-901
other	-902
▁strate	-903
ivity	-904
▁disc	-905
▁take	-906
ending	-907
ety	-908
iron	-909
▁diff	-910
▁know	-911
▁might	-912
▁stand	-913
▁instit	-914
ft	-915
▁es	-916
▁ann	-917
▁dom	-918
▁pat	-919
▁same	-920
▁energy	-921
ouse	-922
▁ret	-923
▁prot	-924
▁compan	-925
der	-926
ring	-927
▁dire	-928
▁Russia	-929
▁consum	-930
▁resour	-931
▁problem	-932
ars	-933
ever	-934
▁inn	-935
▁Afgh	-936
▁stud	-937
▁agree	-938
▁milit	-939
▁continent	-940
ably	-941
ered	-942
ness	-943
term	-944
▁aff	-945
ately	-946
▁hist	-947
▁offic	-948
ades	-949
▁Ger	-950
▁mem	-951
▁rest	-952
▁soci	-953
▁success	-954
▁education	-955
eg	-956
ied	-957
outh	-958
▁her	-959
istan	-960
▁past	-961
▁defic	-962
ployment	-963
▁arg	-964
▁few	-965
▁med	-966
ually	-967
▁next	-968
▁India	-969
▁World	-970
▁Afghan	-971
▁access	-972
▁threat	-973
▁particul	-974
),	-975
iew	-976
▁fam	-977
▁leg	-978
▁neg	-979
▁call	-980
▁food	-981
▁pers	-982
▁creat	-983
▁elect	-984
ructure	-985
▁priv	-986
▁better	-987
▁states	-988
ID	-989
ck	-990
ling	-991
▁bel	-992
▁hig	-993
▁ins	-994
▁put	-995
ision	-996
▁With	-997
▁sc	-998
cond	-999
▁lif	-1000
ocrat	-1001
ricult	-1002
▁quest	-1003
▁Indeed	-1004
▁efforts	-1005
ss	-1006
hold	-1007
▁Int	-1008
viron	-1009
▁move	-1010
▁exper	-1011
here	-1012
rael	-1013
▁ens	-1014
▁imm	-1015
▁sci	-1016
▁human	-1017
▁military	-1018
ted	-1019
▁ach	-1020
▁cour	-1021
▁turn	-1022
▁innov	-1023
▁Israel	-1024
▁without	-1025
▁el	-1026
ense	-1027
oney	-1028
▁pot	-1029
inist	-1030
▁decl	-1031
▁German	-1032
▁approach	-1033
▁At	-1034
ivid	-1035
▁They	-1036
▁land	-1037
▁three	-1038
▁ser	-1039
▁needs	-1040
▁security	-1041
▁including	-1042
).	-1043
ah	-1044
com	-1045
ves	-1046
tern	-1047
▁did	-1048
▁ide	-1049
▁supp	-1050
▁decades	-1051
▁problems	-1052
▁progress	-1053
ror	-1054
▁So	-1055
▁my	-1056
ency	-1057
ollow	-1058
▁start	-1059
▁needed	-1060
idd	-1061
▁ap	-1062
ines	-1063
land	-1064
ocus	-1065
ering	-1066
uclear	-1067
▁rates	-1068
ute	-1069
▁He	-1070
ross	-1071
iscal	-1072
izing	-1073
ateral	-1074
▁Union	-1075
▁since	-1076
▁account	-1077
▁address	-1078
▁process	-1079
▁services	-1080
ury	-1081
rial	-1082
▁low	-1083
stand	-1084
cially	-1085
▁gener	-1086
▁money	-1087
▁order	-1088
ilateral	-1089
▁environ	-1090
▁children	-1091
▁research	-1092
▁challenges	-1093
ogn	-1094
▁GDP	-1095
▁ine	-1096
▁care	-1097
▁farm	-1098
▁infl	-1099
▁prof	-1100
lement	-1101
▁focus	-1102
▁right	-1103
▁agricult	-1104
ph	-1105
▁hal	-1106
▁pay	-1107
▁around	-1108
▁credit	-1109
▁follow	-1110
ret	-1111
▁lib	-1112
▁pur	-1113
▁There	-1114
▁peace	-1115
▁another	-1116
▁president	-1117
iet	-1118
rem	-1119
▁fac	-1120
aving	-1121
iving	-1122
▁trad	-1123
▁banks	-1124
▁regul	-1125
▁before	-1126
▁contro	-1127
▁fiscal	-1128
▁potential	-1129
aly	-1130
self	-1131
▁risk	-1132
▁then	-1133
▁very	-1134
itional	-1135
▁sector	-1136
▁Chinese	-1137
▁private	-1138
▁Moreover	-1139
▁resources	-1140
abl	-1141
iti	-1142
imes	-1143
▁mat	-1144
▁old	-1145
uthor	-1146
▁East	-1147
▁poss	-1148
▁rate	-1149
▁compet	-1150
▁improve	-1151
▁policies	-1152
▁companies	-1153
ang	-1154
ued	-1155
▁crit	-1156
▁poor	-1157
▁pres	-1158
▁suff	-1159
▁South	-1160
▁among	-1161
▁labor	-1162
pecially	-1163
▁growing	-1164
ner	-1165
oss	-1166
por	-1167
▁Ab	-1168
come	-1169
ners	-1170
vere	-1171
▁sch	-1172
▁jobs	-1173
▁plan	-1174
lection	-1175
▁signific	-1176
rastructure	-1177
▁Re	-1178
▁vi	-1179
most	-1180
road	-1181
▁clo	-1182
▁tar	-1183
iddle	-1184
itive	-1185
▁play	-1186
▁costs	-1187
▁remains	-1188
▁UN	-1189
▁hop	-1190
▁vot	-1191
▁dist	-1192
▁prop	-1193
▁higher	-1194
▁rather	-1195
ix	-1196
ick	-1197
mak	-1198
▁fe	-1199
ened	-1200
osed	-1201
reed	-1202
▁loc	-1203
▁opp	-1204
▁case	-1205
▁hard	-1206
ficult	-1207
▁though	-1208
▁nuclear	-1209
▁difficult	-1210
▁especially	-1211
aps	-1212
ool	-1213
rop	-1214
ides	-1215
▁One	-1216
▁key	-1217
▁rev	-1218
▁pros	-1219
▁role	-1220
▁treat	-1221
▁continue	-1222
▁increase	-1223
▁significant	-1224
up	-1225
▁Ob	-1226
chan	-1227
▁ful	-1228
▁num	-1229
▁down	-1230
▁show	-1231
▁model	-1232
▁Intern	-1233
▁course	-1234
▁create	-1235
▁terror	-1236
▁population	-1237
▁institutions	-1238
▁infrastructure	-1239
ex	-1240
acy	-1241
ama	-1242
ata	-1243
orm	-1244
oti	-1245
ases	-1246
cept	-1247
▁cle	-1248
▁best	-1249
▁reas	-1250
makers	-1251
▁point	-1252
▁action	-1253
▁expect	-1254
air	-1255
arm	-1256
ell	-1257
ider	-1258
▁don	-1259
▁lim	-1260
▁tal	-1261
anced	-1262
▁half	-1263
▁simp	-1264
▁These	-1265
▁means	-1266
▁project	-1267
lus	-1268
ages	-1269
▁get	-1270
▁find	-1271
▁form	-1272
▁view	-1273
▁prices	-1274
ird	-1275
eren	-1276
rain	-1277
roup	-1278
tain	-1279
▁law	-1280
▁Iran	-1281
▁meas	-1282
▁mult	-1283
▁author	-1284
▁negoti	-1285
▁Develop	-1286
▁concern	-1287
▁benefits	-1288
▁Afghanistan	-1289
rug	-1290
▁av	-1291
▁non	-1292
▁she	-1293
▁When	-1294
▁come	-1295
▁free	-1296
▁clear	-1297
▁ensure	-1298
▁require	-1299
▁official	-1300
acc	-1301
ork	-1302
▁ur	-1303
pite	-1304
▁beh	-1305
▁eng	-1306
erent	-1307
▁weak	-1308
▁build	-1309
▁share	-1310
ibility	-1311
▁within	-1312
▁Western	-1313
ath	-1314
ban	-1315
pid	-1316
bers	-1317
zone	-1318
ording	-1319
▁group	-1320
▁organ	-1321
▁press	-1322
▁establ	-1323
▁others	-1324
▁reform	-1325
▁rights	-1326
▁conflic	-1327
oun	-1328
ians	-1329
rate	-1330
▁car	-1331
ently	-1332
ively	-1333
▁appe	-1334
▁cond	-1335
▁happ	-1336
▁home	-1337
▁viol	-1338
itions	-1339
▁integ	-1340
▁least	-1341
▁requi	-1342
▁seems	-1343
▁direct	-1344
▁experi	-1345
▁recogn	-1346
▁protect	-1347
▁systems	-1348
▁whether	-1349
▁run	-1350
estic	-1351
ished	-1352
▁inde	-1353
▁lack	-1354
verage	-1355
▁never	-1356
▁greater	-1357
▁respons	-1358
▁relations	-1359
ug	-1360
akes	-1361
reen	-1362
▁par	-1363
ission	-1364
urther	-1365
▁community	-1366
▁productivity	-1367
▁V	-1368
IDS	-1369
imin	-1370
▁ago	-1371
▁big	-1372
▁ric	-1373
▁data	-1374
▁almost	-1375
▁toward	-1376
▁control	-1377
▁question	-1378
rab	-1379
ush	-1380
▁bl	-1381
▁ca	-1382
ield	-1383
▁Dem	-1384
▁dev	-1385
ining	-1386
▁Comm	-1387
▁rise	-1388
▁While	-1389
inister	-1390
▁provide	-1391
▁different	-1392
▁increasingly	-1393
wh	-1394
ium	-1395
▁gu	-1396
ased	-1397
▁War	-1398
▁bal	-1399
▁dri	-1400
▁yet	-1401
▁coop	-1402
▁meet	-1403
▁small	-1404
▁commit	-1405
▁Germany	-1406
▁certain	-1407
oll	-1408
ove	-1409
uel	-1410
▁Fr	-1411
▁er	-1412
▁Yet	-1413
▁aid	-1414
▁ant	-1415
forms	-1416
where	-1417
▁Obama	-1418
▁comple	-1419
▁industrial	-1420
ned	-1421
▁By	-1422
ends	-1423
oint	-1424
rime	-1425
▁cit	-1426
▁eas	-1427
▁char	-1428
▁life	-1429
idence	-1430
▁After	-1431
▁during	-1432
▁workers	-1433
onal	-1434
▁vis	-1435
ances	-1436
▁Arab	-1437
▁pred	-1438
▁unem	-1439
minist	-1440
▁areas	-1441
▁local	-1442
▁think	-1443
▁enough	-1444
▁central	-1445
▁leadership	-1446
uf	-1447
ave	-1448
▁gr	-1449
cent	-1450
cies	-1451
duct	-1452
ying	-1453
▁Put	-1454
▁sug	-1455
ittle	-1456
▁force	-1457
▁given	-1458
▁initi	-1459
▁however	-1460
▁society	-1461
▁strateg	-1462
▁election	-1463
▁eurozone	-1464
▁spending	-1465
▁Development	-1466
ON	-1467
racy	-1468
reng	-1469
▁cut	-1470
▁why	-1471
ession	-1472
▁bring	-1473
agement	-1474
issions	-1475
▁inform	-1476
▁longer	-1477
▁necess	-1478
▁serious	-1479
▁emerging	-1480
▁politics	-1481
▁developing	-1482
▁technology	-1483
▁sk	-1484
ards	-1485
▁Tur	-1486
ening	-1487
▁Asia	-1488
▁Brit	-1489
▁Even	-1490
▁gain	-1491
▁slow	-1492
▁little	-1493
▁contrib	-1494
▁domestic	-1495
▁sustainable	-1496
▁policymakers	-1497
yn	-1498
▁ph	-1499
ceed	-1500
orth	-1501
▁say	-1502
ators	-1503
▁deep	-1504
▁hand	-1505
▁used	-1506
▁allow	-1507
▁across	-1508
▁common	-1509
▁income	-1510
▁modern	-1511
▁streng	-1512
▁Nations	-1513
▁achieve	-1514
▁increased	-1515
▁particularly	-1516
ead	-1517
put	-1518
▁fl	-1519
anda	-1520
ivil	-1521
yond	-1522
▁Rep	-1523
▁tot	-1524
▁tri	-1525
etary	-1526
ufact	-1527
verty	-1528
▁mean	-1529
▁step	-1530
▁citiz	-1531
▁simil	-1532
▁value	-1533
▁France	-1534
▁issues	-1535
▁target	-1536
▁liberal	-1537
▁poverty	-1538
▁administ	-1539
▁regional	-1540
▁challenge	-1541
▁opportunities	-1542
▁la	-1543
sequ	-1544
▁Pro	-1545
▁led	-1546
▁net	-1547
▁pri	-1548
▁ren	-1549
▁camp	-1550
▁dest	-1551
▁face	-1552
though	-1553
▁Putin	-1554
▁house	-1555
▁rapid	-1556
ression	-1557
▁attack	-1558
▁reason	-1559
▁return	-1560
▁school	-1561
▁suggest	-1562
▁univers	-1563
▁partners	-1564
▁understand	-1565
▁opportunity	-1566
▁An	-1567
haps	-1568
rams	-1569
▁enc	-1570
▁tru	-1571
order	-1572
▁coll	-1573
icient	-1574
▁extrem	-1575
▁histor	-1576
▁itself	-1577
▁levels	-1578
▁reduce	-1579
▁second	-1580
▁wealth	-1581
▁reflect	-1582
▁manufact	-1583
hes	-1584
ier	-1585
set	-1586
▁Sp	-1587
eria	-1588
ills	-1589
reak	-1590
▁occ	-1591
▁oil	-1592
gether	-1593
selves	-1594
▁found	-1595
▁water	-1596
▁rising	-1597
▁further	-1598
▁together	-1599
ash	-1600
ior	-1601
king	-1602
oura	-1603
▁Con	-1604
▁top	-1605
▁comb	-1606
▁fuel	-1607
▁hold	-1608
▁mass	-1609
▁oper	-1610
▁civil	-1611
olution	-1612
▁individ	-1613
▁reforms	-1614
▁working	-1615
ims	-1616
ler	-1617
▁che	-1618
▁him	-1619
▁rul	-1620
ither	-1621
udget	-1622
▁caus	-1623
▁ever	-1624
atives	-1625
▁broad	-1626
▁price	-1627
illions	-1628
ocratic	-1629
▁recently	-1630
▁agreement	-1631
▁generation	-1632
ai	-1633
iod	-1634
atic	-1635
lain	-1636
▁New	-1637
▁Nig	-1638
anger	-1639
▁fast	-1640
▁lear	-1641
▁reach	-1642
▁terms	-1643
▁total	-1644
▁provid	-1645
▁deficit	-1646
▁largest	-1647
▁maintain	-1648
▁programs	-1649
▁technologies	-1650
▁cr	-1651
aign	-1652
enda	-1653
▁tem	-1654
ature	-1655
ences	-1656
ortun	-1657
▁conv	-1658
▁thus	-1659
▁ways	-1660
▁month	-1661
▁repres	-1662
▁governance	-1663
▁individual	-1664
▁investments	-1665
az	-1666
te	-1667
▁Acc	-1668
▁air	-1669
▁bor	-1670
▁What	-1671
▁alone	-1672
▁begin	-1673
▁lives	-1674
▁budget	-1675
▁number	-1676
▁century	-1677
▁campaign	-1678
▁citizens	-1679
▁unemployment	-1680
ake	-1681
ins	-1682
key	-1683
raq	-1684
uge	-1685
▁sl	-1686
ised	-1687
▁mar	-1688
rency	-1689
▁AIDS	-1690
▁Iraq	-1691
▁Kore	-1692
▁hope	-1693
▁look	-1694
▁rich	-1695
▁early	-1696
▁fight	-1697
▁Global	-1698
▁report	-1699
▁finance	-1700
▁Africans	-1701
ortunately	-1702
▁developed	-1703
▁implement	-1704
ee	-1705
gn	-1706
io	-1707
ys	-1708
▁aw	-1709
pris	-1710
▁dou	-1711
▁met	-1712
▁unc	-1713
acity	-1714
▁cult	-1715
▁fall	-1716
▁left	-1717
▁Turkey	-1718
▁simply	-1719
▁program	-1720
▁possible	-1721
oh	-1722
yp	-1723
any	-1724
lam	-1725
ton	-1726
▁Be	-1727
ways	-1728
▁All	-1729
▁abs	-1730
▁Part	-1731
▁Some	-1732
▁able	-1733
▁deal	-1734
▁five	-1735
▁sour	-1736
ocracy	-1737
reedom	-1738
uation	-1739
▁pract	-1740
▁struct	-1741
▁believe	-1742
▁similar	-1743
▁innovation	-1744
▁environmental	-1745
pro	-1746
▁Go	-1747
▁gra	-1748
▁min	-1749
▁mob	-1750
▁tre	-1751
force	-1752
ledge	-1753
▁open	-1754
▁rece	-1755
▁shif	-1756
▁stat	-1757
▁deter	-1758
▁lower	-1759
ilities	-1760
▁impact	-1761
▁promot	-1762
▁scient	-1763
▁encoura	-1764
▁Japanese	-1765
▁Republic	-1766
▁investors	-1767
ched	-1768
irst	-1769
then	-1770
wide	-1771
▁ess	-1772
veral	-1773
▁Cong	-1774
▁dise	-1775
▁each	-1776
▁post	-1777
▁want	-1778
ederal	-1779
erence	-1780
▁Islam	-1781
▁goods	-1782
▁invol	-1783
▁prior	-1784
▁expand	-1785
▁transp	-1786
▁conflict	-1787
▁strategy	-1788
▁communities	-1789
▁consumption	-1790
bon	-1791
▁Ken	-1792
▁saf	-1793
arent	-1794
aring	-1795
▁adop	-1796
▁fear	-1797
▁vict	-1798
▁issue	-1799
▁place	-1800
▁annual	-1801
▁entire	-1802
▁former	-1803
▁regard	-1804
▁created	-1805
▁effects	-1806
▁history	-1807
▁members	-1808
▁consider	-1809
▁requires	-1810
▁violence	-1811
▁cooperation	-1812
lf	-1813
mm	-1814
ili	-1815
iqu	-1816
rag	-1817
rid	-1818
▁Sy	-1819
ming	-1820
ntil	-1821
onse	-1822
ront	-1823
▁fav	-1824
▁mor	-1825
iting	-1826
▁else	-1827
▁full	-1828
icians	-1829
▁funda	-1830
▁danger	-1831
▁effort	-1832
▁family	-1833
▁making	-1834
▁period	-1835
▁saving	-1836
▁values	-1837
▁consequ	-1838
▁leading	-1839
▁Minister	-1840
▁advanced	-1841
▁establish	-1842
▁strengthen	-1843
▁themselves	-1844
ock	-1845
▁Eth	-1846
▁age	-1847
▁aut	-1848
▁emb	-1849
based	-1850
itted	-1851
▁four	-1852
▁head	-1853
▁based	-1854
▁funds	-1855
▁subst	-1856
conomic	-1857
▁beyond	-1858
▁called	-1859
▁depend	-1860
▁living	-1861
igration	-1862
▁prosper	-1863
▁household	-1864
▁inflation	-1865
▁production	-1866
▁agriculture	-1867
▁International	-1868
▁manufacturing	-1869
ean	-1870
iop	-1871
the	-1872
▁Of	-1873
like	-1874
lows	-1875
rely	-1876
▁cho	-1877
▁ten	-1878
▁vul	-1879
alest	-1880
ising	-1881
▁coal	-1882
▁test	-1883
▁assum	-1884
▁cause	-1885
▁green	-1886
▁super	-1887
▁whose	-1888
iveness	-1889
quality	-1890
ruction	-1891
▁corpor	-1892
▁incent	-1893
▁balance	-1894
▁freedom	-1895
▁science	-1896
▁measures	-1897
▁relative	-1898
▁response	-1899
ght	-1900
urd	-1901
iagn	-1902
imul	-1903
omet	-1904
▁Sec	-1905
▁exc	-1906
aging	-1907
oment	-1908
▁keep	-1909
▁estim	-1910
▁Ethiop	-1911
▁Nigeria	-1912
▁average	-1913
▁despite	-1914
▁farmers	-1915
▁several	-1916
▁capacity	-1917
▁According	-1918
▁Americans	-1919
▁attention	-1920
▁effective	-1921
▁increasing	-1922
▁administration	-1923
ify	-1924
lev	-1925
sid	-1926
care	-1927
ream	-1928
▁Fin	-1929
▁cla	-1930
▁del	-1931
▁ear	-1932
▁sit	-1933
atory	-1934
ients	-1935
ified	-1936
ories	-1937
▁fert	-1938
▁fram	-1939
▁said	-1940
▁boost	-1941
▁party	-1942
▁youth	-1943
▁accept	-1944
▁always	-1945
▁stimul	-1946
▁ability	-1947
▁predict	-1948
▁prevent	-1949
▁evidence	-1950
▁emissions	-1951
▁essential	-1952
▁interests	-1953
▁transform	-1954
▁successful	-1955
▁agricultural	-1956
▁Cl	-1957
▁NE	-1958
▁ru	-1959
cale	-1960
cipl	-1961
onst	-1962
ordin	-1963
▁Such	-1964
▁done	-1965
▁dram	-1966
▁prim	-1967
▁Korea	-1968
▁belie	-1969
▁corru	-1970
▁oppos	-1971
▁times	-1972
▁Middle	-1973
▁Palest	-1974
▁willing	-1975
▁expected	-1976
▁particip	-1977
▁projects	-1978
▁knowledge	-1979
▁standards	-1980
▁uncertain	-1981
▁employment	-1982
ale	-1983
raw	-1984
▁Sh	-1985
ived	-1986
nect	-1987
▁Pol	-1988
arian	-1989
rated	-1990
rench	-1991
▁link	-1992
▁lost	-1993
▁avail	-1994
▁becom	-1995
▁break	-1996
▁close	-1997
▁agenda	-1998
▁moment	-1999
▁vulner	-2000
▁powerful	-2001
▁previous	-2002
▁financing	-2003
▁necessary	-2004
▁solutions	-2005
▁particular	-2006
oz	-2007
ya	-2008
edi	-2009
ets	-2010
osp	-2011
▁jo	-2012
aged	-2013
ahar	-2014
erve	-2015
rong	-2016
wise	-2017
▁Res	-2018
▁Cent	-2019
▁Fund	-2020
▁anti	-2021
▁prin	-2022
▁stop	-2023
▁true	-2024
▁firms	-2025
▁makes	-2026
▁risks	-2027
▁sense	-2028
▁borrow	-2029
▁export	-2030
▁forces	-2031
▁groups	-2032
▁skills	-2033
▁sovere	-2034
▁demonst	-2035
▁largely	-2036
▁perhaps	-2037
▁pressure	-2038
ls	-2039
pan	-2040
reg	-2041
▁Ag	-2042
▁nar	-2043
ender	-2044
ensus	-2045
▁Syri	-2046
▁deli	-2047
▁disp	-2048
▁live	-2049
▁term	-2050
▁weap	-2051
▁clean	-2052
▁decis	-2053
▁domin	-2054
▁influ	-2055
▁media	-2056
▁trend	-2057
▁French	-2058
▁decade	-2059
iversity	-2060
▁exports	-2061
▁perform	-2062
▁produce	-2063
▁Congress	-2064
▁deficits	-2065
▁commitment	-2066
▁conditions	-2067
▁relationship	-2068
igr	-2069
▁AI	-2070
▁ce	-2071
line	-2072
pend	-2073
rodu	-2074
side	-2075
▁NEW	-2076
▁emp	-2077
▁drug	-2078
▁purs	-2079
▁writ	-2080
ressed	-2081
▁Alger	-2082
▁favor	-2083
▁third	-2084
▁affect	-2085
▁framew	-2086
▁extreme	-2087
▁funding	-2088
▁popular	-2089
▁respect	-2090
ification	-2091
▁monetary	-2092
▁trillion	-2093
▁information	-2094
go	-2095
▁Z	-2096
ape	-2097
cul	-2098
rep	-2099
▁Le	-2100
emic	-2101
lood	-2102
olar	-2103
ourn	-2104
▁dam	-2105
▁dig	-2106
▁nor	-2107
ember	-2108
ented	-2109
verse	-2110
▁doll	-2111
▁huge	-2112
▁kind	-2113
▁laun	-2114
▁once	-2115
ensive	-2116
▁reven	-2117
utional	-2118
▁nearly	-2119
▁severe	-2120
▁taking	-2121
izations	-2122
▁Ethiopia	-2123
▁bilateral	-2124
▁terrorism	-2125
▁environment	-2126
▁fundamental	-2127
▁traditional	-2128
ds	-2129
lt	-2130
els	-2131
oid	-2132
▁Or	-2133
▁cy	-2134
oday	-2135
pped	-2136
▁How	-2137
▁cat	-2138
▁day	-2139
▁ill	-2140
arter	-2141
while	-2142
▁Cons	-2143
▁Gree	-2144
▁mind	-2145
ocrats	-2146
rought	-2147
▁owing	-2148
▁rules	-2149
▁regime	-2150
▁unlike	-2151
▁benefit	-2152
▁changes	-2153
▁complex	-2154
▁constit	-2155
▁introdu	-2156
▁currency	-2157
▁decision	-2158
▁industry	-2159
▁position	-2160
▁positive	-2161
▁stronger	-2162
▁elections	-2163
▁strategic	-2164
%,	-2165
OR	-2166
by	-2167
ari	-2168
dom	-2169
equ	-2170
lom	-2171
omb	-2172
udi	-2173
urs	-2174
▁Ad	-2175
▁Ar	-2176
▁br	-2177
▁opt	-2178
▁und	-2179
alled	-2180
arily	-2181
cific	-2182
comes	-2183
overy	-2184
vious	-2185
▁clos	-2186
▁news	-2187
▁prep	-2188
▁prob	-2189
change	-2190
ctions	-2191
itable	-2192
lation	-2193
▁Italy	-2194
▁Today	-2195
▁achie	-2196
▁ident	-2197
▁legit	-2198
▁somet	-2199
vention	-2200
▁coming	-2201
▁member	-2202
▁middle	-2203
▁voters	-2204
▁banking	-2205
▁explain	-2206
▁massive	-2207
▁weapons	-2208
▁outcomes	-2209
▁currently	-2210
▁democracy	-2211
ze	-2212
han	-2213
tle	-2214
imed	-2215
▁Bar	-2216
▁Mon	-2217
▁agg	-2218
▁fri	-2219
▁argu	-2220
retary	-2221
▁Prime	-2222
▁activ	-2223
▁death	-2224
▁older	-2225
▁quick	-2226
▁study	-2227
▁twent	-2228
▁urban	-2229
imately	-2230
▁behind	-2231
▁design	-2232
▁things	-2233
▁nothing	-2234
▁Although	-2235
▁Palestin	-2236
▁millions	-2237
▁students	-2238
▁officials	-2239
▁stability	-2240
▁prosperity	-2241
▁integration	-2242
▁multilateral	-2243
DB	-2244
be	-2245
cl	-2246
to	-2247
cip	-2248
aken	-2249
ired	-2250
iter	-2251
just	-2252
ogra	-2253
ured	-2254
vest	-2255
▁Now	-2256
▁ask	-2257
▁bad	-2258
▁ori	-2259
lying	-2260
onald	-2261
▁doub	-2262
▁soon	-2263
▁ideas	-2264
▁truth	-2265
▁afford	-2266
▁altern	-2267
▁matter	-2268
▁societ	-2269
▁collect	-2270
▁obvious	-2271
▁quality	-2272
▁sectors	-2273
▁improved	-2274
▁movement	-2275
▁solution	-2276
▁experience	-2277
▁management	-2278
▁structural	-2279
▁politicians	-2280
mb	-2281
erb	-2282
use	-2283
▁EC	-2284
▁sw	-2285
ctor	-2286
hers	-2287
mark	-2288
ored	-2289
soci	-2290
▁Sim	-2291
▁dyn	-2292
▁suc	-2293
▁vol	-2294
▁win	-2295
ended	-2296
istic	-2297
▁Many	-2298
▁wide	-2299
▁First	-2300
▁North	-2301
▁above	-2302
▁began	-2303
▁drive	-2304
▁wrong	-2305
▁Indian	-2306
▁amount	-2307
▁highly	-2308
▁really	-2309
▁subsid	-2310
▁decline	-2311
▁succeed	-2312
▁represent	-2313
▁additional	-2314
▁authorities	-2315
▁consequences	-2316
▁organizations	-2317
CD	-2318
kn	-2319
ox	-2320
icy	-2321
▁Ge	-2322
▁Rw	-2323
alib	-2324
down	-2325
ighb	-2326
ival	-2327
▁May	-2328
▁eth	-2329
▁rat	-2330
Sahar	-2331
aster	-2332
▁goal	-2333
▁name	-2334
▁rule	-2335
▁stri	-2336
▁sure	-2337
ograph	-2338
ortion	-2339
▁Spain	-2340
▁class	-2341
▁comes	-2342
▁dynam	-2343
▁exist	-2344
▁journ	-2345
▁poore	-2346
Saharan	-2347
istance	-2348
▁failed	-2349
▁counter	-2350
▁discuss	-2351
▁special	-2352
▁surpris	-2353
▁compared	-2354
▁products	-2355
▁recession	-2356
fortunately	-2357
ik	-2358
of	-2359
agn	-2360
oks	-2361
rad	-2362
▁Sw	-2363
empt	-2364
▁Mus	-2365
▁bar	-2366
▁cru	-2367
▁lat	-2368
▁ran	-2369
▁ult	-2370
iplom	-2371
oviet	-2372
▁boom	-2373
▁bord	-2374
▁mess	-2375
▁repl	-2376
▁sing	-2377
income	-2378
ounced	-2379
ustain	-2380
▁analy	-2381
▁divid	-2382
▁indic	-2383
▁relig	-2384
▁resol	-2385
▁until	-2386
▁Rwanda	-2387
▁crises	-2388
▁debate	-2389
▁leader	-2390
▁output	-2391
▁attract	-2392
▁Internet	-2393
▁creation	-2394
▁majority	-2395
▁worldwide	-2396
▁agreements	-2397
▁inequality	-2398
▁transition	-2399
▁responsibility	-2400
ev	-2401
sw	-2402
cer	-2403
cil	-2404
ozy	-2405
cise	-2406
osov	-2407
▁Per	-2408
▁amb	-2409
▁art	-2410
▁ign	-2411
▁nat	-2412
▁obs	-2413
▁san	-2414
rying	-2415
▁Mean	-2416
▁loss	-2417
▁path	-2418
▁vacc	-2419
aliban	-2420
arkozy	-2421
ipolar	-2422
making	-2423
▁Kosov	-2424
▁Syria	-2425
▁along	-2426
▁argue	-2427
▁doing	-2428
▁event	-2429
▁Second	-2430
▁indeed	-2431
▁supply	-2432
▁Russian	-2433
▁Taliban	-2434
▁competit	-2435
▁experien	-2436
▁substant	-2437
▁Democrats	-2438
▁Meanwhile	-2439
▁Secretary	-2440
▁incentives	-2441
▁performance	-2442
▁negotiations	-2443
ma	-2444
cut	-2445
elt	-2446
fer	-2447
lia	-2448
ols	-2449
ott	-2450
rel	-2451
ung	-2452
val	-2453
aced	-2454
gypt	-2455
head	-2456
hest	-2457
hood	-2458
lies	-2459
rict	-2460
▁Abe	-2461
▁Can	-2462
▁fem	-2463
▁mut	-2464
▁red	-2465
ially	-2466
light	-2467
owers	-2468
▁Bush	-2469
▁Inst	-2470
▁Like	-2471
▁acad	-2472
▁city	-2473
▁feel	-2474
▁held	-2475
▁opin	-2476
▁pass	-2477
▁rein	-2478
▁self	-2479
ension	-2480
ternal	-2481
▁Egypt	-2482
▁solar	-2483
▁woman	-2484
account	-2485
ptember	-2486
▁Soviet	-2487
▁argued	-2488
▁critic	-2489
▁donors	-2490
▁immedi	-2491
▁origin	-2492
▁source	-2493
▁Britain	-2494
▁British	-2495
▁Sarkozy	-2496
▁attacks	-2497
▁results	-2498
▁disorder	-2499
▁Europeans	-2500
▁elsewhere	-2501
▁framework	-2502
▁situation	-2503
▁societies	-2504
▁sovereign	-2505
▁industries	-2506
▁Unfortunately	-2507
CA	-2508
TO	-2509
aid	-2510
auc	-2511
het	-2512
hib	-2513
lin	-2514
ony	-2515
▁ve	-2516
erty	-2517
lock	-2518
rugg	-2519
rust	-2520
ters	-2521
▁ECB	-2522
▁Par	-2523
▁Sub	-2524
▁adm	-2525
▁den	-2526
▁fix	-2527
▁mis	-2528
erate	-2529
ously	-2530
▁Musl	-2531
▁give	-2532
▁mort	-2533
▁poll	-2534
▁seen	-2535
called	-2536
espite	-2537
lusion	-2538
▁cheap	-2539
▁field	-2540
▁gains	-2541
▁imper	-2542
▁taken	-2543
itarian	-2544
▁carbon	-2545
▁neighb	-2546
▁strugg	-2547
▁Algeria	-2548
▁clearly	-2549
▁disease	-2550
▁helping	-2551
▁include	-2552
▁parties	-2553
▁reality	-2554
▁regions	-2555
▁warming	-2556
▁prospect	-2557
▁reducing	-2558
▁September	-2559
▁certainly	-2560
▁corruption	-2561
▁initiative	-2562
IN	-2563
ne	-2564
app	-2565
gal	-2566
▁NA	-2567
▁No	-2568
▁ut	-2569
exic	-2570
fall	-2571
ille	-2572
ises	-2573
ites	-2574
osis	-2575
rade	-2576
requ	-2577
rist	-2578
▁Fed	-2579
▁Ham	-2580
▁deg	-2581
▁men	-2582
▁pan	-2583
▁six	-2584
▁urg	-2585
celer	-2586
ustom	-2587
▁King	-2588
▁answ	-2589
▁bond	-2590
▁hous	-2591
▁miss	-2592
▁mist	-2593
▁seek	-2594
Americ	-2595
▁Other	-2596
▁cases	-2597
▁enter	-2598
▁explo	-2599
▁extra	-2600
▁grand	-2601
▁imbal	-2602
▁later	-2603
▁renew	-2604
▁shift	-2605
▁whole	-2606
▁words	-2607
ception	-2608
igrants	-2609
▁diplom	-2610
▁events	-2611
▁object	-2612
▁powers	-2613
▁single	-2614
▁borders	-2615
▁deliver	-2616
▁limited	-2617
▁seeking	-2618
▁contrast	-2619
▁electric	-2620
▁probably	-2621
▁stimulus	-2622
▁available	-2623
▁continues	-2624
▁direction	-2625
▁businesses	-2626
▁economists	-2627
oy	-2628
ORK	-2629
fin	-2630
hem	-2631
iff	-2632
ots	-2633
▁Ug	-2634
▁di	-2635
ator	-2636
crib	-2637
ints	-2638
itud	-2639
omen	-2640
part	-2641
uing	-2642
▁Lib	-2643
▁Net	-2644
▁Pak	-2645
▁era	-2646
▁fig	-2647
▁gir	-2648
▁mer	-2649
▁won	-2650
ilies	-2651
illed	-2652
thing	-2653
unger	-2654
▁Most	-2655
▁Only	-2656
▁YORK	-2657
▁cand	-2658
▁mand	-2659
▁repe	-2660
▁save	-2661
▁seed	-2662
▁sett	-2663
▁surv	-2664
ashing	-2665
▁House	-2666
▁Mexic	-2667
▁Party	-2668
▁behav	-2669
▁goals	-2670
▁loans	-2671
▁moral	-2672
▁parts	-2673
▁purch	-2674
▁rural	-2675
▁sound	-2676
▁worse	-2677
liament	-2678
▁Donald	-2679
▁Kosovo	-2680
▁advant	-2681
▁chance	-2682
▁excess	-2683
▁forced	-2684
▁ground	-2685
▁having	-2686
▁vision	-2687
atically	-2688
▁Central	-2689
▁coordin	-2690
▁failure	-2691
▁primary	-2692
▁Pakistan	-2693
▁concerns	-2694
▁exchange	-2695
▁families	-2696
▁independ	-2697
▁patients	-2698
▁thinking	-2699
▁beginning	-2700
▁committed	-2701
▁increases	-2702
▁questions	-2703
▁Commission	-2704
▁regulatory	-2705
▁vulnerable	-2706
▁globalization	-2707
%.	-2708
ees	-2709
enn	-2710
gor	-2711
loc	-2712
▁En	-2713
▁Ma	-2714
airs	-2715
mber	-2716
work	-2717
▁Med	-2718
▁bod	-2719
▁let	-2720
▁mot	-2721
▁sav	-2722
▁typ	-2723
▁wee	-2724
▁away	-2725
▁harm	-2726
▁inev	-2727
▁norm	-2728
▁trou	-2729
eneral	-2730
istics	-2731
rative	-2732
▁Since	-2733
▁avoid	-2734
▁basic	-2735
▁basis	-2736
▁diagn	-2737
▁flows	-2738
▁insur	-2739
▁shows	-2740
▁sides	-2741
▁story	-2742
▁thing	-2743
erences	-2744
unction	-2745
▁Commun	-2746
▁candid	-2747
▁gender	-2748
▁helped	-2749
▁record	-2750
ological	-2751
▁Despite	-2752
▁compens	-2753
▁digital	-2754
▁factors	-2755
▁federal	-2756
▁meaning	-2757
▁natural	-2758
▁protest	-2759
▁respond	-2760
▁collabor	-2761
▁cultural	-2762
ustainable	-2763
▁according	-2764
▁transport	-2765
▁treatment	-2766
▁everywhere	-2767
▁historical	-2768
▁opposition	-2769
▁partnership	-2770
▁significantly	-2771
▁technological	-2772
IV	-2773
MF	-2774
off	-2775
pol	-2776
ubl	-2777
umm	-2778
▁Am	-2779
▁My	-2780
ided	-2781
lier	-2782
phas	-2783
used	-2784
▁IMF	-2785
▁Not	-2786
▁gas	-2787
▁pus	-2788
▁rad	-2789
lling	-2790
oring	-2791
osing	-2792
▁Geor	-2793
▁frag	-2794
▁heav	-2795
▁late	-2796
▁list	-2797
▁side	-2798
arents	-2799
lusive	-2800
▁Given	-2801
▁Great	-2802
▁Simil	-2803
▁State	-2804
▁below	-2805
▁enorm	-2806
▁going	-2807
▁heart	-2808
▁known	-2809
▁mater	-2810
▁occur	-2811
▁rough	-2812
▁scale	-2813
ressive	-2814
▁Barack	-2815
▁became	-2816
▁emphas	-2817
▁secure	-2818
▁seemed	-2819
▁appears	-2820
▁connect	-2821
▁distrib	-2822
▁forward	-2823
▁legitim	-2824
▁quickly	-2825
▁receive	-2826
▁thought	-2827
▁Economic	-2828
▁becoming	-2829
▁behavior	-2830
▁determin	-2831
▁training	-2832
▁continued	-2833
▁corporate	-2834
▁decisions	-2835
▁fertility	-2836
▁democratic	-2837
▁initiatives	-2838
bi	-2839
sh	-2840
ask	-2841
hel	-2842
ina	-2843
ohn	-2844
orn	-2845
rew	-2846
sis	-2847
xim	-2848
▁II	-2849
▁Tw	-2850
hens	-2851
ried	-2852
▁Com	-2853
▁arm	-2854
▁bat	-2855
▁cir	-2856
▁div	-2857
▁unp	-2858
iring	-2859
ought	-2860
third	-2861
▁Coun	-2862
▁From	-2863
▁John	-2864
▁idea	-2865
▁line	-2866
▁publ	-2867
aching	-2868
rained	-2869
▁Asian	-2870
▁mobil	-2871
▁offer	-2872
▁relev	-2873
▁vital	-2874
ination	-2875
▁Greece	-2876
▁Uganda	-2877
▁accord	-2878
▁associ	-2879
▁custom	-2880
▁either	-2881
▁employ	-2882
▁larger	-2883
▁mechan	-2884
▁person	-2885
▁police	-2886
▁prohib	-2887
▁widely	-2888
▁Kingdom	-2889
▁acceler	-2890
▁bipolar	-2891
▁focused	-2892
▁general	-2893
▁reduced	-2894
abilities	-2895
▁actually	-2896
▁enormous	-2897
▁material	-2898
▁recovery	-2899
▁authority	-2900
▁constrain	-2901
▁contribut	-2902
▁influence	-2903
▁practices	-2904
▁recognize	-2905
▁households	-2906
▁revolution	-2907
▁ultimately	-2908
▁established	-2909
DG	-2910
mp	-2911
irt	-2912
pet	-2913
▁($	-2914
▁Ne	-2915
▁Sa	-2916
▁ge	-2917
▁ir	-2918
ique	-2919
▁HIV	-2920
▁Mal	-2921
▁mal	-2922
▁mid	-2923
ached	-2924
acter	-2925
▁easy	-2926
▁insp	-2927
▁pain	-2928
▁took	-2929
illing	-2930
sector	-2931
▁Organ	-2932
▁advoc	-2933
▁emerg	-2934
▁frequ	-2935
▁liter	-2936
▁plans	-2937
▁surve	-2938
▁using	-2939
▁yield	-2940
▁Christ	-2941
▁caused	-2942
▁commod	-2943
▁damage	-2944
▁hunger	-2945
▁imposs	-2946
▁months	-2947
▁mutual	-2948
▁recomm	-2949
▁simple	-2950
▁status	-2951
fficient	-2952
▁Council	-2953
▁comprom	-2954
▁conserv	-2955
▁imports	-2956
▁poorest	-2957
▁promise	-2958
▁rapidly	-2959
▁building	-2960
▁consumer	-2961
▁creating	-2962
▁external	-2963
▁personal	-2964
▁required	-2965
▁unlikely	-2966
▁introduced	-2967
▁scientific	-2968
▁alternative	-2969
▁effectively	-2970
sp	-2971
car	-2972
cle	-2973
den	-2974
ope	-2975
umb	-2976
▁Ex	-2977
abil	-2978
grow	-2979
hana	-2980
plus	-2981
rest	-2982
vert	-2983
year	-2984
▁Ber	-2985
▁log	-2986
▁wat	-2987
ailed	-2988
rimin	-2989
uster	-2990
▁bomb	-2991
▁burd	-2992
▁enab	-2993
▁fair	-2994
▁lose	-2995
▁mach	-2996
▁pack	-2997
▁shar	-2998
▁summ	-2999
▁wast	-3000
gorith	-3001
istent	-3002
onents	-3003
▁Ghana	-3004
▁black	-3005
▁doubt	-3006
▁flood	-3007
▁legal	-3008
▁raise	-3009
▁serve	-3010
▁talks	-3011
ication	-3012
ospital	-3013
▁cancer	-3014
▁expans	-3015
▁lesson	-3016
▁partly	-3017
▁resili	-3018
▁shared	-3019
▁territ	-3020
▁company	-3021
▁crucial	-3022
▁discipl	-3023
▁meeting	-3024
▁opinion	-3025
▁studies	-3026
▁surplus	-3027
▁victory	-3028
▁critical	-3029
▁everyone	-3030
▁greatest	-3031
▁priority	-3032
▁revenues	-3033
▁supposed	-3034
▁undermin	-3035
▁character	-3036
▁consumers	-3037
▁estimated	-3038
▁improving	-3039
▁providing	-3040
▁Democratic	-3041
▁profession	-3042
▁Palestinian	-3043
▁electricity	-3044
▁dramatically	-3045
▁competitiveness	-3046
AC	-3047
aj	-3048
fe	-3049
DGs	-3050
izes	-3051
lled	-3052
rary	-3053
rene	-3054
▁Dep	-3055
▁Jew	-3056
▁Jun	-3057
▁Mar	-3058
▁bro	-3059
▁cal	-3060
▁rob	-3061
▁ste	-3062
▁tro	-3063
▁uns	-3064
aries	-3065
fully	-3066
ights	-3067
ottom	-3068
rison	-3069
▁acqu	-3070
▁join	-3071
▁reve	-3072
▁soft	-3073
▁tend	-3074
ellect	-3075
encies	-3076
▁Kenya	-3077
▁Their	-3078
▁adequ	-3079
▁ahead	-3080
▁chain	-3081
▁deval	-3082
▁equal	-3083
▁immun	-3084
▁joint	-3085
▁legis	-3086
▁meant	-3087
▁recon	-3088
▁seven	-3089
▁solid	-3090
▁union	-3091
conduct	-3092
▁agreed	-3093
▁choice	-3094
▁engine	-3095
▁factor	-3096
▁forest	-3097
▁margin	-3098
▁models	-3099
▁moving	-3100
▁nation	-3101
▁planet	-3102
▁points	-3103
▁spread	-3104
ographic	-3105
usterity	-3106
▁Islamic	-3107
▁adopted	-3108
▁dynamic	-3109
▁friends	-3110
▁justice	-3111
▁matters	-3112
▁roughly	-3113
▁targets	-3114
▁directly	-3115
▁followed	-3116
▁generate	-3117
▁resource	-3118
▁suggests	-3119
▁advantage	-3120
▁conflicts	-3121
▁consensus	-3122
▁discrimin	-3123
▁economics	-3124
▁encourage	-3125
▁expansion	-3126
▁following	-3127
▁therefore	-3128
▁University	-3129
▁collective	-3130
▁impossible	-3131
▁strategies	-3132
▁uncertainty	-3133
▁Organization	-3134
▁construction	-3135
▁presidential	-3136
▁liberalization	-3137
uk	-3138
aff	-3139
bed	-3140
ief	-3141
leb	-3142
ops	-3143
▁CA	-3144
▁Uk	-3145
aled	-3146
ania	-3147
ieth	-3148
mine	-3149
orks	-3150
sets	-3151
▁Bra	-3152
▁His	-3153
antic	-3154
arant	-3155
ondon	-3156
thern	-3157
▁Conf	-3158
▁Last	-3159
▁NATO	-3160
▁crop	-3161
▁push	-3162
▁safe	-3163
▁spur	-3164
▁vote	-3165
illenn	-3166
market	-3167
rehens	-3168
riving	-3169
▁aimed	-3170
▁debts	-3171
▁fully	-3172
▁gradu	-3173
▁limit	-3174
▁minim	-3175
▁minor	-3176
▁opium	-3177
▁parad	-3178
▁taxes	-3179
▁visit	-3180
▁wants	-3181
outhern	-3182
reprene	-3183
▁London	-3184
▁Mexico	-3185
▁answer	-3186
▁center	-3187
▁comput	-3188
▁enable	-3189
▁faster	-3190
▁happen	-3191
▁latest	-3192
▁merely	-3193
▁propos	-3194
▁temper	-3195
▁useful	-3196
▁Finally	-3197
▁attempt	-3198
▁biggest	-3199
▁contain	-3200
▁guarant	-3201
▁returns	-3202
▁analysis	-3203
▁hospital	-3204
▁profound	-3205
▁provided	-3206
▁relevant	-3207
▁announced	-3208
▁intellect	-3209
▁migration	-3210
▁pollution	-3211
▁promoting	-3212
▁religious	-3213
▁something	-3214
▁sustained	-3215
▁undermine	-3216
▁entreprene	-3217
▁importance	-3218
▁legitimacy	-3219
▁protection	-3220
▁Republicans	-3221
▁developments	-3222
▁superconduct	-3223
AR	-3224
EN	-3225
ny	-3226
RID	-3227
arc	-3228
ero	-3229
ilt	-3230
inc	-3231
lif	-3232
way	-3233
zil	-3234
▁Su	-3235
▁ep	-3236
enth	-3237
ient	-3238
ison	-3239
▁Bur	-3240
▁Our	-3241
▁jud	-3242
▁var	-3243
ellig	-3244
erves	-3245
itter	-3246
olars	-3247
ology	-3248
range	-3249
ronic	-3250
▁game	-3251
▁host	-3252
▁race	-3253
▁read	-3254
▁vast	-3255
▁vers	-3256
▁celeb	-3257
▁claim	-3258
▁ended	-3259
▁forms	-3260
▁incom	-3261
▁learn	-3262
▁light	-3263
▁maxim	-3264
▁sharp	-3265
▁space	-3266
▁steps	-3267
▁tools	-3268
▁trust	-3269
▁Govern	-3270
▁Health	-3271
▁allies	-3272
▁belief	-3273
▁cities	-3274
▁crimin	-3275
▁facing	-3276
▁proper	-3277
▁tempor	-3278
▁treaty	-3279
economic	-3280
▁Without	-3281
▁arrange	-3282
▁demands	-3283
▁describ	-3284
▁housing	-3285
▁leaving	-3286
▁lessons	-3287
▁neither	-3288
▁offered	-3289
▁outside	-3290
▁overall	-3291
▁precise	-3292
▁princip	-3293
▁radical	-3294
▁turning	-3295
ashington	-3296
▁Monetary	-3297
▁algorith	-3298
▁minister	-3299
▁reflects	-3300
▁Similarly	-3301
▁austerity	-3302
▁estimates	-3303
▁immediate	-3304
▁suffering	-3305
▁technical	-3306
▁eventually	-3307
▁throughout	-3308
▁individuals	-3309
▁responsible	-3310
▁universities	-3311
▁institutional	-3312
ING	-3313
TON	-3314
ded	-3315
ira	-3316
lan	-3317
pay	-3318
ple	-3319
unt	-3320
▁Ac	-3321
▁Ke	-3322
aces	-3323
angu	-3324
aria	-3325
aves	-3326
comm	-3327
fect	-3328
inet	-3329
lder	-3330
look	-3331
olid	-3332
rect	-3333
with	-3334
▁Sch	-3335
▁ban	-3336
▁bri	-3337
▁exe	-3338
▁reb	-3339
▁sil	-3340
aught	-3341
house	-3342
iance	-3343
level	-3344
minbi	-3345
ossil	-3346
reens	-3347
rence	-3348
uries	-3349
▁came	-3350
▁draw	-3351
▁obst	-3352
▁sens	-3353
▁talk	-3354
▁told	-3355
▁vill	-3356
▁virt	-3357
action	-3358
atures	-3359
herent	-3360
▁Trade	-3361
▁Treat	-3362
▁autom	-3363
▁embra	-3364
▁hopes	-3365
▁persu	-3366
▁prime	-3367
▁solve	-3368
through	-3369
▁Brazil	-3370
▁assess	-3371
▁border	-3372
▁convin	-3373
▁dollar	-3374
▁remark	-3375
▁travel	-3376
▁Federal	-3377
▁Reserve	-3378
▁appoint	-3379
▁critics	-3380
▁drought	-3381
▁highest	-3382
▁measure	-3383
▁promote	-3384
▁reached	-3385
▁service	-3386
rehensive	-3387
▁confront	-3388
▁diseases	-3389
▁launched	-3390
▁remained	-3391
▁prospects	-3392
▁supported	-3393
▁twentieth	-3394
▁universal	-3395
▁assistance	-3396
▁confidence	-3397
▁engagement	-3398
▁inevitable	-3399
▁productive	-3400
▁sufficient	-3401
▁Fortunately	-3402
▁competition	-3403
▁participation	-3404
Af	-3405
ax	-3406
ada	-3407
eng	-3408
men	-3409
oph	-3410
war	-3411
▁ty	-3412
ager	-3413
ague	-3414
apse	-3415
arth	-3416
aval	-3417
back	-3418
cape	-3419
cont	-3420
hern	-3421
icip	-3422
rupt	-3423
▁Gul	-3424
▁Ire	-3425
▁Jan	-3426
▁hit	-3427
▁sex	-3428
asion	-3429
iment	-3430
▁Cold	-3431
▁Dece	-3432
▁Serb	-3433
▁Summ	-3434
▁area	-3435
▁book	-3436
▁bure	-3437
▁core	-3438
▁cuts	-3439
▁phys	-3440
▁purp	-3441
▁rain	-3442
▁road	-3443
▁tack	-3444
▁upon	-3445
▁whom	-3446
ciples	-3447
ousand	-3448
policy	-3449
▁Alban	-3450
▁Found	-3451
▁board	-3452
▁mortg	-3453
▁spend	-3454
▁track	-3455
▁withd	-3456
▁works	-3457
▁worst	-3458
holders	-3459
▁George	-3460
▁Greens	-3461
▁Treaty	-3462
▁anyone	-3463
▁bottom	-3464
▁devast	-3465
▁divers	-3466
▁engage	-3467
▁extent	-3468
▁giving	-3469
▁launch	-3470
▁minist	-3471
▁summit	-3472
▁talent	-3473
▁theory	-3474
ications	-3475
▁Ireland	-3476
▁actions	-3477
▁advance	-3478
▁dollars	-3479
▁equally	-3480
▁facilit	-3481
▁finally	-3482
▁instead	-3483
▁lending	-3484
▁reasons	-3485
▁running	-3486
▁academic	-3487
▁existing	-3488
▁intellig	-3489
▁overcome	-3490
▁provides	-3491
▁renminbi	-3492
▁repeated	-3493
▁restrict	-3494
▁vaccines	-3495
▁commodity	-3496
▁reduction	-3497
▁sanctions	-3498
▁tradition	-3499
▁associated	-3500
▁difference	-3501
▁relatively	-3502
▁scientists	-3503
▁terrorists	-3504
▁university	-3505
▁independent	-3506
▁recognition	-3507
▁accountability	-3508
▁discrimination	-3509
▁sustainability	-3510
▁transformation	-3511
AS	-3512
ES	-3513
GE	-3514
▁z	-3515
DON	-3516
amb	-3517
apt	-3518
gic	-3519
irm	-3520
kes	-3521
lig	-3522
och	-3523
pri	-3524
ray	-3525
sec	-3526
unn	-3527
▁Bo	-3528
▁Ju	-3529
▁Pe	-3530
▁UK	-3531
▁gl	-3532
bted	-3533
ethe	-3534
iles	-3535
isms	-3536
kept	-3537
more	-3538
onom	-3539
uine	-3540
ynes	-3541
▁Bal	-3542
▁Har	-3543
▁LDP	-3544
▁LON	-3545
▁Non	-3546
▁buy	-3547
▁det	-3548
▁gap	-3549
▁har	-3550
▁nut	-3551
▁sum	-3552
ament	-3553
ittee	-3554
lands	-3555
risis	-3556
▁Anot	-3557
▁Prog	-3558
▁cash	-3559
▁defe	-3560
▁pled	-3561
▁port	-3562
▁sent	-3563
▁ties	-3564
Europe	-3565
ancial	-3566
coming	-3567
ground	-3568
ishing	-3569
itical	-3570
rating	-3571
▁accur	-3572
▁adopt	-3573
▁barri	-3574
▁colle	-3575
▁cyber	-3576
▁lines	-3577
▁shape	-3578
▁stock	-3579
century	-3580
iciency	-3581
orthern	-3582
related	-3583
▁Econom	-3584
▁Invest	-3585
▁LONDON	-3586
▁causes	-3587
▁commer	-3588
▁deaths	-3589
▁father	-3590
▁limits	-3591
▁manage	-3592
▁nature	-3593
▁normal	-3594
▁proved	-3595
▁safety	-3596
▁tariff	-3597
standing	-3598
▁Another	-3599
▁General	-3600
▁Instead	-3601
▁Israeli	-3602
▁Perhaps	-3603
▁changed	-3604
▁conduct	-3605
▁earlier	-3606
▁experts	-3607
▁getting	-3608
▁heavily	-3609
▁himself	-3610
▁outcome	-3611
▁pattern	-3612
▁present	-3613
▁replace	-3614
▁sources	-3615
▁thereby	-3616
▁weather	-3617
▁Likewise	-3618
▁addition	-3619
▁argument	-3620
▁changing	-3621
▁complain	-3622
▁contrary	-3623
▁declared	-3624
▁designed	-3625
▁dramatic	-3626
▁internal	-3627
▁learning	-3628
▁prepared	-3629
▁scholars	-3630
▁thousand	-3631
▁Communist	-3632
▁Greenspan	-3633
▁dangerous	-3634
▁insurance	-3635
▁terrorist	-3636
▁typically	-3637
▁Washington	-3638
▁innovative	-3639
▁principles	-3640
▁threatened	-3641
▁experienced	-3642
▁generations	-3643
▁immigration	-3644
▁intervention	-3645
▁organization	-3646
CO	-3647
ef	-3648
pr	-3649
gun	-3650
ken	-3651
los	-3652
oiz	-3653
oke	-3654
ola	-3655
ull	-3656
umi	-3657
▁hy	-3658
▁vo	-3659
AIDS	-3660
acro	-3661
ames	-3662
appe	-3663
atin	-3664
ches	-3665
ctic	-3666
ctob	-3667
imer	-3668
irth	-3669
know	-3670
lied	-3671
ones	-3672
opol	-3673
uild	-3674
whel	-3675
▁Ant	-3676
▁Mel	-3677
▁Whe	-3678
▁alt	-3679
▁dow	-3680
▁fle	-3681
▁hum	-3682
▁lab	-3683
▁sea	-3684
▁wel	-3685
adequ	-3686
count	-3687
diagn	-3688
idesp	-3689
inary	-3690
raine	-3691
▁Euro	-3692
▁High	-3693
▁Koiz	-3694
▁Port	-3695
▁arms	-3696
▁days	-3697
▁dict	-3698
▁ethn	-3699
▁feed	-3700
▁imag	-3701
▁liqu	-3702
▁near	-3703
▁paid	-3704
▁plat	-3705
▁shap	-3706
▁teac	-3707
▁week	-3708
▁your	-3709
ancing	-3710
ctober	-3711
forest	-3712
idered	-3713
itious	-3714
lantic	-3715
ulated	-3716
undred	-3717
▁Goals	-3718
▁Paris	-3719
▁Saudi	-3720
▁Under	-3721
▁brain	-3722
▁built	-3723
▁deals	-3724
▁dream	-3725
▁eight	-3726
▁faced	-3727
▁final	-3728
▁front	-3729
▁frust	-3730
▁fuels	-3731
▁girls	-3732
▁hands	-3733
▁leave	-3734
▁macro	-3735
▁motiv	-3736
▁mount	-3737
▁occup	-3738
▁prove	-3739
▁range	-3740
▁stagn	-3741
▁takes	-3742
▁volat	-3743
anguage	-3744
ustrial	-3745
▁Canada	-3746
▁Keynes	-3747
▁Muslim	-3748
▁Though	-3749
▁adjust	-3750
▁appear	-3751
▁assets	-3752
▁battle	-3753
▁defeat	-3754
▁double	-3755
▁easier	-3756
▁exceed	-3757
▁expert	-3758
▁formal	-3759
▁fossil	-3760
▁medium	-3761
▁narrow	-3762
▁office	-3763
▁perman	-3764
▁plants	-3765
▁troops	-3766
▁widesp	-3767
▁worked	-3768
American	-3769
etheless	-3770
▁However	-3771
▁Koizumi	-3772
▁October	-3773
▁Ukraine	-3774
▁allowed	-3775
▁bankers	-3776
▁brought	-3777
▁bureauc	-3778
▁involve	-3779
▁message	-3780
▁options	-3781
▁parents	-3782
▁quarter	-3783
▁related	-3784
▁schools	-3785
▁trading	-3786
▁National	-3787
▁activity	-3788
▁appropri	-3789
▁collapse	-3790
▁complete	-3791
▁disaster	-3792
▁equality	-3793
▁happened	-3794
▁negative	-3795
▁overwhel	-3796
▁reaching	-3797
▁southern	-3798
▁standard	-3799
▁struggle	-3800
▁withdraw	-3801
▁ambitious	-3802
▁precisely	-3803
▁resulting	-3804
▁subsidies	-3805
▁temporary	-3806
▁workforce	-3807
▁Foundation	-3808
▁compromise	-3809
▁considered	-3810
▁greenhouse	-3811
▁parliament	-3812
▁previously	-3813
▁regulation	-3814
▁statistics	-3815
▁supporters	-3816
▁widespread	-3817
▁Sustainable	-3818
▁destruction	-3819
▁differences	-3820
▁corporations	-3821
▁distribution	-3822
EL	-3823
ER	-3824
PJ	-3825
co	-3826
ij	-3827
sy	-3828
▁X	-3829
PAC	-3830
ane	-3831
ext	-3832
hod	-3833
isp	-3834
ita	-3835
uni	-3836
urb	-3837
yle	-3838
▁Co	-3839
▁bi	-3840
▁fo	-3841
ails	-3842
iliz	-3843
inks	-3844
oric	-3845
uary	-3846
ular	-3847
▁Add	-3848
▁Ang	-3849
▁Bas	-3850
▁Bec	-3851
▁DPJ	-3852
▁Eng	-3853
▁NCD	-3854
▁Sen	-3855
▁alc	-3856
▁hom	-3857
▁ord	-3858
▁wit	-3859
aches	-3860
aling	-3861
cient	-3862
esity	-3863
iding	-3864
idity	-3865
itute	-3866
luded	-3867
rived	-3868
state	-3869
▁AfDB	-3870
▁June	-3871
▁Just	-3872
▁MDGs	-3873
▁Thus	-3874
▁brut	-3875
▁dele	-3876
▁goes	-3877
▁laws	-3878
▁lend	-3879
▁perm	-3880
▁rank	-3881
▁size	-3882
▁stem	-3883
▁task	-3884
▁team	-3885
▁trig	-3886
▁trip	-3887
carbon	-3888
health	-3889
heimer	-3890
itting	-3891
mented	-3892
▁AIPAC	-3893
▁Latin	-3894
▁Medic	-3895
▁asset	-3896
▁block	-3897
▁calls	-3898
▁doesn	-3899
▁grown	-3900
▁reass	-3901
▁speak	-3902
▁stead	-3903
▁tests	-3904
▁tight	-3905
nership	-3906
ructive	-3907
▁Portug	-3908
▁abroad	-3909
▁acknow	-3910
▁actors	-3911
▁catast	-3912
▁disput	-3913
▁driven	-3914
▁elimin	-3915
▁execut	-3916
▁implic	-3917
▁offers	-3918
▁reject	-3919
▁remind	-3920
▁revers	-3921
▁robust	-3922
▁secret	-3923
▁signed	-3924
▁stabil	-3925
▁stands	-3926
▁survey	-3927
▁trends	-3928
▁unless	-3929
reaching	-3930
▁Because	-3931
▁Climate	-3932
▁Millenn	-3933
▁becomes	-3934
▁broader	-3935
▁chronic	-3936
▁defined	-3937
▁hundred	-3938
▁learned	-3939
▁nations	-3940
▁putting	-3941
▁savings	-3942
▁younger	-3943
▁December	-3944
▁achieved	-3945
▁bringing	-3946
▁ensuring	-3947
▁expanded	-3948
▁journals	-3949
▁marginal	-3950
▁perspect	-3951
▁promises	-3952
▁reserves	-3953
▁supports	-3954
▁criticism	-3955
▁investing	-3956
▁activities	-3957
▁addressing	-3958
▁recognized	-3959
▁represents	-3960
▁competitive	-3961
▁constraints	-3962
▁demographic	-3963
▁innovations	-3964
▁breakthrough	-3965
▁intellectual	-3966
▁intelligence	-3967
MB	-3968
TI	-3969
mo	-3970
ECD	-3971
ats	-3972
ech	-3973
mon	-3974
par	-3975
spe	-3976
▁Bl	-3977
▁DC	-3978
▁Ky	-3979
arsh	-3980
bank	-3981
ibly	-3982
icro	-3983
ogue	-3984
ohol	-3985
omin	-3986
oses	-3987
ping	-3988
rich	-3989
▁Alz	-3990
▁Kar	-3991
▁Rev	-3992
▁Rob	-3993
▁Yas	-3994
▁asp	-3995
▁enj	-3996
▁fra	-3997
▁sup	-3998
Afric	-3999
cious	-4000
ffect	-4001
first	-4002
going	-4003
ilton	-4004
known	-4005
power	-4006
rates	-4007
scale	-4008
▁Fore	-4009
▁Fran	-4010
▁OECD	-4011
▁Over	-4012
▁Shia	-4013
▁body	-4014
▁bold	-4015
▁circ	-4016
▁dism	-4017
▁doct	-4018
▁flag	-4019
▁flow	-4020
▁hour	-4021
▁init	-4022
▁isol	-4023
▁lies	-4024
▁sold	-4025
▁stre	-4026
▁went	-4027
avalny	-4028
commun	-4029
ployed	-4030
umping	-4031
▁Those	-4032
▁Trans	-4033
▁Until	-4034
▁blood	-4035
▁bound	-4036
▁colon	-4037
▁crops	-4038
▁elder	-4039
▁faces	-4040
▁lands	-4041
▁revol	-4042
▁spent	-4043
▁stage	-4044
▁toler	-4045
▁views	-4046
archers	-4047
centage	-4048
connect	-4049
itation	-4050
▁During	-4051
▁burden	-4052
▁capita	-4053
▁career	-4054
▁claims	-4055
▁condem	-4056
▁degree	-4057
▁elites	-4058
▁losses	-4059
▁online	-4060
▁played	-4061
▁presid	-4062
▁prison	-4063
▁raised	-4064
▁resist	-4065
▁stable	-4066
▁twenty	-4067
▁unable	-4068
▁viewed	-4069
▁Navalny	-4070
▁alcohol	-4071
▁attitud	-4072
▁correct	-4073
▁depends	-4074
▁enforce	-4075
▁farming	-4076
▁happens	-4077
▁healthy	-4078
▁inadequ	-4079
▁medical	-4080
▁profess	-4081
▁sharing	-4082
▁subject	-4083
▁victims	-4084
▁Consider	-4085
▁adequate	-4086
▁agencies	-4087
▁combined	-4088
▁fighting	-4089
▁function	-4090
▁peaceful	-4091
▁protests	-4092
▁starters	-4093
▁Alzheimer	-4094
▁efficient	-4095
▁emergence	-4096
▁exception	-4097
▁highlight	-4098
▁imbalance	-4099
▁inclusive	-4100
▁movements	-4101
▁recommend	-4102
▁sometimes	-4103
▁thousands	-4104
▁Millennium	-4105
▁conference	-4106
▁contribute	-4107
▁convention	-4108
▁discipline	-4109
▁appropriate	-4110
▁educational	-4111
▁legislation	-4112
▁politically	-4113
▁researchers	-4114
▁partnerships	-4115
▁entrepreneurs	-4116
.)	-4117
me	-4118
rs	-4119
su	-4120
▁Q	-4121
▁€	-4122
TIP	-4123
ahu	-4124
anz	-4125
aul	-4126
avi	-4127
aza	-4128
che	-4129
imb	-4130
iny	-4131
lar	-4132
ode	-4133
orb	-4134
urt	-4135
▁Do	-4136
▁Ha	-4137
amed	-4138
ange	-4139
cast	-4140
cers	-4141
cons	-4142
fers	-4143
inct	-4144
mosp	-4145
oler	-4146
omal	-4147
oral	-4148
rage	-4149
uted	-4150
wing	-4151
▁Any	-4152
▁IDB	-4153
▁due	-4154
▁enh	-4155
▁lot	-4156
▁ple	-4157
▁pun	-4158
▁sen	-4159
▁try	-4160
▁unw	-4161
▁ver	-4162
ching	-4163
eenth	-4164
inton	-4165
ional	-4166
irect	-4167
reced	-4168
rific	-4169
under	-4170
▁Aust	-4171
▁Both	-4172
▁Gavi	-4173
▁TTIP	-4174
▁bear	-4175
▁cast	-4176
▁clin	-4177
▁dead	-4178
▁enem	-4179
▁fell	-4180
▁scen	-4181
▁wave	-4182
▁zero	-4183
anyahu	-4184
stream	-4185
▁Burma	-4186
▁Green	-4187
▁Keral	-4188
▁Still	-4189
▁Treas	-4190
▁accom	-4191
▁begun	-4192
▁delay	-4193
▁fears	-4194
▁worth	-4195
appoint	-4196
ductive	-4197
ensions	-4198
ialogue	-4199
rations	-4200
uations	-4201
ulation	-4202
▁Robert	-4203
▁arrest	-4204
▁compar	-4205
▁deeper	-4206
▁deeply	-4207
▁destro	-4208
▁ethnic	-4209
▁female	-4210
▁ignore	-4211
▁intens	-4212
▁mobile	-4213
▁obstac	-4214
▁offset	-4215
▁perpet	-4216
▁pursue	-4217
▁reward	-4218
▁showed	-4219
▁sought	-4220
▁speech	-4221
▁transl	-4222
▁turned	-4223
security	-4224
▁Albania	-4225
▁capable	-4226
▁closely	-4227
▁defense	-4228
▁disappe	-4229
▁failing	-4230
▁genuine	-4231
▁implies	-4232
▁partner	-4233
▁perfect	-4234
▁reinfor	-4235
▁resolve	-4236
▁species	-4237
▁tariffs	-4238
▁transpa	-4239
▁witness	-4240
▁barriers	-4241
▁consolid	-4242
▁coverage	-4243
▁criminal	-4244
▁educated	-4245
▁fertiliz	-4246
▁language	-4247
▁offering	-4248
▁planning	-4249
▁property	-4250
▁reported	-4251
▁specific	-4252
▁strength	-4253
▁transfer	-4254
▁Consensus	-4255
▁Financial	-4256
▁Netanyahu	-4257
▁achieving	-4258
▁addressed	-4259
▁borrowing	-4260
▁candidate	-4261
▁condition	-4262
▁dependent	-4263
▁negotiate	-4264
▁producers	-4265
▁promising	-4266
▁published	-4267
▁structure	-4268
▁Republican	-4269
▁mechanisms	-4270
▁percentage	-4271
▁presidency	-4272
▁repeatedly	-4273
▁settlement	-4274
▁underlying	-4275
▁Partnership	-4276
▁commitments	-4277
▁necessarily	-4278
▁substantial	-4279
▁considerable	-4280
▁establishing	-4281
▁immunization	-4282
▁comprehensive	-4283
▁substantially	-4284
AN	-4285
CT	-4286
IB	-4287
ih	-4288
ns	-4289
▁-	-4290
ASH	-4291
aba	-4292
ket	-4293
nam	-4294
oor	-4295
ote	-4296
rex	-4297
rus	-4298
ula	-4299
▁Fe	-4300
▁Hu	-4301
▁Mc	-4302
▁ec	-4303
agan	-4304
ancy	-4305
ario	-4306
azon	-4307
bles	-4308
ding	-4309
enty	-4310
fire	-4311
fort	-4312
obel	-4313
oted	-4314
vard	-4315
ware	-4316
▁God	-4317
▁Why	-4318
▁aim	-4319
▁hon	-4320
▁mix	-4321
▁wis	-4322
MBRID	-4323
acerb	-4324
anted	-4325
arity	-4326
class	-4327
emics	-4328
erend	-4329
iable	-4330
igate	-4331
nturn	-4332
ommod	-4333
place	-4334
riend	-4335
ukuni	-4336
▁Four	-4337
▁July	-4338
▁Murd	-4339
▁Park	-4340
▁Then	-4341
▁WASH	-4342
▁army	-4343
▁audi	-4344
▁capt	-4345
▁grew	-4346
▁male	-4347
▁rele	-4348
▁resc	-4349
▁stay	-4350
▁vari	-4351
INGTON	-4352
apital	-4353
estate	-4354
inking	-4355
luding	-4356
racies	-4357
▁Human	-4358
▁Libya	-4359
▁Meles	-4360
▁Nobel	-4361
▁Somal	-4362
▁absol	-4363
▁alloc	-4364
▁birth	-4365
▁carry	-4366
▁cross	-4367
▁donor	-4368
▁equip	-4369
▁numer	-4370
▁oblig	-4371
▁quant	-4372
▁round	-4373
▁shown	-4374
▁spect	-4375
▁stake	-4376
▁wages	-4377
▁white	-4378
MBRIDGE	-4379
country	-4380
hetoric	-4381
itative	-4382
ivalent	-4383
▁Berlin	-4384
▁Kerala	-4385
▁Spring	-4386
▁atmosp	-4387
▁curric	-4388
▁easily	-4389
▁fields	-4390
▁figure	-4391
▁instru	-4392
▁interp	-4393
▁owners	-4394
▁placed	-4395
▁pushed	-4396
▁select	-4397
▁suffer	-4398
▁trying	-4399
▁unique	-4400
▁Austral	-4401
▁Clinton	-4402
▁Foreign	-4403
▁Harvard	-4404
▁January	-4405
▁Murdoch	-4406
▁absence	-4407
▁affairs	-4408
▁anticip	-4409
▁complic	-4410
▁context	-4411
▁corrupt	-4412
▁creates	-4413
▁culture	-4414
▁decided	-4415
▁emerged	-4416
▁empower	-4417
▁exacerb	-4418
▁holding	-4419
▁journal	-4420
▁obesity	-4421
▁paradox	-4422
▁purpose	-4423
▁raising	-4424
▁revenue	-4425
▁started	-4426
▁trouble	-4427
▁usually	-4428
▁various	-4429
▁welcome	-4430
▁Security	-4431
▁Treasury	-4432
▁Yasukuni	-4433
▁accommod	-4434
▁although	-4435
▁billions	-4436
▁credible	-4437
▁downturn	-4438
▁entirely	-4439
▁involved	-4440
▁migrants	-4441
▁minority	-4442
▁occurred	-4443
▁ordinary	-4444
▁produced	-4445
▁promised	-4446
▁proposed	-4447
▁received	-4448
▁referend	-4449
▁scenario	-4450
▁suffered	-4451
▁unpreced	-4452
liferation	-4453
▁CAMBRIDGE	-4454
▁declining	-4455
▁deflation	-4456
▁dominated	-4457
▁enterpris	-4458
▁narrative	-4459
▁neighbors	-4460
▁objective	-4461
▁otherwise	-4462
▁remaining	-4463
▁shortfall	-4464
▁Investment	-4465
▁WASHINGTON	-4466
▁algorithms	-4467
▁approaches	-4468
▁atmosphere	-4469
▁diplomatic	-4470
▁everything	-4471
▁imbalances	-4472
▁immigrants	-4473
▁imperative	-4474
▁integrated	-4475
▁remarkable	-4476
▁structures	-4477
▁credibility	-4478
▁devaluation	-4479
▁implemented	-4480
▁arrangements	-4481
▁conservative	-4482
▁experiencing	-4483
▁successfully	-4484
▁transparency	-4485
▁unprecedented	-4486
GB	-4487
asc	-4488
bru	-4489
cri	-4490
ery	-4491
sen	-4492
udd	-4493
▁Im	-4494
▁Te	-4495
▁wa	-4496
ESCO	-4497
araj	-4498
ares	-4499
iant	-4500
indu	-4501
ires	-4502
mony	-4503
odox	-4504
raft	-4505
uses	-4506
utes	-4507
what	-4508
▁Act	-4509
▁Ass	-4510
▁Its	-4511
▁Nor	-4512
▁bub	-4513
▁bul	-4514
▁dro	-4515
▁hyp	-4516
▁tow	-4517
▁unt	-4518
ables	-4519
agers	-4520
banon	-4521
break	-4522
erted	-4523
gical	-4524
orial	-4525
pping	-4526
rexit	-4527
ridge	-4528
usion	-4529
works	-4530
▁Comp	-4531
▁Here	-4532
▁Prot	-4533
▁Sene	-4534
▁Sunn	-4535
▁Tanz	-4536
▁York	-4537
▁epid	-4538
▁evol	-4539
▁fire	-4540
▁kill	-4541
▁magn	-4542
▁phen	-4543
▁pool	-4544
▁qual	-4545
▁rely	-4546
▁soil	-4547
▁tele	-4548
▁tour	-4549
▁wars	-4550
▁wind	-4551
acific	-4552
bruary	-4553
crisis	-4554
ifying	-4555
overed	-4556
▁Gates	-4557
▁Greek	-4558
▁March	-4559
▁acute	-4560
▁aging	-4561
▁bonds	-4562
▁displ	-4563
▁faith	-4564
▁fewer	-4565
▁inequ	-4566
▁micro	-4567
▁ninet	-4568
▁optim	-4569
▁posed	-4570
▁ratio	-4571
▁separ	-4572
▁tried	-4573
aration	-4574
illegal	-4575
ruption	-4576
uilding	-4577
▁Beyond	-4578
▁Jewish	-4579
▁Policy	-4580
▁Reagan	-4581
▁Serbia	-4582
▁Summit	-4583
▁UNESCO	-4584
▁assume	-4585
▁attrib	-4586
▁buying	-4587
▁calcul	-4588
▁closed	-4589
▁closer	-4590
▁emerge	-4591
▁fallen	-4592
▁famous	-4593
▁hardly	-4594
▁impose	-4595
▁linked	-4596
▁mainly	-4597
▁mandar	-4598
▁marked	-4599
▁memory	-4600
▁multip	-4601
▁notion	-4602
▁rating	-4603
▁refuge	-4604
▁remitt	-4605
▁retain	-4606
▁search	-4607
▁stress	-4608
▁superv	-4609
▁warned	-4610
veraging	-4611
▁Eastern	-4612
▁Lebanon	-4613
▁Muslims	-4614
▁Senegal	-4615
▁causing	-4616
▁driving	-4617
▁falling	-4618
▁feature	-4619
▁figures	-4620
▁incomes	-4621
▁mistake	-4622
▁notably	-4623
▁numbers	-4624
▁pushing	-4625
▁realize	-4626
▁traject	-4627
intensive	-4628
▁February	-4629
▁Hamilton	-4630
▁Portugal	-4631
▁Tanzania	-4632
▁affected	-4633
▁allowing	-4634
▁annivers	-4635
▁believed	-4636
▁controls	-4637
▁forecast	-4638
▁includes	-4639
▁informal	-4640
▁phenomen	-4641
▁properly	-4642
▁rhetoric	-4643
▁severely	-4644
▁slowdown	-4645
▁supplies	-4646
▁weakness	-4647
▁Committee	-4648
▁coalition	-4649
▁convinced	-4650
▁cooperate	-4651
▁excessive	-4652
▁expensive	-4653
▁expertise	-4654
▁incentive	-4655
▁materials	-4656
▁ministers	-4657
▁permanent	-4658
▁principle	-4659
▁processes	-4660
▁transfers	-4661
▁Industrial	-4662
▁accelerate	-4663
▁capitalism	-4664
▁commercial	-4665
▁encouraged	-4666
▁frequently	-4667
▁inadequate	-4668
▁nineteenth	-4669
▁operations	-4670
▁priorities	-4671
▁proportion	-4672
▁resistance	-4673
▁unilateral	-4674
▁devastating	-4675
▁essentially	-4676
▁potentially	-4677
▁prohibition	-4678
▁threatening	-4679
▁Palestinians	-4680
▁contribution	-4681
▁professional	-4682
▁collaboration	-4683
▁establishment	-4684
▁constitutional	-4685
Ch	-4686
EM	-4687
hi	-4688
ka	-4689
la	-4690
aiw	-4691
cap	-4692
gen	-4693
imm	-4694
ios	-4695
let	-4696
mat	-4697
nty	-4698
occ	-4699
osn	-4700
pin	-4701
ugg	-4702
uns	-4703
zai	-4704
▁li	-4705
aily	-4706
ault	-4707
dden	-4708
eter	-4709
ocks	-4710
oyal	-4711
pass	-4712
priv	-4713
reci	-4714
resh	-4715
room	-4716
semb	-4717
sent	-4718
size	-4719
stit	-4720
▁Ale	-4721
▁Cam	-4722
▁Col	-4723
▁Spe	-4724
▁awa	-4725
▁dau	-4726
▁doz	-4727
▁ice	-4728
▁pen	-4729
▁sac	-4730
▁squ	-4731
▁wed	-4732
aiwan	-4733
alian	-4734
anish	-4735
antly	-4736
aucas	-4737
being	-4738
equal	-4739
erved	-4740
ether	-4741
ignty	-4742
lfare	-4743
party	-4744
ugust	-4745
ulate	-4746
using	-4747
which	-4748
▁AIIB	-4749
▁Balk	-4750
▁Bang	-4751
▁Gaza	-4752
▁Swed	-4753
▁base	-4754
▁cere	-4755
▁chem	-4756
▁exce	-4757
▁firm	-4758
▁foot	-4759
▁fost	-4760
▁gave	-4761
▁gone	-4762
▁hege	-4763
▁hero	-4764
▁insu	-4765
▁iron	-4766
▁mere	-4767
▁rout	-4768
▁scar	-4769
▁sell	-4770
▁wish	-4771
▁wond	-4772
ampion	-4773
atever	-4774
ervers	-4775
gation	-4776
iation	-4777
iction	-4778
minent	-4779
resent	-4780
▁Crime	-4781
▁Earth	-4782
▁Forum	-4783
▁Franc	-4784
▁Haiti	-4785
▁Royal	-4786
▁Sunni	-4787
▁aband	-4788
▁adapt	-4789
▁anger	-4790
▁asked	-4791
▁blame	-4792
▁cease	-4793
▁delib	-4794
▁drugs	-4795
▁femin	-4796
▁hours	-4797
▁leads	-4798
▁looks	-4799
▁recru	-4800
▁seeds	-4801
▁skept	-4802
▁unity	-4803
▁utter	-4804
▁waste	-4805
▁write	-4806
finance	-4807
rencies	-4808
▁Agenda	-4809
▁Amazon	-4810
▁Arabia	-4811
▁Karzai	-4812
▁People	-4813
▁Taiwan	-4814
▁aggreg	-4815
▁allows	-4816
▁basket	-4817
▁broken	-4818
▁chains	-4819
▁combat	-4820
▁costly	-4821
▁defend	-4822
▁depart	-4823
▁desire	-4824
▁divide	-4825
▁empire	-4826
▁estate	-4827
▁extend	-4828
▁legacy	-4829
▁method	-4830
▁option	-4831
▁places	-4832
▁preced	-4833
▁slight	-4834
▁surely	-4835
▁undert	-4836
▁urgent	-4837
ffective	-4838
▁Further	-4839
▁Italian	-4840
▁Program	-4841
▁Somalia	-4842
▁assumed	-4843
▁autonom	-4844
▁benefic	-4845
▁centers	-4846
▁disprop	-4847
▁divided	-4848
▁doctors	-4849
▁elderly	-4850
▁elected	-4851
▁fastest	-4852
▁liberty	-4853
▁mention	-4854
▁pension	-4855
▁pointed	-4856
▁threats	-4857
▁welfare	-4858
▁whereas	-4859
▁absolute	-4860
▁accounts	-4861
▁accurate	-4862
▁apparent	-4863
▁computer	-4864
▁decisive	-4865
▁delivery	-4866
▁enabling	-4867
▁examples	-4868
▁hundreds	-4869
▁mobilize	-4870
▁momentum	-4871
▁original	-4872
▁populist	-4873
▁presence	-4874
▁sacrific	-4875
▁shifting	-4876
▁somewhat	-4877
▁starting	-4878
▁surgical	-4879
▁surprise	-4880
▁survival	-4881
▁teachers	-4882
▁urgently	-4883
▁accounted	-4884
▁activists	-4885
▁demanding	-4886
▁diplomacy	-4887
▁expressed	-4888
▁extremely	-4889
▁mandarins	-4890
▁observers	-4891
▁opponents	-4892
▁purchases	-4893
▁reformers	-4894
▁resilient	-4895
▁seriously	-4896
▁currencies	-4897
▁determined	-4898
▁efficiency	-4899
▁equivalent	-4900
▁generating	-4901
▁maintained	-4902
▁reductions	-4903
▁referendum	-4904
▁volatility	-4905
▁constrained	-4906
▁regulations	-4907
▁availability	-4908
▁policymaking	-4909
▁requirements	-4910
▁temperatures	-4911
▁disproportion	-4912
▁relationships	-4913
▁understanding	-4914
▁transportation	-4915
EO	-4916
bt	-4917
gu	-4918
ux	-4919
GDP	-4920
cif	-4921
cks	-4922
ipe	-4923
nel	-4924
oly	-4925
ook	-4926
ugh	-4927
ums	-4928
▁CO	-4929
▁Pr	-4930
▁ST	-4931
aded	-4932
alle	-4933
bedo	-4934
efli	-4935
gent	-4936
iers	-4937
ifth	-4938
ingu	-4939
lish	-4940
olas	-4941
port	-4942
time	-4943
unis	-4944
uous	-4945
▁Aff	-4946
▁Dav	-4947
▁Edu	-4948
▁Mad	-4949
▁Man	-4950
▁Nak	-4951
▁Naz	-4952
▁Rom	-4953
▁She	-4954
▁anx	-4955
▁der	-4956
▁eru	-4957
▁fil	-4958
▁got	-4959
▁pla	-4960
▁shr	-4961
▁sun	-4962
▁unf	-4963
▁wid	-4964
acted	-4965
ading	-4966
ecess	-4967
endit	-4968
eting	-4969
etric	-4970
lines	-4971
oning	-4972
orrow	-4973
rable	-4974
right	-4975
uable	-4976
▁Bosn	-4977
▁Bout	-4978
▁Deal	-4979
▁Nove	-4980
▁Once	-4981
▁Plan	-4982
▁Will	-4983
▁aims	-4984
▁exam	-4985
▁exer	-4986
▁here	-4987
▁orth	-4988
▁pace	-4989
▁prem	-4990
▁rose	-4991
▁says	-4992
▁susp	-4993
▁type	-4994
accept	-4995
ailing	-4996
arctic	-4997
contro	-4998
eflika	-4999
ervice	-5000
establ	-5001
govern	-5002
holder	-5003
iances	-5004
ietnam	-5005
inding	-5006
ispens	-5007
lihood	-5008
oubted	-5009
sembly	-5010
▁Count	-5011
▁Every	-5012
▁Hamas	-5013
▁Niger	-5014
▁Tunis	-5015
▁Women	-5016
▁Youth	-5017
▁abund	-5018
▁alarm	-5019
▁apply	-5020
▁artic	-5021
▁aside	-5022
▁bombs	-5023
▁books	-5024
▁compe	-5025
▁daily	-5026
▁democ	-5027
▁enjoy	-5028
▁forth	-5029
▁gases	-5030
▁heard	-5031
▁ideal	-5032
▁manip	-5033
▁merit	-5034
▁moved	-5035
▁overs	-5036
▁patri	-5037
▁quite	-5038
▁refer	-5039
▁remov	-5040
▁shock	-5041
▁smart	-5042
▁speed	-5043
▁tempt	-5044
▁tough	-5045
▁truly	-5046
▁turns	-5047
aucasus	-5048
cession	-5049
growing	-5050
ogether	-5051
private	-5052
▁Across	-5053
▁August	-5054
▁Brexit	-5055
▁Rights	-5056
▁Senate	-5057
▁Social	-5058
▁acting	-5059
▁adding	-5060
▁choose	-5061
▁conven	-5062
▁crimes	-5063
▁desper	-5064
▁disarm	-5065
▁easing	-5066
▁friend	-5067
▁gather	-5068
▁geopol	-5069
▁infect	-5070
▁insist	-5071
▁mostly	-5072
▁mother	-5073
▁prefer	-5074
▁rarely	-5075
▁resort	-5076
▁retire	-5077
▁served	-5078
▁slowly	-5079
▁sudden	-5080
▁summer	-5081
▁unders	-5082
▁yields	-5083
European	-5084
iciently	-5085
iliation	-5086
irmative	-5087
▁Spanish	-5088
▁Twitter	-5089
▁adverse	-5090
▁choices	-5091
▁concent	-5092
▁cutting	-5093
▁dispute	-5094
▁embrace	-5095
▁expense	-5096
▁illegal	-5097
▁imposed	-5098
▁inflows	-5099
▁keeping	-5100
▁lasting	-5101
▁looking	-5102
▁malaria	-5103
▁mandate	-5104
▁network	-5105
▁payment	-5106
▁players	-5107
▁playing	-5108
▁profits	-5109
▁refused	-5110
▁restore	-5111
▁reverse	-5112
▁routine	-5113
▁selling	-5114
▁towards	-5115
▁village	-5116
diagnosis	-5117
ibilities	-5118
▁Caucasus	-5119
▁November	-5120
▁annually	-5121
▁anything	-5122
▁approved	-5123
▁audience	-5124
▁balanced	-5125
▁champion	-5126
▁contract	-5127
▁dialogue	-5128
▁disputes	-5129
▁expendit	-5130
▁identity	-5131
▁included	-5132
▁invested	-5133
▁meetings	-5134
▁networks	-5135
▁northern	-5136
▁opposite	-5137
▁orthodox	-5138
▁payments	-5139
▁possibly	-5140
▁practice	-5141
▁pursuing	-5142
▁revealed	-5143
▁slightly	-5144
▁taxation	-5145
▁valuable	-5146
ispensable	-5147
▁Antarctic	-5148
▁Australia	-5149
▁Christian	-5150
▁acknowled	-5151
▁diagnosis	-5152
▁discovery	-5153
▁generally	-5154
▁liquidity	-5155
▁mortgages	-5156
▁overwhelm	-5157
▁predecess	-5158
▁professor	-5159
▁providers	-5160
▁reinforce	-5161
▁secondary	-5162
▁unwilling	-5163
▁virtually	-5164
▁Bouteflika	-5165
▁assessment	-5166
▁background	-5167
▁candidates	-5168
▁concerning	-5169
▁deterrence	-5170
▁disappoint	-5171
▁discussion	-5172
▁facilitate	-5173
▁facilities	-5174
▁fertilizer	-5175
▁innovators	-5176
▁legitimate	-5177
▁negotiated	-5178
▁processing	-5179
▁regardless	-5180
▁resilience	-5181
▁surprising	-5182
▁withdrawal	-5183
▁coordinated	-5184
▁democracies	-5185
▁demonstrate	-5186
▁encouraging	-5187
▁importantly	-5188
▁improvement	-5189
▁instability	-5190
▁perspective	-5191
▁populations	-5192
▁remittances	-5193
▁sovereignty	-5194
▁undermining	-5195
▁compensation	-5196
▁conventional	-5197
▁improvements	-5198
▁insufficient	-5199
▁modification	-5200
▁strengthened	-5201
▁macroeconomic	-5202
▁recommendations	-5203
AD	-5204
AG	-5205
DR	-5206
IS	-5207
NP	-5208
af	-5209
ky	-5210
na	-5211
▁"	-5212
aws	-5213
dri	-5214
erg	-5215
hab	-5216
hic	-5217
oes	-5218
run	-5219
see	-5220
son	-5221
uty	-5222
yan	-5223
▁Mu	-5224
▁Os	-5225
▁Xi	-5226
▁dr	-5227
abwe	-5228
alin	-5229
ccer	-5230
hand	-5231
isan	-5232
llor	-5233
need	-5234
olly	-5235
phic	-5236
sych	-5237
ulum	-5238
umst	-5239
vent	-5240
view	-5241
▁CEO	-5242
▁Car	-5243
▁Cup	-5244
▁Far	-5245
▁Mer	-5246
▁Mor	-5247
▁Pri	-5248
▁Sin	-5249
▁Sud	-5250
▁Ter	-5251
▁bol	-5252
▁fel	-5253
▁gri	-5254
▁hor	-5255
▁lob	-5256
▁mit	-5257
▁sus	-5258
▁tom	-5259
▁tur	-5260
▁twe	-5261
added	-5262
ashed	-5263
asone	-5264
ffick	-5265
ghter	-5266
hetic	-5267
ician	-5268
icism	-5269
ifies	-5270
ijing	-5271
inded	-5272
ipped	-5273
lades	-5274
onent	-5275
oples	-5276
urers	-5277
▁Educ	-5278
▁Grow	-5279
▁Jews	-5280
▁Zimb	-5281
▁agro	-5282
▁alle	-5283
▁arch	-5284
▁aver	-5285
▁bill	-5286
▁born	-5287
▁dark	-5288
▁drop	-5289
▁emot	-5290
▁melt	-5291
▁ones	-5292
▁pact	-5293
▁phil	-5294
▁rail	-5295
▁shut	-5296
▁sort	-5297
▁spir	-5298
▁subs	-5299
▁tell	-5300
▁warm	-5301
Africa	-5302
angers	-5303
arters	-5304
elling	-5305
icated	-5306
icious	-5307
isions	-5308
itably	-5309
reness	-5310
rition	-5311
ultane	-5312
▁Ababa	-5313
▁Addis	-5314
▁Basel	-5315
▁Polit	-5316
▁Third	-5317
▁added	-5318
▁alike	-5319
▁altru	-5320
▁aspir	-5321
▁check	-5322
▁cover	-5323
▁crime	-5324
▁erupt	-5325
▁exact	-5326
▁guide	-5327
▁inher	-5328
▁input	-5329
▁intra	-5330
▁knows	-5331
▁links	-5332
▁lived	-5333
▁medic	-5334
▁monet	-5335
▁overh	-5336
▁plant	-5337
▁scand	-5338
▁schem	-5339
▁scope	-5340
▁seeks	-5341
▁seize	-5342
▁table	-5343
▁weeks	-5344
lements	-5345
reaking	-5346
ressing	-5347
▁Angola	-5348
▁Center	-5349
▁Crimea	-5350
▁Poland	-5351
▁Swaraj	-5352
▁Sweden	-5353
▁UNAIDS	-5354
▁absent	-5355
▁advert	-5356
▁albedo	-5357
▁appeal	-5358
▁aspect	-5359
▁assist	-5360
▁brutal	-5361
▁bubble	-5362
▁charge	-5363
▁conver	-5364
▁deploy	-5365
▁except	-5366
▁fourth	-5367
▁fueled	-5368
▁harder	-5369
▁obtain	-5370
▁opened	-5371
▁panels	-5372
▁resent	-5373
▁saying	-5374
▁senior	-5375
▁sexual	-5376
▁soccer	-5377
▁taught	-5378
▁taxpay	-5379
▁volunt	-5380
▁wanted	-5381
▁weight	-5382
atlantic	-5383
oubtedly	-5384
▁English	-5385
▁Nuclear	-5386
▁Vietnam	-5387
▁applied	-5388
▁artific	-5389
▁budgets	-5390
▁charged	-5391
▁cleaner	-5392
▁comfort	-5393
▁compris	-5394
▁consist	-5395
▁destroy	-5396
▁exploit	-5397
▁greatly	-5398
▁harvest	-5399
▁impover	-5400
▁linking	-5401
▁machine	-5402
▁mission	-5403
▁ongoing	-5404
▁operate	-5405
▁opposed	-5406
▁package	-5407
▁peoples	-5408
▁persist	-5409
▁proceed	-5410
▁regimes	-5411
▁renewed	-5412
▁setting	-5413
▁smaller	-5414
▁streets	-5415
▁subsequ	-5416
▁survive	-5417
▁trigger	-5418
▁unequal	-5419
▁version	-5420
▁visible	-5421
connected	-5422
▁Agricult	-5423
▁Business	-5424
▁Nakasone	-5425
▁Zimbabwe	-5426
▁approval	-5427
▁autonomy	-5428
▁circumst	-5429
▁colonial	-5430
▁financed	-5431
▁findings	-5432
▁globally	-5433
▁historic	-5434
▁humanity	-5435
▁identify	-5436
▁involves	-5437
▁managing	-5438
▁multiple	-5439
▁numerous	-5440
▁outbreak	-5441
▁patterns	-5442
▁platform	-5443
▁pressing	-5444
▁proposal	-5445
▁purchase	-5446
▁rational	-5447
▁software	-5448
▁standing	-5449
▁threaten	-5450
▁Banglades	-5451
▁aggregate	-5452
▁catastrop	-5453
▁customers	-5454
▁economist	-5455
▁equipment	-5456
▁explained	-5457
▁favorable	-5458
▁inclusion	-5459
▁isolation	-5460
▁mechanism	-5461
▁mortality	-5462
▁orthodoxy	-5463
▁ourselves	-5464
▁primarily	-5465
▁producing	-5466
▁regarding	-5467
▁similarly	-5468
▁statement	-5469
▁threatens	-5470
▁translate	-5471
▁Depression	-5472
▁Parliament	-5473
▁Revolution	-5474
▁beneficial	-5475
▁commission	-5476
▁compensate	-5477
▁components	-5478
▁controvers	-5479
▁extraordin	-5480
▁fragmented	-5481
▁impressive	-5482
▁interested	-5483
▁mainstream	-5484
▁membership	-5485
▁objectives	-5486
▁reflecting	-5487
▁supporting	-5488
▁trajectory	-5489
▁unemployed	-5490
▁Furthermore	-5491
▁Nonetheless	-5492
▁anniversary	-5493
▁commissions	-5494
▁frustration	-5495
▁immediately	-5496
▁participate	-5497
▁possibility	-5498
▁willingness	-5499
▁coordination	-5500
▁demonstrated	-5501
▁impoverished	-5502
▁authoritarian	-5503
▁contributions	-5504
▁effectiveness	-5505
▁unsustainable	-5506
▁implementation	-5507
CE	-5508
IT	-5509
OS	-5510
US	-5511
The	-5512
alt	-5513
bas	-5514
dec	-5515
eda	-5516
hag	-5517
itz	-5518
mar	-5519
oad	-5520
olf	-5521
tax	-5522
uck	-5523
uct	-5524
uit	-5525
ume	-5526
ymm	-5527
▁Me	-5528
▁ey	-5529
adow	-5530
cogn	-5531
coni	-5532
debt	-5533
empl	-5534
enry	-5535
face	-5536
free	-5537
iece	-5538
ihad	-5539
irac	-5540
mans	-5541
mbol	-5542
nedy	-5543
offs	-5544
otic	-5545
ourt	-5546
ques	-5547
real	-5548
resp	-5549
righ	-5550
rish	-5551
well	-5552
xide	-5553
zech	-5554
▁Ban	-5555
▁Bet	-5556
▁Big	-5557
▁Cyp	-5558
▁Her	-5559
▁Hol	-5560
▁Let	-5561
▁Nic	-5562
▁Red	-5563
▁Sup	-5564
▁Two	-5565
▁bon	-5566
▁bra	-5567
▁cop	-5568
▁ded	-5569
▁fan	-5570
▁gay	-5571
▁hot	-5572
▁mur	-5573
▁pet	-5574
▁quo	-5575
▁raw	-5576
▁sat	-5577
▁swe	-5578
China	-5579
abled	-5580
acing	-5581
agues	-5582
asing	-5583
asive	-5584
elect	-5585
enses	-5586
ernal	-5587
hemat	-5588
itect	-5589
licit	-5590
ocent	-5591
opoly	-5592
ounce	-5593
ourse	-5594
vered	-5595
▁Clos	-5596
▁Cont	-5597
▁Farm	-5598
▁Food	-5599
▁Free	-5600
▁Gulf	-5601
▁STEM	-5602
▁ball	-5603
▁cate	-5604
▁cogn	-5605
▁didn	-5606
▁died	-5607
▁fate	-5608
▁flex	-5609
▁fulf	-5610
▁gold	-5611
▁hike	-5612
▁hurt	-5613
▁irri	-5614
▁nets	-5615
▁pipe	-5616
▁pose	-5617
▁room	-5618
▁root	-5619
▁sole	-5620
▁symp	-5621
▁tact	-5622
▁text	-5623
▁tool	-5624
▁trem	-5625
▁unus	-5626
ceived	-5627
depend	-5628
driven	-5629
ection	-5630
eville	-5631
irical	-5632
ivered	-5633
lessly	-5634
minded	-5635
needed	-5636
ounded	-5637
urally	-5638
▁Czech	-5639
▁Never	-5640
▁Sudan	-5641
▁White	-5642
▁abuse	-5643
▁align	-5644
▁armed	-5645
▁asymm	-5646
▁bolst	-5647
▁drawn	-5648
▁embod	-5649
▁fails	-5650
▁foods	-5651
▁fresh	-5652
▁gives	-5653
▁helps	-5654
▁marri	-5655
▁minds	-5656
▁norms	-5657
▁polls	-5658
▁ready	-5659
▁repay	-5660
▁risky	-5661
▁south	-5662
▁spill	-5663
▁stall	-5664
▁twice	-5665
▁vehic	-5666
develop	-5667
dumping	-5668
erately	-5669
overing	-5670
parents	-5671
rategic	-5672
termine	-5673
theless	-5674
▁Chance	-5675
▁Depart	-5676
▁Master	-5677
▁Recent	-5678
▁Terror	-5679
▁absorb	-5680
▁advice	-5681
▁assert	-5682
▁brings	-5683
▁equity	-5684
▁escape	-5685
▁illust	-5686
▁injust	-5687
▁insurg	-5688
▁killed	-5689
▁leaves	-5690
▁missed	-5691
▁modest	-5692
▁namely	-5693
▁openly	-5694
▁oppose	-5695
▁plenty	-5696
▁poison	-5697
▁poorer	-5698
▁profit	-5699
▁scarce	-5700
▁sheets	-5701
▁viable	-5702
▁wonder	-5703
function	-5704
lessness	-5705
specific	-5706
▁Affairs	-5707
▁Beijing	-5708
▁Kennedy	-5709
▁Project	-5710
▁Whether	-5711
▁abandon	-5712
▁amounts	-5713
▁broadly	-5714
▁collaps	-5715
▁consult	-5716
▁decreas	-5717
▁element	-5718
▁enemies	-5719
▁enhance	-5720
▁ignored	-5721
▁intense	-5722
▁lenders	-5723
▁managed	-5724
▁possess	-5725
▁prepare	-5726
▁ratings	-5727
▁shaping	-5728
▁sharply	-5729
▁student	-5730
▁talking	-5731
▁tourism	-5732
▁trained	-5733
▁written	-5734
establish	-5735
▁Islamist	-5736
▁admitted	-5737
▁advances	-5738
▁boosting	-5739
▁convince	-5740
▁declined	-5741
▁distinct	-5742
▁entering	-5743
▁epidemic	-5744
▁extended	-5745
▁focusing	-5746
▁generous	-5747
▁informed	-5748
▁inherent	-5749
▁interven	-5750
▁limiting	-5751
▁lowering	-5752
▁managers	-5753
▁maximize	-5754
▁populism	-5755
▁publicly	-5756
▁realized	-5757
▁religion	-5758
▁shortage	-5759
▁steadily	-5760
▁tackling	-5761
▁targeted	-5762
▁tendency	-5763
▁tensions	-5764
▁tomorrow	-5765
▁traffick	-5766
▁unaccept	-5767
productive	-5768
▁Institute	-5769
▁alliances	-5770
▁architect	-5771
▁attitudes	-5772
▁awareness	-5773
▁ceasefire	-5774
▁centuries	-5775
▁concerned	-5776
▁concerted	-5777
▁delivered	-5778
▁described	-5779
▁determine	-5780
▁disappear	-5781
▁diversity	-5782
▁emergency	-5783
▁employees	-5784
▁fundament	-5785
▁hospitals	-5786
▁involving	-5787
▁landscape	-5788
▁lawmakers	-5789
▁motivated	-5790
▁obstacles	-5791
▁operating	-5792
▁positions	-5793
▁prevailed	-5794
▁prominent	-5795
▁provision	-5796
▁renewable	-5797
▁responses	-5798
▁simultane	-5799
▁taxpayers	-5800
▁territory	-5801
forestation	-5802
▁Convention	-5803
▁accounting	-5804
▁affordable	-5805
▁bureaucrat	-5806
▁consistent	-5807
▁criticized	-5808
▁dependence	-5809
▁depression	-5810
▁frameworks	-5811
▁liberation	-5812
▁perception	-5813
▁presidents	-5814
▁preventing	-5815
▁regulators	-5816
▁repression	-5817
▁resolution	-5818
▁sanitation	-5819
governmental	-5820
▁accordingly	-5821
▁accountable	-5822
▁catastrophe	-5823
▁centralized	-5824
▁contributed	-5825
▁disarmament	-5826
▁ideological	-5827
▁institution	-5828
▁nationalist	-5829
▁negotiating	-5830
▁neighboring	-5831
▁temperature	-5832
▁undoubtedly	-5833
▁alternatives	-5834
▁constitution	-5835
▁grandparents	-5836
▁implementing	-5837
▁implications	-5838
▁restrictions	-5839
▁circumstances	-5840
▁communication	-5841
▁extraordinary	-5842
▁professionals	-5843
▁strengthening	-5844
▁vulnerability	-5845
..	-5846
DA	-5847
ET	-5848
HI	-5849
HO	-5850
We	-5851
ps	-5852
va	-5853
vo	-5854
zb	-5855
aby	-5856
ala	-5857
alf	-5858
ami	-5859
bod	-5860
dro	-5861
eff	-5862
emb	-5863
ham	-5864
ift	-5865
ilk	-5866
isf	-5867
lad	-5868
ley	-5869
now	-5870
ped	-5871
rog	-5872
rud	-5873
sey	-5874
sts	-5875
vis	-5876
xic	-5877
▁El	-5878
▁Em	-5879
▁Gu	-5880
▁IT	-5881
▁PR	-5882
▁Sc	-5883
▁od	-5884
aden	-5885
aeda	-5886
amin	-5887
band	-5888
born	-5889
fare	-5890
gery	-5891
hery	-5892
hips	-5893
iest	-5894
imir	-5895
itor	-5896
long	-5897
lude	-5898
made	-5899
ocol	-5900
ocqu	-5901
oles	-5902
open	-5903
ords	-5904
pora	-5905
pple	-5906
pril	-5907
rans	-5908
reme	-5909
urch	-5910
▁ACA	-5911
▁Arm	-5912
▁CAP	-5913
▁Day	-5914
▁Dec	-5915
▁Dis	-5916
▁Equ	-5917
▁Ice	-5918
▁Imm	-5919
▁Kyi	-5920
▁Lar	-5921
▁Mod	-5922
▁Off	-5923
▁SDR	-5924
▁Suu	-5925
▁Tam	-5926
▁You	-5927
▁ang	-5928
▁bea	-5929
▁bid	-5930
▁bur	-5931
▁fru	-5932
▁inj	-5933
▁los	-5934
▁lux	-5935
▁mus	-5936
▁rid	-5937
▁tim	-5938
▁upd	-5939
▁upg	-5940
adays	-5941
aired	-5942
archy	-5943
arely	-5944
eless	-5945
enced	-5946
icate	-5947
idden	-5948
iling	-5949
itude	-5950
liers	-5951
ollah	-5952
ophob	-5953
orted	-5954
ounds	-5955
prime	-5956
ronts	-5957
style	-5958
ungry	-5959
unity	-5960
uting	-5961
▁Coop	-5962
▁Hezb	-5963
▁Hill	-5964
▁Iron	-5965
▁Lead	-5966
▁Much	-5967
▁NCDs	-5968
▁Road	-5969
▁Rudd	-5970
▁Sein	-5971
▁Vlad	-5972
▁Wall	-5973
▁Wang	-5974
▁ampl	-5975
▁bail	-5976
▁cart	-5977
▁code	-5978
▁curb	-5979
▁date	-5980
▁drag	-5981
▁earn	-5982
▁ease	-5983
▁erad	-5984
▁grav	-5985
▁hear	-5986
▁kept	-5987
▁none	-5988
▁pick	-5989
▁prag	-5990
▁quot	-5991
▁reap	-5992
▁roof	-5993
▁runs	-5994
▁sets	-5995
▁stif	-5996
▁sums	-5997
▁wage	-5998
▁wake	-5999
aspora	-6000
endous	-6001
energy	-6002
estern	-6003
growth	-6004
igrant	-6005
ioxide	-6006
orious	-6007
pected	-6008
redict	-6009
rights	-6010
thirds	-6011
uggish	-6012
urance	-6013
ureate	-6014
▁Abbas	-6015
▁Again	-6016
▁April	-6017
▁Chair	-6018
▁Court	-6019
▁Impro	-6020
▁Thein	-6021
▁Tocqu	-6022
▁Worse	-6023
▁categ	-6024
▁chair	-6025
▁coast	-6026
▁holds	-6027
▁logic	-6028
▁multi	-6029
▁perip	-6030
▁psych	-6031
▁ruled	-6032
▁simpl	-6033
▁staff	-6034
▁teach	-6035
▁troub	-6036
▁wider	-6037
General	-6038
gentina	-6039
lihoods	-6040
lusconi	-6041
ortions	-6042
raction	-6043
ultural	-6044
▁Chirac	-6045
▁Korean	-6046
▁Morocc	-6047
▁Nether	-6048
▁Public	-6049
▁Rather	-6050
▁School	-6051
▁applic	-6052
▁attend	-6053
▁cataly	-6054
▁consid	-6055
▁decide	-6056
▁define	-6057
▁denied	-6058
▁disast	-6059
▁ending	-6060
▁excell	-6061
▁fixing	-6062
▁floods	-6063
▁forget	-6064
▁houses	-6065
▁issued	-6066
▁losing	-6067
▁multin	-6068
▁paying	-6069
▁raises	-6070
▁relief	-6071
▁relies	-6072
▁rescue	-6073
▁specul	-6074
▁spring	-6075
▁symbol	-6076
▁tackle	-6077
▁underw	-6078
▁unions	-6079
▁uphold	-6080
▁upward	-6081
▁voices	-6082
▁voting	-6083
▁waters	-6084
▁weaker	-6085
cription	-6086
national	-6087
▁Capital	-6088
▁Constit	-6089
▁Environ	-6090
▁Germans	-6091
▁Indians	-6092
▁Nicolas	-6093
▁Tunisia	-6094
▁calling	-6095
▁cheaper	-6096
▁declare	-6097
▁ethical	-6098
▁exposed	-6099
▁focuses	-6100
▁fragile	-6101
▁imagine	-6102
▁joining	-6103
▁mindset	-6104
▁minimum	-6105
▁neglect	-6106
▁partial	-6107
▁pledged	-6108
▁pursuit	-6109
▁secular	-6110
▁someone	-6111
▁spectac	-6112
▁statist	-6113
▁treated	-6114
▁unknown	-6115
▁violent	-6116
▁wealthy	-6117
▁worried	-6118
Americans	-6119
▁Medicaid	-6120
▁Vladimir	-6121
▁accepted	-6122
▁accompan	-6123
▁actively	-6124
▁chemical	-6125
▁coherent	-6126
▁dominate	-6127
▁elements	-6128
▁enduring	-6129
▁exercise	-6130
▁explicit	-6131
▁failures	-6132
▁feminism	-6133
▁flooding	-6134
▁imperial	-6135
▁innocent	-6136
▁laureate	-6137
▁leverage	-6138
▁literacy	-6139
▁memories	-6140
▁mitigate	-6141
▁mobility	-6142
▁moderate	-6143
▁monopoly	-6144
▁released	-6145
▁returned	-6146
▁sluggish	-6147
▁teaching	-6148
▁underest	-6149
▁underpin	-6150
▁Argentina	-6151
▁Countries	-6152
▁Education	-6153
▁Hezbollah	-6154
▁Represent	-6155
▁affecting	-6156
▁civilians	-6157
▁cognitive	-6158
▁concluded	-6159
▁construct	-6160
▁depressed	-6161
▁diagnosed	-6162
▁diversify	-6163
▁dividends	-6164
▁emphasize	-6165
▁empirical	-6166
▁exclusive	-6167
▁expanding	-6168
▁exporters	-6169
▁guarantee	-6170
▁healthier	-6171
▁initially	-6172
▁integrate	-6173
▁interpret	-6174
▁oversight	-6175
▁populists	-6176
▁practical	-6177
▁processed	-6178
▁projected	-6179
▁reflected	-6180
▁sentiment	-6181
▁stabilize	-6182
▁succeeded	-6183
▁Bangladesh	-6184
▁Berlusconi	-6185
▁artificial	-6186
▁asymmetric	-6187
▁colleagues	-6188
▁curriculum	-6189
▁delivering	-6190
▁disruption	-6191
▁exacerbate	-6192
▁executives	-6193
▁extremists	-6194
▁identified	-6195
▁indicators	-6196
▁irrigation	-6197
▁meaningful	-6198
▁phenomenon	-6199
▁stagnation	-6200
▁telecommun	-6201
▁tremendous	-6202
▁undermined	-6203
▁violations	-6204
▁Netherlands	-6205
▁Tocqueville	-6206
▁affirmative	-6207
▁combination	-6208
▁destructive	-6209
▁enterprises	-6210
▁liabilities	-6211
▁livelihoods	-6212
▁nationalism	-6213
▁territorial	-6214
▁historically	-6215
▁independence	-6216
▁sufficiently	-6217
▁breakthroughs	-6218
▁characterized	-6219
▁collaborative	-6220
▁determination	-6221
▁indispensable	-6222
▁multinational	-6223
▁proliferation	-6224
▁administrative	-6225
▁representation	-6226
EP	-6227
Sh	-6228
Th	-6229
UN	-6230
ey	-6231
iu	-6232
sm	-6233
zh	-6234
abe	-6235
ads	-6236
ali	-6237
arn	-6238
bur	-6239
cla	-6240
del	-6241
ein	-6242
gia	-6243
hev	-6244
ife	-6245
kel	-6246
map	-6247
mpt	-6248
ocu	-6249
ori	-6250
rif	-6251
rue	-6252
sch	-6253
▁Us	-6254
adly	-6255
alog	-6256
aper	-6257
athy	-6258
awed	-6259
card	-6260
eled	-6261
emia	-6262
enom	-6263
eron	-6264
etic	-6265
feld	-6266
igor	-6267
ikes	-6268
iled	-6269
ilty	-6270
inst	-6271
kish	-6272
lict	-6273
math	-6274
moil	-6275
ocal	-6276
oked	-6277
rase	-6278
rete	-6279
rown	-6280
ruck	-6281
uber	-6282
ught	-6283
ults	-6284
unch	-6285
wood	-6286
▁BER	-6287
▁Ben	-6288
▁Bro	-6289
▁Cal	-6290
▁Cle	-6291
▁Cur	-6292
▁Def	-6293
▁Don	-6294
▁ICT	-6295
▁Inc	-6296
▁Job	-6297
▁Liu	-6298
▁Mat	-6299
▁Out	-6300
▁Reg	-6301
▁Rel	-6302
▁San	-6303
▁Sci	-6304
▁Too	-6305
▁Who	-6306
▁Yes	-6307
▁ben	-6308
▁bes	-6309
▁cab	-6310
▁die	-6311
▁dys	-6312
▁fal	-6313
▁hub	-6314
▁lag	-6315
▁mel	-6316
▁nav	-6317
▁saw	-6318
▁unb	-6319
ADRID	-6320
Japan	-6321
agger	-6322
cores	-6323
ected	-6324
ested	-6325
ifest	-6326
lande	-6327
mptom	-6328
okest	-6329
olera	-6330
orpor	-6331
osure	-6332
otics	-6333
ource	-6334
tling	-6335
▁Acad	-6336
▁Good	-6337
▁Hong	-6338
▁Kong	-6339
▁Mand	-6340
▁Marx	-6341
▁Next	-6342
▁Paul	-6343
▁Sino	-6344
▁True	-6345
▁aris	-6346
▁bust	-6347
▁cong	-6348
▁cool	-6349
▁dign	-6350
▁east	-6351
▁ends	-6352
▁film	-6353
▁forg	-6354
▁fort	-6355
▁gaps	-6356
▁gets	-6357
▁grim	-6358
▁heat	-6359
▁hier	-6360
▁irre	-6361
▁kick	-6362
▁lock	-6363
▁loom	-6364
▁ment	-6365
▁myth	-6366
▁nine	-6367
▁outd	-6368
▁outl	-6369
▁pref	-6370
▁reck	-6371
▁roll	-6372
▁sake	-6373
▁scal	-6374
▁seat	-6375
▁sons	-6376
▁spot	-6377
▁stor	-6378
▁tons	-6379
▁uses	-6380
▁wild	-6381
▁word	-6382
ashion	-6383
ewater	-6384
idents	-6385
ieties	-6386
istrib	-6387
itated	-6388
mitted	-6389
mother	-6390
nesses	-6391
onesia	-6392
rading	-6393
rators	-6394
recogn	-6395
rophic	-6396
tering	-6397
undera	-6398
urbing	-6399
▁Armen	-6400
▁David	-6401
▁Elect	-6402
▁Prize	-6403
▁Three	-6404
▁Water	-6405
▁accum	-6406
▁badly	-6407
▁chief	-6408
▁cycle	-6409
▁defin	-6410
▁dimin	-6411
▁eager	-6412
▁enlar	-6413
▁giant	-6414
▁harsh	-6415
▁heavy	-6416
▁hydro	-6417
▁imped	-6418
▁kinds	-6419
▁lacks	-6420
▁night	-6421
▁novel	-6422
▁overn	-6423
▁plays	-6424
▁quiet	-6425
▁rebal	-6426
▁risen	-6427
▁secur	-6428
▁sheet	-6429
▁spoke	-6430
▁surge	-6431
▁thres	-6432
▁trees	-6433
▁usual	-6434
▁voice	-6435
Pacific	-6436
comings	-6437
enomics	-6438
entions	-6439
ervices	-6440
induced	-6441
istence	-6442
mission	-6443
ologist	-6444
reciate	-6445
riendly	-6446
society	-6447
▁Bosnia	-6448
▁Cyprus	-6449
▁Malays	-6450
▁Merkel	-6451
▁Prince	-6452
▁Resear	-6453
▁Syrian	-6454
▁approx	-6455
▁argues	-6456
▁attain	-6457
▁backed	-6458
▁bigger	-6459
▁bright	-6460
▁circle	-6461
▁cooper	-6462
▁courts	-6463
▁flight	-6464
▁gained	-6465
▁guilty	-6466
▁hiring	-6467
▁incumb	-6468
▁joined	-6469
▁latter	-6470
▁legisl	-6471
▁lifest	-6472
▁listen	-6473
▁looked	-6474
▁metric	-6475
▁occurs	-6476
▁pestic	-6477
▁philos	-6478
▁presum	-6479
▁prompt	-6480
▁refuse	-6481
▁relent	-6482
▁retail	-6483
▁satisf	-6484
▁series	-6485
▁settle	-6486
▁shares	-6487
▁silent	-6488
▁slowed	-6489
▁strict	-6490
▁thanks	-6491
▁traged	-6492
▁tragic	-6493
▁united	-6494
▁writer	-6495
chnology	-6496
ervation	-6497
levision	-6498
okestack	-6499
ollywood	-6500
quarters	-6501
▁Against	-6502
▁Francis	-6503
▁Kundera	-6504
▁Morocco	-6505
▁Supreme	-6506
▁Through	-6507
▁Turkish	-6508
▁Whereas	-6509
▁ancient	-6510
▁arguing	-6511
▁binding	-6512
▁capture	-6513
▁claimed	-6514
▁college	-6515
▁concept	-6516
▁content	-6517
▁courage	-6518
▁details	-6519
▁disrupt	-6520
▁dissent	-6521
▁diverse	-6522
▁engaged	-6523
▁exactly	-6524
▁finding	-6525
▁immense	-6526
▁inherit	-6527
▁initial	-6528
▁inspire	-6529
▁intract	-6530
▁islands	-6531
▁missing	-6532
▁outlook	-6533
▁planned	-6534
▁ranging	-6535
▁regular	-6536
▁removed	-6537
▁reports	-6538
▁reserve	-6539
▁restric	-6540
▁scandal	-6541
▁serving	-6542
▁symptom	-6543
▁turmoil	-6544
▁underst	-6545
▁utility	-6546
▁variety	-6547
▁wedding	-6548
cifically	-6549
ederation	-6550
including	-6551
▁Assembly	-6552
▁Hollande	-6553
▁Northern	-6554
▁adopting	-6555
▁anywhere	-6556
▁believes	-6557
▁concrete	-6558
▁creative	-6559
▁discoura	-6560
▁dividend	-6561
▁dominant	-6562
▁emphasis	-6563
▁exposure	-6564
▁extremes	-6565
▁features	-6566
▁finances	-6567
▁frequent	-6568
▁imposing	-6569
▁imprison	-6570
▁indicate	-6571
▁instance	-6572
▁intended	-6573
▁invasion	-6574
▁mathemat	-6575
▁mortgage	-6576
▁mounting	-6577
▁neighbor	-6578
▁nowadays	-6579
▁observed	-6580
▁opinions	-6581
▁overlook	-6582
▁produces	-6583
▁reaction	-6584
▁regarded	-6585
▁replaced	-6586
▁resulted	-6587
▁reversed	-6588
▁soldiers	-6589
▁strongly	-6590
▁systemic	-6591
▁treaties	-6592
▁visiting	-6593
▁whatever	-6594
▁worrying	-6595
▁Democracy	-6596
▁Economics	-6597
▁Indonesia	-6598
▁Palestine	-6599
▁Political	-6600
▁aftermath	-6601
▁algorithm	-6602
▁arguments	-6603
▁attracted	-6604
▁borrowers	-6605
▁component	-6606
▁dictators	-6607
▁directors	-6608
▁discourse	-6609
▁equitable	-6610
▁exclusion	-6611
▁generated	-6612
▁injustice	-6613
▁intention	-6614
▁medicines	-6615
▁nutrition	-6616
▁organized	-6617
▁overnight	-6618
▁ownership	-6619
▁platforms	-6620
▁pressures	-6621
▁proposals	-6622
▁redistrib	-6623
▁successes	-6624
▁suggested	-6625
▁surpluses	-6626
▁threshold	-6627
▁workplace	-6628
▁Chancellor	-6629
▁Conference	-6630
▁Department	-6631
▁Developing	-6632
▁Mastercard	-6633
▁Protection	-6634
▁accessible	-6635
▁aggression	-6636
▁aggressive	-6637
▁apparently	-6638
▁assumption	-6639
▁compelling	-6640
▁expectancy	-6641
▁foundation	-6642
▁inevitably	-6643
▁infectious	-6644
▁insecurity	-6645
▁mobilizing	-6646
▁reasonable	-6647
▁reassuring	-6648
▁reinforced	-6649
▁resentment	-6650
▁solidarity	-6651
▁suggesting	-6652
withstanding	-6653
▁Cooperation	-6654
▁accompanied	-6655
▁arrangement	-6656
▁aspirations	-6657
▁competitors	-6658
▁consequence	-6659
▁dysfunction	-6660
▁enforcement	-6661
▁grandmother	-6662
▁inefficient	-6663
▁influential	-6664
▁interdepend	-6665
▁involvement	-6666
▁journalists	-6667
▁maintaining	-6668
▁nonetheless	-6669
▁operational	-6670
▁predictable	-6671
▁revolutions	-6672
▁statistical	-6673
▁transformed	-6674
▁underscores	-6675
▁architecture	-6676
▁capabilities	-6677
▁deleveraging	-6678
▁devaluations	-6679
▁economically	-6680
▁expectations	-6681
▁generational	-6682
▁geopolitical	-6683
▁humanitarian	-6684
▁instrumental	-6685
▁predecessors	-6686
▁shortcomings	-6687
▁surprisingly	-6688
▁unacceptable	-6689
▁urbanization	-6690
▁approximately	-6691
▁deforestation	-6692
▁revolutionary	-6693
▁traditionally	-6694
▁transatlantic	-6695
▁demonstrations	-6696
▁industrialized	-6697
▁interconnected	-6698
▁understandable	-6699
▁superconductors	-6700
AT	-6701
BA	-6702
BI	-6703
CP	-6704
EU	-6705
EY	-6706
NA	-6707
TA	-6708
eu	-6709
kj	-6710
oo	-6711
ta	-6712
▁&	-6713
▁‘	-6714
GBT	-6715
Ivo	-6716
KEL	-6717
Kin	-6718
New	-6719
ago	-6720
aug	-6721
dem	-6722
egu	-6723
ela	-6724
era	-6725
eth	-6726
fol	-6727
ips	-6728
iro	-6729
jud	-6730
ole	-6731
osc	-6732
oto	-6733
ply	-6734
rum	-6735
she	-6736
sum	-6737
uci	-6738
ude	-6739
yal	-6740
ykj	-6741
ôte	-6742
▁Ph	-6743
▁Sm	-6744
ador	-6745
ales	-6746
arks	-6747
asty	-6748
avik	-6749
bond	-6750
case	-6751
cile	-6752
cked	-6753
cost	-6754
drop	-6755
eing	-6756
elta	-6757
emed	-6758
emen	-6759
eted	-6760
ford	-6761
fuel	-6762
fund	-6763
gain	-6764
gers	-6765
gred	-6766
greg	-6767
happ	-6768
inal	-6769
izon	-6770
ores	-6771
owed	-6772
prof	-6773
rank	-6774
rees	-6775
rity	-6776
rous	-6777
ship	-6778
soft	-6779
such	-6780
turn	-6781
▁Adv	-6782
▁Age	-6783
▁Air	-6784
▁Are	-6785
▁Dar	-6786
▁Few	-6787
▁Ram	-6788
▁Sea	-6789
▁WHO	-6790
▁Xia	-6791
▁ast	-6792
▁cha	-6793
▁cyn	-6794
▁dog	-6795
▁dub	-6796
▁fro	-6797
▁hat	-6798
▁luc	-6799
▁mag	-6800
▁pil	-6801
▁pul	-6802
▁rig	-6803
▁sad	-6804
▁sem	-6805
▁vac	-6806
▁via	-6807
▁vit	-6808
▁wal	-6809
▁yes	-6810
KELEY	-6811
arted	-6812
backs	-6813
dered	-6814
endas	-6815
epend	-6816
eping	-6817
hagen	-6818
ilemm	-6819
inery	-6820
kesov	-6821
nting	-6822
opher	-6823
ordan	-6824
oston	-6825
owned	-6826
point	-6827
rible	-6828
rives	-6829
stems	-6830
trans	-6831
vable	-6832
yield	-6833
▁Alex	-6834
▁Ange	-6835
▁Camb	-6836
▁Cher	-6837
▁Côte	-6838
▁Emer	-6839
▁Enge	-6840
▁Fail	-6841
▁Hist	-6842
▁Hung	-6843
▁Kamp	-6844
▁Krem	-6845
▁Land	-6846
▁Mich	-6847
▁Mont	-6848
▁Sing	-6849
▁Stud	-6850
▁Wolf	-6851
▁Year	-6852
▁acts	-6853
▁arts	-6854
▁awak	-6855
▁baby	-6856
▁biod	-6857
▁boys	-6858
▁brib	-6859
▁clou	-6860
▁corn	-6861
▁coun	-6862
▁cycl	-6863
▁desp	-6864
▁docu	-6865
▁enth	-6866
▁evil	-6867
▁exit	-6868
▁felt	-6869
▁girl	-6870
▁gras	-6871
▁grid	-6872
▁guid	-6873
▁hell	-6874
▁hire	-6875
▁leak	-6876
▁loan	-6877
▁lobb	-6878
▁medi	-6879
▁mira	-6880
▁pict	-6881
▁pret	-6882
▁puts	-6883
▁rock	-6884
▁star	-6885
▁toug	-6886
▁trap	-6887
▁triv	-6888
▁turb	-6889
▁unle	-6890
▁unne	-6891
▁vary	-6892
▁vent	-6893
▁vice	-6894
Ivoire	-6895
Kinsey	-6896
acking	-6897
adjust	-6898
alling	-6899
arians	-6900
elines	-6901
erties	-6902
gments	-6903
imated	-6904
iments	-6905
liance	-6906
mentia	-6907
ptions	-6908
urable	-6909
▁Among	-6910
▁Board	-6911
▁Congo	-6912
▁Copen	-6913
▁Delta	-6914
▁Doing	-6915
▁Dream	-6916
▁Einst	-6917
▁Fried	-6918
▁Initi	-6919
▁Inter	-6920
▁James	-6921
▁Labor	-6922
▁Major	-6923
▁Power	-6924
▁Reykj	-6925
▁annex	-6926
▁blind	-6927
▁clout	-6928
▁conce	-6929
▁digit	-6930
▁disag	-6931
▁doorm	-6932
▁earth	-6933
▁elite	-6934
▁escal	-6935
▁facts	-6936
▁farms	-6937
▁finds	-6938
▁forge	-6939
▁grass	-6940
▁homes	-6941
▁honor	-6942
▁jihad	-6943
▁marry	-6944
▁match	-6945
▁moves	-6946
▁music	-6947
▁north	-6948
▁peers	-6949
▁phone	-6950
▁plumm	-6951
▁pride	-6952
▁print	-6953
▁react	-6954
▁rival	-6955
▁roads	-6956
▁sheer	-6957
▁signs	-6958
▁socio	-6959
▁tends	-6960
▁topic	-6961
▁toxic	-6962
▁train	-6963
▁trial	-6964
▁uncon	-6965
▁votes	-6966
▁worry	-6967
ariably	-6968
culosis	-6969
hancing	-6970
herence	-6971
igating	-6972
ilation	-6973
iration	-6974
largest	-6975
onomics	-6976
ophobia	-6977
quarter	-6978
roughts	-6979
service	-6980
verages	-6981
▁Balkan	-6982
▁Before	-6983
▁Boston	-6984
▁Carter	-6985
▁Growth	-6986
▁Jordan	-6987
▁Kenyan	-6988
▁MADRID	-6989
▁Others	-6990
▁Ronald	-6991
▁Scient	-6992
▁Stalin	-6993
▁Unless	-6994
▁advent	-6995
▁analog	-6996
▁barely	-6997
▁begins	-6998
▁blamed	-6999
▁bloody	-7000
▁bodies	-7001
▁counts	-7002
▁couple	-7003
▁cultiv	-7004
▁dearth	-7005
▁decent	-7006
▁defici	-7007
▁degrad	-7008
▁dispar	-7009
▁dispos	-7010
▁doctor	-7011
▁evolve	-7012
▁exchan	-7013
▁exclus	-7014
▁exists	-7015
▁explan	-7016
▁fellow	-7017
▁funded	-7018
▁grants	-7019
▁harmon	-7020
▁impair	-7021
▁ingred	-7022
▁letter	-7023
▁lifted	-7024
▁oldest	-7025
▁overse	-7026
▁permit	-7027
▁pledge	-7028
▁poorly	-7029
▁procla	-7030
▁proven	-7031
▁provin	-7032
▁racial	-7033
▁reconc	-7034
▁relied	-7035
▁remote	-7036
▁resemb	-7037
▁reveal	-7038
▁review	-7039
▁safegu	-7040
▁shaped	-7041
▁shocks	-7042
▁spirit	-7043
▁sports	-7044
▁steady	-7045
▁strife	-7046
▁string	-7047
▁struck	-7048
▁unrest	-7049
▁virtue	-7050
▁visits	-7051
▁wisdom	-7052
▁wishes	-7053
adjusted	-7054
arations	-7055
imension	-7056
olerance	-7057
oriented	-7058
▁Clearly	-7059
▁Closing	-7060
▁Confuci	-7061
▁Farmers	-7062
▁Hillary	-7063
▁Hungary	-7064
▁Iceland	-7065
▁Increas	-7066
▁Iranian	-7067
▁Kampala	-7068
▁Kremlin	-7069
▁Malaria	-7070
▁Mandela	-7071
▁Mexican	-7072
▁Neither	-7073
▁Summers	-7074
▁Wangari	-7075
▁accompl	-7076
▁acquire	-7077
▁agendas	-7078
▁alleged	-7079
▁assumes	-7080
▁backing	-7081
▁cabinet	-7082
▁carried	-7083
▁cartels	-7084
▁channel	-7085
▁charges	-7086
▁cholera	-7087
▁citizen	-7088
▁clients	-7089
▁compete	-7090
▁default	-7091
▁devices	-7092
▁devoted	-7093
▁distant	-7094
▁drivers	-7095
▁earning	-7096
▁enables	-7097
▁enacted	-7098
▁erupted	-7099
▁fallout	-7100
▁forests	-7101
▁fueling	-7102
▁granted	-7103
▁harmful	-7104
▁hostile	-7105
▁killing	-7106
▁lacking	-7107
▁logical	-7108
▁methods	-7109
▁metrics	-7110
▁outrage	-7111
▁painful	-7112
▁paradig	-7113
▁portfol	-7114
▁privile	-7115
▁prolong	-7116
▁pursued	-7117
▁richest	-7118
▁showing	-7119
▁strikes	-7120
▁tension	-7121
▁tragedy	-7122
▁trivial	-7123
▁unusual	-7124
▁utterly	-7125
▁waiting	-7126
▁warfare	-7127
ressional	-7128
ventional	-7129
▁Alliance	-7130
▁Atlantic	-7131
▁BERKELEY	-7132
▁Einstein	-7133
▁Israelis	-7134
▁Malaysia	-7135
▁McKinsey	-7136
▁Medicare	-7137
▁Research	-7138
▁academia	-7139
▁advocate	-7140
▁announce	-7141
▁appeared	-7142
▁arrested	-7143
▁attempts	-7144
▁attitude	-7145
▁blocking	-7146
▁breaking	-7147
▁damaging	-7148
▁daunting	-7149
▁deprived	-7150
▁destined	-7151
▁deterior	-7152
▁diaspora	-7153
▁disabled	-7154
▁distance	-7155
▁distingu	-7156
▁droughts	-7157
▁dynamics	-7158
▁engineer	-7159
▁explains	-7160
▁freedoms	-7161
▁governed	-7162
▁hegemony	-7163
▁imported	-7164
▁impunity	-7165
▁inaction	-7166
▁integral	-7167
▁manifest	-7168
▁marriage	-7169
▁meltdown	-7170
▁mistakes	-7171
▁occasion	-7172
▁packages	-7173
▁preserve	-7174
▁rainfall	-7175
▁reliable	-7176
▁reliance	-7177
▁remember	-7178
▁restored	-7179
▁separate	-7180
▁stranger	-7181
▁striking	-7182
▁suddenly	-7183
▁superior	-7184
▁terrible	-7185
▁troubled	-7186
▁underway	-7187
▁unnecess	-7188
▁upcoming	-7189
▁Abenomics	-7190
▁Algerians	-7191
▁Cambridge	-7192
▁Cherkesov	-7193
▁Islamists	-7194
▁Keynesian	-7195
▁Reykjavik	-7196
▁accepting	-7197
▁certainty	-7198
▁childhood	-7199
▁combating	-7200
▁competing	-7201
▁computers	-7202
▁condemned	-7203
▁confident	-7204
▁conscious	-7205
▁contained	-7206
▁creditors	-7207
▁dedicated	-7208
▁denounced	-7209
▁describes	-7210
▁discussed	-7211
▁divisions	-7212
▁dominance	-7213
▁emotional	-7214
▁gradually	-7215
▁graduates	-7216
▁happening	-7217
▁historian	-7218
▁inability	-7219
▁initiated	-7220
▁inspiring	-7221
▁introduce	-7222
▁literally	-7223
▁machinery	-7224
▁modernity	-7225
▁operation	-7226
▁patriarch	-7227
▁perceived	-7228
▁presented	-7229
▁receiving	-7230
▁recovered	-7231
▁rejection	-7232
▁requiring	-7233
▁resolving	-7234
▁sectarian	-7235
▁seemingly	-7236
▁stimulate	-7237
▁suppliers	-7238
▁weakening	-7239
development	-7240
uberculosis	-7241
▁Copenhagen	-7242
▁Government	-7243
▁Initiative	-7244
▁accurately	-7245
▁adjustment	-7246
▁collection	-7247
▁complexity	-7248
▁constitute	-7249
▁controlled	-7250
▁convincing	-7251
▁creativity	-7252
▁disturbing	-7253
▁ecological	-7254
▁experiment	-7255
▁guarantees	-7256
▁historians	-7257
▁insurgents	-7258
▁invariably	-7259
▁persistent	-7260
▁politician	-7261
▁popularity	-7262
▁prevention	-7263
▁prosperous	-7264
▁rainforest	-7265
▁retirement	-7266
▁securities	-7267
▁sustaining	-7268
▁television	-7269
▁understood	-7270
▁wastewater	-7271
▁Governments	-7272
▁algorithmic	-7273
▁approaching	-7274
▁consolidate	-7275
▁contributes	-7276
▁experiences	-7277
▁forthcoming	-7278
▁obligations	-7279
▁problematic	-7280
▁recognizing	-7281
▁supervision	-7282
▁territories	-7283
▁traffickers	-7284
▁transparent	-7285
▁vaccination	-7286
▁Constitution	-7287
▁Nevertheless	-7288
▁Specifically	-7289
▁Trumponomics	-7290
▁achievements	-7291
▁biodiversity	-7292
▁catastrophic	-7293
▁collectively	-7294
▁considerably	-7295
▁constructive	-7296
▁entrepreneur	-7297
▁fundamentals	-7298
▁overwhelming	-7299
▁participants	-7300
▁shareholders	-7301
▁totalitarian	-7302
▁transmission	-7303
▁accommodation	-7304
▁demonstrating	-7305
▁disappointing	-7306
▁dysfunctional	-7307
▁manufacturers	-7308
▁modernization	-7309
▁parliamentary	-7310
▁socioeconomic	-7311
▁communications	-7312
▁reconciliation	-7313
▁simultaneously	-7314
▁unconventional	-7315
▁fundamentalists	-7316
▁representatives	-7317
?”	-7318
AV	-7319
BU	-7320
CS	-7321
Es	-7322
IR	-7323
PP	-7324
RA	-7325
RC	-7326
WI	-7327
bs	-7328
fl	-7329
gs	-7330
ha	-7331
no	-7332
po	-7333
tw	-7334
yo	-7335
%),	-7336
CAO	-7337
FTA	-7338
HAN	-7339
aur	-7340
bra	-7341
def	-7342
dig	-7343
fur	-7344
gay	-7345
how	-7346
ien	-7347
inh	-7348
inz	-7349
isc	-7350
ius	-7351
kin	-7352
log	-7353
med	-7354
oha	-7355
oul	-7356
ppo	-7357
rey	-7358
sky	-7359
uba	-7360
uda	-7361
van	-7362
wed	-7363
zed	-7364
zen	-7365
▁BE	-7366
▁BP	-7367
▁BR	-7368
▁Ol	-7369
▁TV	-7370
▁Ur	-7371
ARIS	-7372
AVEN	-7373
Shia	-7374
achu	-7375
alem	-7376
anks	-7377
asks	-7378
awat	-7379
ball	-7380
body	-7381
book	-7382
cean	-7383
cend	-7384
cles	-7385
fold	-7386
ials	-7387
iche	-7388
icon	-7389
iety	-7390
ifts	-7391
ilib	-7392
imal	-7393
ione	-7394
itiv	-7395
ivot	-7396
lter	-7397
moon	-7398
nard	-7399
ogle	-7400
okyo	-7401
onor	-7402
ooth	-7403
orld	-7404
orse	-7405
pper	-7406
rack	-7407
radu	-7408
rand	-7409
rass	-7410
rick	-7411
rine	-7412
risy	-7413
rive	-7414
roll	-7415
rote	-7416
sels	-7417
step	-7418
teen	-7419
uity	-7420
▁Ann	-7421
▁Bel	-7422
▁BoJ	-7423
▁Del	-7424
▁Emp	-7425
▁Inf	-7426
▁Kim	-7427
▁Lag	-7428
▁Law	-7429
▁Lee	-7430
▁Mug	-7431
▁PCA	-7432
▁Pat	-7433
▁Sol	-7434
▁VAT	-7435
▁WWI	-7436
▁aug	-7437
▁bed	-7438
▁cod	-7439
▁cri	-7440
▁dry	-7441
▁fed	-7442
▁fun	-7443
▁geo	-7444
▁glo	-7445
▁hab	-7446
▁hed	-7447
▁hus	-7448
▁lad	-7449
▁lit	-7450
▁meg	-7451
▁ped	-7452
▁spl	-7453
▁sta	-7454
▁unm	-7455
after	-7456
ander	-7457
apers	-7458
apore	-7459
atism	-7460
chand	-7461
ciers	-7462
const	-7463
craft	-7464
early	-7465
eling	-7466
elong	-7467
ength	-7468
enter	-7469
euver	-7470
fired	-7471
front	-7472
gence	-7473
gered	-7474
iated	-7475
icing	-7476
ience	-7477
ierce	-7478
iforn	-7479
inter	-7480
istre	-7481
itage	-7482
itary	-7483
oking	-7484
oscow	-7485
ostic	-7486
othes	-7487
ouris	-7488
overs	-7489
owing	-7490
parts	-7491
perts	-7492
print	-7493
produ	-7494
rival	-7495
roots	-7496
secut	-7497
setts	-7498
trade	-7499
ullah	-7500
uracy	-7501
worth	-7502
▁Alas	-7503
▁Bill	-7504
▁Bret	-7505
▁Coal	-7506
▁Data	-7507
▁Doha	-7508
▁Each	-7509
▁Gand	-7510
▁ICAO	-7511
▁Jobs	-7512
▁LGBT	-7513
▁Left	-7514
▁Less	-7515
▁Mali	-7516
▁Mass	-7517
▁Maur	-7518
▁Muse	-7519
▁Path	-7520
▁Peru	-7521
▁Poor	-7522
▁Prom	-7523
▁Prov	-7524
▁Rich	-7525
▁Soci	-7526
▁Stat	-7527
▁Test	-7528
▁Vacc	-7529
▁Wood	-7530
▁aven	-7531
▁bloc	-7532
▁blow	-7533
▁bran	-7534
▁brid	-7535
▁cham	-7536
▁cope	-7537
▁crus	-7538
▁diet	-7539
▁door	-7540
▁elev	-7541
▁epic	-7542
▁epis	-7543
▁erod	-7544
▁eval	-7545
▁fade	-7546
▁fasc	-7547
▁fine	-7548
▁hect	-7549
▁heed	-7550
▁laid	-7551
▁lest	-7552
▁mild	-7553
▁mood	-7554
▁note	-7555
▁nurt	-7556
▁onto	-7557
▁perv	-7558
▁pill	-7559
▁prud	-7560
▁pull	-7561
▁rare	-7562
▁reci	-7563
▁sale	-7564
▁seas	-7565
▁suit	-7566
▁tail	-7567
▁tide	-7568
▁unex	-7569
▁unit	-7570
▁uphe	-7571
▁vind	-7572
▁wait	-7573
▁wife	-7574
▁wins	-7575
econom	-7576
engine	-7577
ictory	-7578
ighted	-7579
invest	-7580
issing	-7581
ivable	-7582
matism	-7583
ocrisy	-7584
panies	-7585
racted	-7586
rowley	-7587
school	-7588
siders	-7589
▁Assad	-7590
▁Black	-7591
▁Blair	-7592
▁Child	-7593
▁Engel	-7594
▁HAVEN	-7595
▁Irish	-7596
▁Large	-7597
▁PARIS	-7598
▁Peace	-7599
▁Qaeda	-7600
▁Sadly	-7601
▁Shinz	-7602
▁Tokyo	-7603
▁Young	-7604
▁advis	-7605
▁alien	-7606
▁apart	-7607
▁bills	-7608
▁breat	-7609
▁catch	-7610
▁clash	-7611
▁deleg	-7612
▁depth	-7613
▁dereg	-7614
▁dozen	-7615
▁drove	-7616
▁dwell	-7617
▁embar	-7618
▁enemy	-7619
▁fraud	-7620
▁grave	-7621
▁grows	-7622
▁guess	-7623
▁heads	-7624
▁inaug	-7625
▁loyal	-7626
▁midst	-7627
▁motor	-7628
▁noted	-7629
▁onset	-7630
▁ought	-7631
▁owned	-7632
▁panel	-7633
▁paper	-7634
▁pharm	-7635
▁pione	-7636
▁plaus	-7637
▁poses	-7638
▁recip	-7639
▁reput	-7640
▁revel	-7641
▁rises	-7642
▁route	-7643
▁saved	-7644
▁skill	-7645
▁slack	-7646
▁strid	-7647
▁teams	-7648
▁touch	-7649
▁towns	-7650
▁trump	-7651
▁types	-7652
▁tyran	-7653
▁unite	-7654
▁users	-7655
▁verge	-7656
▁voted	-7657
▁weigh	-7658
▁wheat	-7659
▁wrote	-7660
African	-7661
actions	-7662
alities	-7663
athetic	-7664
atories	-7665
control	-7666
embered	-7667
forward	-7668
ifornia	-7669
lfriend	-7670
ouncing	-7671
perform	-7672
product	-7673
ratives	-7674
reement	-7675
renched	-7676
support	-7677
tenance	-7678
version	-7679
▁Agency	-7680
▁Aleppo	-7681
▁Almost	-7682
▁Author	-7683
▁Change	-7684
▁Colomb	-7685
▁Crisis	-7686
▁Energy	-7687
▁Former	-7688
▁League	-7689
▁Madrid	-7690
▁Moscow	-7691
▁Mugabe	-7692
▁Should	-7693
▁Simply	-7694
▁Unlike	-7695
▁active	-7696
▁ambass	-7697
▁asking	-7698
▁behave	-7699
▁bought	-7700
▁bridge	-7701
▁deadly	-7702
▁deemed	-7703
▁dilemm	-7704
▁domain	-7705
▁dozens	-7706
▁dreams	-7707
▁driver	-7708
▁enthus	-7709
▁explos	-7710
▁feared	-7711
▁fierce	-7712
▁filled	-7713
▁flawed	-7714
▁fought	-7715
▁fronts	-7716
▁hatred	-7717
▁height	-7718
▁heroin	-7719
▁hidden	-7720
▁hungry	-7721
▁incarn	-7722
▁incite	-7723
▁indiff	-7724
▁inputs	-7725
▁inside	-7726
▁inward	-7727
▁island	-7728
▁jailed	-7729
▁judged	-7730
▁length	-7731
▁lowest	-7732
▁manner	-7733
▁paraly	-7734
▁plural	-7735
▁proced	-7736
▁punish	-7737
▁ranked	-7738
▁ratify	-7739
▁reluct	-7740
▁replic	-7741
▁repudi	-7742
▁richer	-7743
▁rolled	-7744
▁ruling	-7745
▁signal	-7746
▁smooth	-7747
▁sooner	-7748
▁stages	-7749
▁stance	-7750
▁stream	-7751
▁street	-7752
▁subtle	-7753
▁triump	-7754
▁unfair	-7755
▁unreal	-7756
▁versus	-7757
▁victim	-7758
▁volume	-7759
▁weaken	-7760
▁whites	-7761
▁worsen	-7762
building	-7763
chandise	-7764
financed	-7765
friendly	-7766
interest	-7767
learning	-7768
regional	-7769
resource	-7770
▁Already	-7771
▁Armenia	-7772
▁Balkans	-7773
▁Banking	-7774
▁Cameron	-7775
▁Defense	-7776
▁Economy	-7777
▁Equally	-7778
▁Failure	-7779
▁Georgia	-7780
▁Justice	-7781
▁Leaders	-7782
▁Liberal	-7783
▁Maistre	-7784
▁Maynard	-7785
▁Science	-7786
▁Similar	-7787
▁aggress	-7788
▁answers	-7789
▁anxiety	-7790
▁arrived	-7791
▁aspects	-7792
▁assault	-7793
▁avoided	-7794
▁bailout	-7795
▁brother	-7796
▁burdens	-7797
▁careers	-7798
▁careful	-7799
▁caution	-7800
▁chances	-7801
▁charter	-7802
▁cleanup	-7803
▁closing	-7804
▁compact	-7805
▁condemn	-7806
▁confirm	-7807
▁confron	-7808
▁contest	-7809
▁convers	-7810
▁covered	-7811
▁desired	-7812
▁destiny	-7813
▁dioxide	-7814
▁dismant	-7815
▁dropped	-7816
▁emulate	-7817
▁enabled	-7818
▁enlarge	-7819
▁ensuing	-7820
▁expects	-7821
▁express	-7822
▁favored	-7823
▁forcing	-7824
▁foresee	-7825
▁gaining	-7826
▁handful	-7827
▁hegemon	-7828
▁herself	-7829
▁husband	-7830
▁install	-7831
▁logging	-7832
▁melting	-7833
▁millenn	-7834
▁offices	-7835
▁paralle	-7836
▁passing	-7837
▁periods	-7838
▁picture	-7839
▁plaques	-7840
▁privacy	-7841
▁publish	-7842
▁refugee	-7843
▁restaur	-7844
▁rightly	-7845
▁schemes	-7846
▁shelter	-7847
▁shifted	-7848
▁sincere	-7849
▁soaring	-7850
▁stagger	-7851
▁stalled	-7852
▁stories	-7853
▁subsidi	-7854
▁suffers	-7855
▁surface	-7856
▁surgery	-7857
▁surpass	-7858
▁teacher	-7859
▁tougher	-7860
▁traders	-7861
▁turnout	-7862
▁urgency	-7863
▁vaccine	-7864
▁whoever	-7865
▁writing	-7866
achusetts	-7867
effective	-7868
efficient	-7869
icultural	-7870
imilation	-7871
istically	-7872
izational	-7873
okestacks	-7874
▁Emerging	-7875
▁Progress	-7876
▁Russians	-7877
▁Together	-7878
▁absentee	-7879
▁abundant	-7880
▁accuracy	-7881
▁activism	-7882
▁adoption	-7883
▁	-7884
e	-7885
t	-7886
a	-7887
i	-7888
n	-7889
o	-7890
r	-7891
s	-7892
l	-7893
h	-7894
c	-7895
d	-7896
u	-7897
m	-7898
p	-7899
f	-7900
g	-7901
y	-7902
w	-7903
b	-7904
,	-7905
v	-7906
.	-7907
k	-7908
A	-7909
T	-7910
-	-7911
I	-7912
’	-7913
S	-7914
x	-7915
0	-7916
B	-7917
C	-7918
E	-7919
U	-7920
–	-7921
z	-7922
1	-7923
M	-7924
P	-7925
W	-7926
2	-7927
D	-7928
j	-7929
q	-7930
N	-7931
F	-7932
G	-7933
O	-7934
R	-7935
“	-7936
”	-7937
H	-7938
9	-7939
J	-7940
5	-7941
K	-7942
%	-7943
(	-7944
)	-7945
L	-7946
3	-7947
:	-7948
;	-7949
8	-7950
6	-7951
7	-7952
4	-7953
$	-7954
Y	-7955
?	-7956
V	-7957
'	-7958
Z	-7959
"	-7960
/	-7961
&	-7962
Q	-7963
X	-7964
€	-7965
é	-7966
‘	-7967
á	-7968
!	-7969
à	-7970
ô	-7971
ç	-7972
[	-7973
]	-7974
£	-7975
¥	-7976
°	-7977
·	-7978
ε	-7979
—	-7980
+	-7981
ü	-7982
É	-7983
è	-7984
ê	-7985
ï	-7986
ö	-7987
#	-7988
`	-7989
ã	-7990
ó	-7991
ă	-7992
ć	-7993
š	-7994
ș	-7995
