<pad>	0
<unk>	0
<s>	0
</s>	0
▁t	-0
▁a	-1
in	-2
he	-3
re	-4
on	-5
▁the	-6
er	-7
at	-8
en	-9
▁c	-10
▁s	-11
an	-12
es	-13
or	-14
it	-15
▁w	-16
is	-17
▁o	-18
al	-19
▁p	-20
▁b	-21
▁f	-22
▁in	-23
ic	-24
ed	-25
▁to	-26
nd	-27
▁m	-28
ing	-29
ar	-30
▁of	-31
ion	-32
ro	-33
▁d	-34
ou	-35
▁and	-36
le	-37
ent	-38
▁th	-39
st	-40
▁e	-41
▁h	-42
▁re	-43
om	-44
▁n	-45
il	-46
ve	-47
▁A	-48
ly	-49
as	-50
▁be	-51
▁l	-52
▁g	-53
▁is	-54
▁T	-55
ct	-56
ut	-57
ol	-58
ation	-59
im	-60
▁that	-61
se	-62
ot	-63
ver	-64
ur	-65
ce	-66
▁for	-67
ad	-68
▁I	-69
▁de	-70
ld	-71
ies	-72
ment	-73
ig	-74
ow	-75
▁on	-76
id	-77
ill	-78
▁it	-79
tr	-80
et	-81
▁u	-82
ch	-83
▁The	-84
▁pro	-85
ir	-86
ul	-87
ate	-88
▁mo	-89
ra	-90
▁B	-91
▁are	-92
▁con	-93
ers	-94
op	-95
▁al	-96
est	-97
ith	-98
oun	-99
ity	-100
▁S	-101
▁as	-102
ort	-103
▁su	-104
▁ne	-105
ric	-106
▁st	-107
ess	-108
ay	-109
ge	-110
▁wh	-111
th	-112
▁C	-113
her	-114
▁an	-115
▁with	-116
▁–	-117
▁E	-118
ter	-119
pe	-120
ab	-121
ain	-122
ould	-123
▁ex	-124
con	-125
▁U	-126
▁r	-127
res	-128
▁not	-129
▁ha	-130
am	-131
▁we	-132
▁Af	-133
ive	-134
iv	-135
us	-136
ial	-137
▁com	-138
▁will	-139
if	-140
ke	-141
ust	-142
▁have	-143
▁y	-144
ist	-145
▁se	-146
▁has	-147
ac	-148
▁by	-149
▁wor	-150
▁W	-151
pp	-152
▁M	-153
and	-154
▁coun	-155
em	-156
conom	-157
▁sh	-158
▁le	-159
lo	-160
▁v	-161
▁Afric	-162
▁countr	-163
qu	-164
▁pol	-165
▁ch	-166
▁econom	-167
▁im	-168
um	-169
▁he	-170
▁en	-171
▁more	-172
un	-173
rom	-174
▁F	-175
oc	-176
iz	-177
igh	-178
▁go	-179
ome	-180
▁at	-181
ap	-182
ia	-183
ical	-184
▁from	-185
▁tr	-186
▁P	-187
ren	-188
art	-189
ant	-190
▁But	-191
▁their	-192
ure	-193
▁In	-194
ast	-195
▁can	-196
os	-197
▁imp	-198
▁G	-199
ore	-200
▁or	-201
▁un	-202
ong	-203
od	-204
row	-205
▁N	-206
uro	-207
ans	-208
ions	-209
ear	-210
mer	-211
▁countries	-212
ff	-213
▁“	-214
red	-215
ib	-216
▁was	-217
▁inc	-218
el	-219
▁its	-220
gh	-221
▁US	-222
▁res	-223
end	-224
all	-225
vel	-226
▁ag	-227
▁this	-228
▁than	-229
able	-230
ight	-231
ther	-232
▁Africa	-233
▁ab	-234
▁O	-235
▁int	-236
▁R	-237
ak	-238
▁D	-239
ect	-240
▁grow	-241
▁Th	-242
ance	-243
▁year	-244
reat	-245
▁ad	-246
urope	-247
cc	-248
act	-249
▁they	-250
▁world	-251
ult	-252
▁all	-253
▁j	-254
▁would	-255
du	-256
ous	-257
ip	-258
vern	-259
▁Europe	-260
▁man	-261
▁pe	-262
▁dis	-263
anc	-264
ational	-265
ud	-266
▁H	-267
ade	-268
out	-269
▁Ch	-270
ost	-271
ress	-272
bal	-273
pt	-274
ign	-275
▁do	-276
▁govern	-277
ary	-278
▁comp	-279
▁economic	-280
ie	-281
rou	-282
ven	-283
▁new	-284
▁but	-285
ations	-286
ated	-287
ich	-288
▁bec	-289
ard	-290
▁exp	-291
one	-292
our	-293
▁fin	-294
lobal	-295
meric	-296
ike	-297
▁polit	-298
▁part	-299
velop	-300
ark	-301
og	-302
lic	-303
ates	-304
▁need	-305
▁str	-306
ue	-307
ide	-308
▁pl	-309
▁which	-310
ms	-311
▁inv	-312
▁rec	-313
▁cont	-314
▁whe	-315
ack	-316
▁cr	-317
▁one	-318
▁Americ	-319
ments	-320
▁me	-321
ople	-322
for	-323
▁out	-324
tern	-325
ence	-326
▁been	-327
▁lead	-328
▁people	-329
▁growth	-330
▁Un	-331
ose	-332
ll	-333
▁polic	-334
▁global	-335
ag	-336
ub	-337
ors	-338
▁so	-339
▁Chin	-340
so	-341
ime	-342
age	-343
▁comm	-344
▁must	-345
▁J	-346
▁L	-347
▁dec	-348
▁other	-349
▁over	-350
▁reg	-351
ction	-352
▁also	-353
au	-354
ire	-355
ition	-356
▁develop	-357
ower	-358
ank	-359
▁ma	-360
▁und	-361
av	-362
pport	-363
▁K	-364
ile	-365
ree	-366
▁should	-367
ens	-368
ally	-369
reas	-370
▁invest	-371
▁eff	-372
ities	-373
▁As	-374
ism	-375
ility	-376
▁most	-377
▁work	-378
▁political	-379
ace	-380
▁per	-381
▁like	-382
▁only	-383
▁these	-384
are	-385
ert	-386
ine	-387
rent	-388
▁who	-389
ep	-390
▁It	-391
▁ind	-392
ord	-393
▁pr	-394
ian	-395
▁some	-396
▁about	-397
▁could	-398
ise	-399
▁no	-400
▁now	-401
▁years	-402
▁rem	-403
▁there	-404
ru	-405
▁po	-406
illion	-407
▁China	-408
▁many	-409
▁And	-410
▁bet	-411
▁sp	-412
▁chan	-413
▁acc	-414
▁mark	-415
▁were	-416
▁under	-417
fic	-418
very	-419
▁(	-420
uch	-421
alth	-422
▁Ind	-423
▁long	-424
▁This	-425
▁even	-426
▁increas	-427
ew	-428
ident	-429
uc	-430
▁up	-431
ious	-432
ited	-433
▁cons	-434
ach	-435
▁pre	-436
▁ar	-437
▁dem	-438
ble	-439
low	-440
▁qu	-441
▁far	-442
▁contin	-443
▁cl	-444
ause	-445
ces	-446
ublic	-447
▁policy	-448
ail	-449
amp	-450
eral	-451
ative	-452
▁financ	-453
▁soc	-454
▁em	-455
▁such	-456
▁tw	-457
ern	-458
lect	-459
▁them	-460
ild	-461
▁African	-462
old	-463
▁market	-464
ame	-465
ternational	-466
▁cur	-467
▁may	-468
▁government	-469
▁power	-470
ory	-471
▁how	-472
und	-473
▁sy	-474
▁time	-475
int	-476
▁app	-477
▁cap	-478
▁what	-479
arly	-480
▁his	-481
▁leaders	-482
per	-483
▁ra	-484
▁te	-485
▁produ	-486
▁k	-487
▁rel	-488
we	-489
ough	-490
ob	-491
ful	-492
form	-493
▁import	-494
fe	-495
▁country	-496
bt	-497
▁ro	-498
ital	-499
▁co	-500
▁if	-501
▁sc	-502
ons	-503
vers	-504
ution	-505
ics	-506
ger	-507
▁lar	-508
stem	-509
▁For	-510
▁cris	-511
▁just	-512
▁international	-513
▁into	-514
▁ta	-515
▁us	-516
▁inte	-517
pect	-518
▁any	-519
rough	-520
iet	-521
.”	-522
▁Y	-523
▁St	-524
▁much	-525
ind	-526
▁ac	-527
ient	-528
▁inf	-529
ating	-530
cy	-531
ish	-532
▁way	-533
▁proble	-534
▁system	-535
▁ow	-536
ives	-537
olog	-538
▁remain	-539
▁America	-540
cess	-541
▁ser	-542
ass	-543
ced	-544
resident	-545
▁financial	-546
gy	-547
own	-548
▁dif	-549
allen	-550
ok	-551
▁pos	-552
▁our	-553
imate	-554
▁less	-555
▁support	-556
ov	-557
▁act	-558
▁des	-559
▁two	-560
▁economy	-561
its	-562
ound	-563
▁fact	-564
▁trade	-565
▁public	-566
urn	-567
ization	-568
hip	-569
ize	-570
▁had	-571
▁prog	-572
▁when	-573
▁change	-574
lp	-575
ific	-576
ural	-577
ustr	-578
▁gen	-579
▁rep	-580
▁health	-581
▁because	-582
▁On	-583
read	-584
▁ter	-585
▁help	-586
▁well	-587
get	-588
▁fir	-589
▁youn	-590
ting	-591
▁ris	-592
▁those	-593
rest	-594
▁development	-595
ual	-596
ues	-597
vent	-598
▁prov	-599
ef	-600
ood	-601
uss	-602
▁crisis	-603
▁Tr	-604
▁fore	-605
▁real	-606
▁$	-607
ween	-608
▁trans	-609
▁Is	-610
ists	-611
▁mod	-612
▁United	-613
▁become	-614
▁challen	-615
ber	-616
▁Wh	-617
▁am	-618
▁bank	-619
uring	-620
▁great	-621
chn	-622
oth	-623
ible	-624
ump	-625
ject	-626
iness	-627
ase	-628
ite	-629
▁young	-630
eed	-631
ges	-632
ond	-633
opul	-634
▁right	-635
▁recent	-636
▁between	-637
day	-638
▁add	-639
▁end	-640
▁examp	-641
hed	-642
pec	-643
apan	-644
▁good	-645
▁again	-646
▁European	-647
▁important	-648
▁sol	-649
▁techn	-650
▁wom	-651
▁cost	-652
▁make	-653
▁Al	-654
▁sim	-655
▁sur	-656
▁war	-657
▁Japan	-658
▁national	-659
▁att	-660
▁own	-661
▁popul	-662
ks	-663
hen	-664
ten	-665
▁cent	-666
ict	-667
led	-668
▁current	-669
ount	-670
▁cle	-671
▁conf	-672
▁high	-673
ential	-674
eration	-675
▁example	-676
ied	-677
▁sec	-678
▁requ	-679
usiness	-680
ved	-681
orts	-682
stit	-683
▁investment	-684
not	-685
▁ob	-686
▁made	-687
▁appro	-688
▁impro	-689
ice	-690
sel	-691
pr	-692
iss	-693
▁EU	-694
▁tra	-695
unity	-696
▁That	-697
▁today	-698
ging	-699
round	-700
▁incl	-701
loy	-702
▁To	-703
iven	-704
ploy	-705
▁ben	-706
ption	-707
ized	-708
▁seem	-709
▁American	-710
als	-711
any	-712
key	-713
les	-714
▁kn	-715
ings	-716
▁sub	-717
▁debt	-718
▁both	-719
▁large	-720
itt	-721
▁ent	-722
▁off	-723
ivers	-724
▁while	-725
▁billion	-726
▁economies	-727
aw	-728
▁job	-729
ready	-730
▁fund	-731
▁result	-732
▁technolog	-733
▁governments	-734
gest	-735
▁too	-736
▁last	-737
▁child	-738
min	-739
▁bo	-740
▁br	-741
over	-742
▁More	-743
▁Russ	-744
▁redu	-745
▁interest	-746
▁If	-747
▁We	-748
ward	-749
▁back	-750
▁pric	-751
ram	-752
▁ed	-753
outh	-754
stru	-755
uture	-756
▁where	-757
▁effect	-758
▁partic	-759
▁region	-760
▁ass	-761
▁col	-762
ically	-763
▁short	-764
▁already	-765
▁business	-766
▁social	-767
ices	-768
ures	-769
▁mon	-770
▁disc	-771
ese	-772
ared	-773
ater	-774
utions	-775
▁women	-776
▁future	-777
king	-778
ning	-779
aking	-780
▁resp	-781
ability	-782
▁strong	-783
▁industr	-784
▁De	-785
▁educ	-786
▁often	-787
▁cannot	-788
xt	-789
ged	-790
ily	-791
jor	-792
arch	-793
ather	-794
▁does	-795
▁sect	-796
▁still	-797
▁capital	-798
fore	-799
ince	-800
▁use	-801
▁benef	-802
▁first	-803
▁Trump	-804
▁sa	-805
▁adv	-806
▁being	-807
▁against	-808
gan	-809
▁set	-810
▁hist	-811
▁sign	-812
▁every	-813
▁opport	-814
▁af	-815
▁bu	-816
ever	-817
ieve	-818
▁val	-819
▁cour	-820
▁prom	-821
▁demand	-822
rit	-823
▁lo	-824
ilit	-825
▁ref	-826
ingly	-827
▁West	-828
▁contr	-829
▁climate	-830
ts	-831
ty	-832
abor	-833
ately	-834
stain	-835
▁main	-836
▁state	-837
▁includ	-838
▁foreign	-839
▁sustain	-840
cal	-841
ergy	-842
▁cor	-843
▁iss	-844
ccess	-845
▁euro	-846
▁continent	-847
DP	-848
uth	-849
less	-850
▁pat	-851
▁They	-852
▁emer	-853
ertain	-854
▁major	-855
▁op	-856
uman	-857
ving	-858
ality	-859
▁conc	-860
▁product	-861
rat	-862
ents	-863
▁dep	-864
▁see	-865
▁know	-866
▁same	-867
▁after	-868
▁markets	-869
▁problem	-870
ays	-871
hing	-872
pecial	-873
li	-874
ran	-875
ants	-876
ouse	-877
urity	-878
▁President	-879
gr	-880
ivity	-881
▁might	-882
▁likely	-883
ID	-884
▁bel	-885
▁ord	-886
▁With	-887
▁take	-888
▁needs	-889
▁resour	-890
▁through	-891
ri	-892
ron	-893
▁He	-894
ades	-895
ually	-896
▁quest	-897
▁better	-898
▁success	-899
ves	-900
▁aff	-901
▁arg	-902
▁Se	-903
ably	-904
term	-905
ience	-906
other	-907
struct	-908
▁energy	-909
▁children	-910
▁sm	-911
ians	-912
ling	-913
▁bas	-914
▁cre	-915
▁inn	-916
▁ret	-917
▁move	-918
▁past	-919
ending	-920
mental	-921
▁diffe	-922
▁start	-923
▁States	-924
erm	-925
iew	-926
omm	-927
▁equ	-928
▁est	-929
▁fam	-930
▁few	-931
▁lif	-932
▁call	-933
▁cred	-934
▁level	-935
ior	-936
▁my	-937
here	-938
oney	-939
▁ach	-940
▁ext	-941
iving	-942
▁fail	-943
unities	-944
▁Indeed	-945
▁consum	-946
▁approach	-947
cond	-948
▁ann	-949
▁stud	-950
▁creat	-951
▁societ	-952
▁strate	-953
ral	-954
ined	-955
iron	-956
▁neg	-957
ision	-958
▁Germ	-959
▁dire	-960
▁down	-961
▁prot	-962
▁India	-963
▁elect	-964
▁human	-965
▁Russia	-966
ros	-967
hold	-968
▁def	-969
▁put	-970
▁farm	-971
▁rese	-972
▁turn	-973
ricult	-974
▁There	-975
▁course	-976
▁threat	-977
▁Moreover	-978
ft	-979
▁At	-980
▁gr	-981
ness	-982
▁her	-983
▁hig	-984
▁imm	-985
▁Afgh	-986
▁food	-987
▁milit	-988
▁stand	-989
▁access	-990
▁particul	-991
ars	-992
▁An	-993
rael	-994
▁mem	-995
▁tax	-996
ollow	-997
▁innov	-998
▁money	-999
▁Afghan	-1000
▁Israel	-1001
▁million	-1002
▁progress	-1003
idd	-1004
ocus	-1005
▁One	-1006
▁Wor	-1007
▁leg	-1008
stand	-1009
▁priv	-1010
pl	-1011
▁el	-1012
▁es	-1013
▁dom	-1014
▁ens	-1015
▁lib	-1016
▁vot	-1017
▁serv	-1018
▁trad	-1019
▁These	-1020
▁agree	-1021
▁decades	-1022
▁efforts	-1023
ah	-1024
igr	-1025
cing	-1026
ense	-1027
▁ide	-1028
istan	-1029
viron	-1030
▁infl	-1031
▁rate	-1032
▁exper	-1033
▁point	-1034
▁needed	-1035
▁address	-1036
▁improve	-1037
▁education	-1038
ross	-1039
▁old	-1040
▁pot	-1041
▁pers	-1042
▁focus	-1043
▁follow	-1044
▁process	-1045
rem	-1046
▁dr	-1047
▁defic	-1048
▁offic	-1049
ployment	-1050
▁ap	-1051
ines	-1052
▁low	-1053
ocrat	-1054
▁Bank	-1055
▁best	-1056
▁rest	-1057
▁labor	-1058
▁states	-1059
▁without	-1060
▁agricult	-1061
▁problems	-1062
▁challenges	-1063
ug	-1064
air	-1065
ien	-1066
imes	-1067
ivid	-1068
self	-1069
▁GDP	-1070
▁med	-1071
aving	-1072
▁play	-1073
▁pres	-1074
▁gener	-1075
▁peace	-1076
▁around	-1077
▁instit	-1078
▁growing	-1079
▁military	-1080
▁president	-1081
aly	-1082
oss	-1083
ted	-1084
ered	-1085
▁fis	-1086
▁key	-1087
▁care	-1088
▁decl	-1089
▁land	-1090
▁prof	-1091
▁suff	-1092
▁three	-1093
▁before	-1094
▁sector	-1095
▁environ	-1096
▁remains	-1097
▁policies	-1098
▁security	-1099
alf	-1100
gin	-1101
orm	-1102
▁So	-1103
▁Yet	-1104
▁mat	-1105
anies	-1106
▁next	-1107
▁poor	-1108
▁poss	-1109
▁very	-1110
▁Union	-1111
▁inter	-1112
▁resources	-1113
ph	-1114
ute	-1115
▁plan	-1116
▁role	-1117
▁supp	-1118
▁then	-1119
ficult	-1120
▁World	-1121
▁order	-1122
▁difficult	-1123
ex	-1124
com	-1125
ner	-1126
▁ins	-1127
▁min	-1128
▁case	-1129
▁banks	-1130
▁fiscal	-1131
▁potential	-1132
cl	-1133
ix	-1134
ror	-1135
uct	-1136
ying	-1137
▁did	-1138
▁find	-1139
▁happ	-1140
▁jobs	-1141
▁reas	-1142
▁view	-1143
▁rates	-1144
▁since	-1145
,”	-1146
ck	-1147
cho	-1148
ogn	-1149
come	-1150
ider	-1151
road	-1152
▁ele	-1153
ively	-1154
▁simp	-1155
▁expect	-1156
aps	-1157
ink	-1158
pid	-1159
▁Fr	-1160
▁ev	-1161
ases	-1162
vere	-1163
▁clo	-1164
▁eas	-1165
▁loc	-1166
akers	-1167
▁another	-1168
▁private	-1169
▁increase	-1170
▁companies	-1171
acy	-1172
rop	-1173
▁Ab	-1174
▁vi	-1175
ides	-1176
lear	-1177
most	-1178
ners	-1179
▁num	-1180
▁pur	-1181
▁run	-1182
▁you	-1183
iddle	-1184
▁come	-1185
▁crit	-1186
▁pros	-1187
▁show	-1188
ateral	-1189
▁action	-1190
▁Chinese	-1191
structure	-1192
▁question	-1193
ury	-1194
land	-1195
▁tal	-1196
▁yet	-1197
anced	-1198
izing	-1199
▁hard	-1200
▁clear	-1201
▁model	-1202
▁higher	-1203
ilateral	-1204
▁require	-1205
▁continue	-1206
▁research	-1207
▁challenge	-1208
▁community	-1209
IDS	-1210
ope	-1211
ends	-1212
osed	-1213
▁beh	-1214
▁don	-1215
▁fac	-1216
▁ine	-1217
▁pay	-1218
▁tar	-1219
ering	-1220
▁East	-1221
▁Iran	-1222
▁half	-1223
urther	-1224
▁After	-1225
▁South	-1226
▁costs	-1227
▁never	-1228
▁regul	-1229
itional	-1230
▁credit	-1231
▁benefits	-1232
ang	-1233
ued	-1234
▁By	-1235
▁Ob	-1236
▁Re	-1237
▁fe	-1238
ened	-1239
zone	-1240
▁fre	-1241
uthor	-1242
makers	-1243
▁ensure	-1244
▁concern	-1245
▁services	-1246
rastructure	-1247
ird	-1248
por	-1249
pite	-1250
▁big	-1251
▁she	-1252
ances	-1253
▁appe	-1254
▁prop	-1255
ention	-1256
▁means	-1257
▁compet	-1258
▁account	-1259
▁however	-1260
▁population	-1261
▁increasingly	-1262
arm	-1263
ata	-1264
iti	-1265
rab	-1266
▁bl	-1267
▁ful	-1268
▁law	-1269
▁lim	-1270
▁opp	-1271
▁why	-1272
chool	-1273
▁life	-1274
▁seems	-1275
▁treat	-1276
▁create	-1277
▁prices	-1278
▁project	-1279
▁including	-1280
te	-1281
arn	-1282
reen	-1283
▁Put	-1284
▁Tur	-1285
▁eng	-1286
▁home	-1287
▁lack	-1288
▁rise	-1289
▁risk	-1290
▁requi	-1291
▁integr	-1292
▁politics	-1293
▁Afghanistan	-1294
acc	-1295
arr	-1296
oti	-1297
akes	-1298
▁rev	-1299
vious	-1300
▁form	-1301
▁look	-1302
▁viol	-1303
lement	-1304
▁share	-1305
ibility	-1306
▁contro	-1307
▁though	-1308
▁infrastructure	-1309
).	-1310
ON	-1311
ick	-1312
▁av	-1313
bers	-1314
cept	-1315
tain	-1316
▁ago	-1317
ining	-1318
where	-1319
▁Arab	-1320
▁meas	-1321
▁weak	-1322
▁across	-1323
▁longer	-1324
▁negoti	-1325
▁recogn	-1326
▁rights	-1327
pecially	-1328
▁Western	-1329
▁conflic	-1330
▁protect	-1331
▁signific	-1332
ama	-1333
uel	-1334
▁UN	-1335
▁er	-1336
▁gu	-1337
chan	-1338
fact	-1339
istr	-1340
itive	-1341
▁slow	-1342
uclear	-1343
▁While	-1344
▁among	-1345
▁build	-1346
▁organ	-1347
▁itself	-1348
▁others	-1349
▁rather	-1350
▁reform	-1351
▁terror	-1352
▁systems	-1353
▁different	-1354
▁industrial	-1355
ale	-1356
▁sk	-1357
ency	-1358
▁bal	-1359
▁get	-1360
ators	-1361
ittle	-1362
▁What	-1363
▁When	-1364
▁data	-1365
▁gain	-1366
icient	-1367
itions	-1368
▁least	-1369
▁author	-1370
▁commit	-1371
▁greater	-1372
▁eurozone	-1373
▁official	-1374
▁productivity	-1375
ell	-1376
orth	-1377
ising	-1378
▁ever	-1379
▁face	-1380
ording	-1381
▁Putin	-1382
▁areas	-1383
▁simil	-1384
▁direct	-1385
▁income	-1386
▁society	-1387
▁emerging	-1388
▁relations	-1389
▁especially	-1390
▁understand	-1391
▁significant	-1392
ath	-1393
ban	-1394
ork	-1395
put	-1396
▁dev	-1397
▁non	-1398
▁Even	-1399
▁deep	-1400
▁meet	-1401
ession	-1402
▁bring	-1403
▁house	-1404
▁local	-1405
▁common	-1406
▁comple	-1407
▁histor	-1408
▁return	-1409
▁Develop	-1410
▁Germany	-1411
▁achieve	-1412
▁provide	-1413
▁spending	-1414
up	-1415
▁V	-1416
set	-1417
anda	-1418
imin	-1419
ocra	-1420
oint	-1421
reng	-1422
sequ	-1423
▁ric	-1424
▁free	-1425
▁mult	-1426
▁pred	-1427
▁used	-1428
idence	-1429
verage	-1430
agement	-1431
▁almost	-1432
▁little	-1433
▁central	-1434
▁certain	-1435
wh	-1436
ium	-1437
oll	-1438
ages	-1439
cent	-1440
haps	-1441
▁All	-1442
▁top	-1443
▁tot	-1444
estic	-1445
forms	-1446
ortun	-1447
ufact	-1448
▁Brit	-1449
▁cond	-1450
▁hand	-1451
▁alone	-1452
▁found	-1453
▁lives	-1454
▁press	-1455
▁rapid	-1456
▁during	-1457
▁streng	-1458
▁toward	-1459
▁further	-1460
▁liberal	-1461
▁serious	-1462
▁increased	-1463
▁leadership	-1464
▁opportunity	-1465
abl	-1466
ier	-1467
lam	-1468
ove	-1469
▁ur	-1470
ased	-1471
duct	-1472
ived	-1473
oura	-1474
roup	-1475
yond	-1476
▁Dem	-1477
▁cit	-1478
▁par	-1479
▁pra	-1480
▁ren	-1481
▁say	-1482
▁sug	-1483
▁vis	-1484
ening	-1485
tract	-1486
▁Some	-1487
▁camp	-1488
▁fast	-1489
▁ways	-1490
▁force	-1491
▁super	-1492
▁modern	-1493
▁reason	-1494
▁school	-1495
▁nuclear	-1496
▁respons	-1497
▁generation	-1498
▁sustainable	-1499
▁institutions	-1500
▁policymakers	-1501
arb	-1502
ret	-1503
ceed	-1504
iger	-1505
▁War	-1506
▁dou	-1507
▁led	-1508
▁AIDS	-1509
▁Niger	-1510
▁Obama	-1511
▁allow	-1512
▁given	-1513
▁group	-1514
▁necess	-1515
▁history	-1516
▁strateg	-1517
▁Africans	-1518
▁manufact	-1519
▁partners	-1520
ortunately	-1521
▁opportunities	-1522
ave	-1523
hes	-1524
ills	-1525
onal	-1526
rams	-1527
▁ess	-1528
rence	-1529
▁Comm	-1530
▁coop	-1531
▁sure	-1532
▁begin	-1533
▁event	-1534
▁France	-1535
▁Turkey	-1536
▁enough	-1537
▁second	-1538
▁struct	-1539
▁within	-1540
▁control	-1541
▁prevent	-1542
▁whether	-1543
▁workers	-1544
▁domestic	-1545
▁election	-1546
▁maintain	-1547
gn	-1548
ush	-1549
enda	-1550
ield	-1551
▁Pro	-1552
▁aid	-1553
▁hold	-1554
▁step	-1555
▁price	-1556
▁suggest	-1557
▁univers	-1558
▁technology	-1559
▁Of	-1560
▁ca	-1561
aign	-1562
atic	-1563
lain	-1564
▁Con	-1565
▁rul	-1566
▁unc	-1567
anger	-1568
ished	-1569
udget	-1570
▁able	-1571
▁cult	-1572
▁dist	-1573
▁mean	-1574
selves	-1575
▁Islam	-1576
▁citiz	-1577
▁early	-1578
▁initi	-1579
▁month	-1580
▁total	-1581
▁issues	-1582
▁target	-1583
▁believe	-1584
▁reflect	-1585
▁working	-1586
▁particularly	-1587
▁technologies	-1588
io	-1589
iod	-1590
ipl	-1591
▁sl	-1592
reak	-1593
rend	-1594
▁cut	-1595
▁enc	-1596
ently	-1597
▁char	-1598
▁coll	-1599
▁left	-1600
▁thus	-1601
▁entire	-1602
▁impact	-1603
▁wealth	-1604
▁campaign	-1605
▁programs	-1606
▁innovation	-1607
cr	-1608
ys	-1609
ins	-1610
ser	-1611
▁ph	-1612
ided	-1613
irst	-1614
ised	-1615
▁ant	-1616
▁mob	-1617
▁occ	-1618
etary	-1619
▁five	-1620
▁fuel	-1621
▁test	-1622
▁unem	-1623
atives	-1624
ission	-1625
▁reach	-1626
▁small	-1627
▁value	-1628
▁levels	-1629
▁number	-1630
▁rising	-1631
▁simply	-1632
▁contrib	-1633
▁reforms	-1634
▁similar	-1635
▁regional	-1636
yn	-1637
inc	-1638
uge	-1639
urd	-1640
▁Acc	-1641
▁Rep	-1642
▁air	-1643
ither	-1644
oment	-1645
verty	-1646
▁coal	-1647
▁each	-1648
▁fear	-1649
▁oper	-1650
▁want	-1651
gether	-1652
uation	-1653
▁issue	-1654
▁water	-1655
issions	-1656
▁Global	-1657
▁budget	-1658
▁curren	-1659
▁report	-1660
▁poverty	-1661
▁possible	-1662
▁together	-1663
▁attention	-1664
▁essential	-1665
▁developing	-1666
ai	-1667
ake	-1668
ead	-1669
ims	-1670
man	-1671
raq	-1672
way	-1673
▁ce	-1674
▁wr	-1675
ivil	-1676
▁Eth	-1677
▁deb	-1678
ature	-1679
▁Iraq	-1680
▁dise	-1681
▁fall	-1682
▁hope	-1683
▁post	-1684
▁rece	-1685
ocracy	-1686
▁broad	-1687
▁cause	-1688
▁place	-1689
illions	-1690
▁extrem	-1691
▁reduce	-1692
▁citizens	-1693
▁requires	-1694
▁investors	-1695
▁governance	-1696
▁Development	-1697
iop	-1698
iqu	-1699
▁la	-1700
edom	-1701
like	-1702
rate	-1703
▁Ken	-1704
▁Pol	-1705
▁him	-1706
▁spe	-1707
▁Such	-1708
▁else	-1709
▁open	-1710
though	-1711
▁fight	-1712
▁prior	-1713
▁times	-1714
ression	-1715
▁attack	-1716
▁establ	-1717
▁living	-1718
igration	-1719
▁Nigeria	-1720
▁consider	-1721
▁expected	-1722
▁implement	-1723
▁environmental	-1724
▁Go	-1725
▁ru	-1726
cies	-1727
iagn	-1728
ways	-1729
▁Fin	-1730
▁bor	-1731
▁che	-1732
▁fav	-1733
ister	-1734
ledge	-1735
▁bord	-1736
▁comb	-1737
▁inst	-1738
▁shif	-1739
▁true	-1740
inking	-1741
▁admin	-1742
ocratic	-1743
olution	-1744
▁Ethiop	-1745
▁annual	-1746
▁danger	-1747
▁inform	-1748
▁moment	-1749
▁period	-1750
▁repres	-1751
▁saving	-1752
▁consequ	-1753
▁created	-1754
▁largest	-1755
▁relative	-1756
▁violence	-1757
▁agreement	-1758
▁household	-1759
▁manufacturing	-1760
az	-1761
ler	-1762
rug	-1763
ards	-1764
oday	-1765
ront	-1766
▁net	-1767
acity	-1768
ified	-1769
▁dram	-1770
▁rich	-1771
▁vict	-1772
▁Today	-1773
▁civil	-1774
▁deter	-1775
▁funda	-1776
▁green	-1777
▁pract	-1778
▁sever	-1779
▁values	-1780
▁deficit	-1781
▁farmers	-1782
▁individ	-1783
▁recently	-1784
▁consumption	-1785
ec	-1786
ls	-1787
oh	-1788
▁ty	-1789
omet	-1790
onse	-1791
stra	-1792
then	-1793
wide	-1794
wise	-1795
▁New	-1796
▁abs	-1797
▁age	-1798
▁nor	-1799
▁sit	-1800
usion	-1801
▁adop	-1802
▁head	-1803
▁stat	-1804
ederal	-1805
▁becom	-1806
▁belie	-1807
▁risks	-1808
▁beyond	-1809
▁called	-1810
▁effort	-1811
▁Nations	-1812
▁century	-1813
▁effects	-1814
▁finance	-1815
▁prosper	-1816
▁powerful	-1817
▁developed	-1818
▁investments	-1819
▁agricultural	-1820
mm	-1821
oz	-1822
cer	-1823
ean	-1824
▁fl	-1825
iate	-1826
ival	-1827
ream	-1828
▁ten	-1829
arent	-1830
force	-1831
ients	-1832
▁Asia	-1833
▁caus	-1834
▁once	-1835
▁said	-1836
▁sour	-1837
▁assum	-1838
▁avail	-1839
▁influ	-1840
▁learn	-1841
▁lower	-1842
▁always	-1843
▁expand	-1844
▁export	-1845
▁family	-1846
▁making	-1847
▁voters	-1848
▁despite	-1849
▁encoura	-1850
▁freedom	-1851
▁Japanese	-1852
▁effective	-1853
▁inflation	-1854
▁interests	-1855
▁solutions	-1856
▁uncertain	-1857
▁individual	-1858
▁production	-1859
▁strengthen	-1860
▁themselves	-1861
ify	-1862
til	-1863
ahar	-1864
▁cho	-1865
▁del	-1866
▁dra	-1867
▁fra	-1868
▁tem	-1869
▁vul	-1870
arian	-1871
aring	-1872
ender	-1873
ories	-1874
▁Cong	-1875
▁deal	-1876
▁subs	-1877
ternal	-1878
▁estim	-1879
▁firms	-1880
▁oppos	-1881
▁sense	-1882
vention	-1883
▁affect	-1884
▁regard	-1885
▁severe	-1886
▁skills	-1887
▁average	-1888
▁balance	-1889
▁several	-1890
▁Republic	-1891
▁advanced	-1892
▁experien	-1893
▁response	-1894
▁successful	-1895
▁agriculture	-1896
CD	-1897
ash	-1898
ned	-1899
ton	-1900
▁cy	-1901
abil	-1902
ison	-1903
▁How	-1904
▁emb	-1905
▁oil	-1906
based	-1907
▁live	-1908
▁stop	-1909
icians	-1910
rought	-1911
▁whose	-1912
quality	-1913
▁agenda	-1914
▁former	-1915
▁nearly	-1916
▁scient	-1917
▁benefit	-1918
▁members	-1919
▁willing	-1920
▁strategy	-1921
▁According	-1922
▁Americans	-1923
▁administr	-1924
▁necessary	-1925
▁communities	-1926
▁traditional	-1927
▁unemployment	-1928
ee	-1929
osp	-1930
pan	-1931
ugg	-1932
▁Cl	-1933
▁NE	-1934
▁ke	-1935
ogra	-1936
▁aut	-1937
▁emp	-1938
epend	-1939
iding	-1940
rench	-1941
▁Kore	-1942
▁deli	-1943
▁disp	-1944
▁flow	-1945
▁lost	-1946
▁mind	-1947
▁prim	-1948
ensive	-1949
▁Alger	-1950
▁goods	-1951
▁invol	-1952
▁terms	-1953
conomic	-1954
▁unlike	-1955
▁constit	-1956
▁perform	-1957
▁perhaps	-1958
▁popular	-1959
▁predict	-1960
▁respect	-1961
▁conflict	-1962
▁measures	-1963
▁trillion	-1964
▁knowledge	-1965
▁particular	-1966
▁cooperation	-1967
),	-1968
br	-1969
ape	-1970
ets	-1971
tra	-1972
▁AI	-1973
▁Sh	-1974
▁Sy	-1975
care	-1976
imul	-1977
just	-1978
lood	-1979
ored	-1980
▁NEW	-1981
▁bad	-1982
▁cla	-1983
▁day	-1984
▁mor	-1985
aging	-1986
arbon	-1987
itted	-1988
lying	-1989
ordin	-1990
overy	-1991
▁Part	-1992
▁done	-1993
▁drug	-1994
▁fert	-1995
▁full	-1996
▁news	-1997
▁term	-1998
▁favor	-1999
▁ideas	-2000
▁ident	-2001
▁older	-2002
▁party	-2003
▁somet	-2004
▁surpr	-2005
▁trend	-2006
▁wrong	-2007
▁youth	-2008
utional	-2009
▁French	-2010
▁depend	-2011
▁incent	-2012
▁matter	-2013
▁things	-2014
▁vulner	-2015
▁explain	-2016
▁obvious	-2017
▁Ethiopia	-2018
▁capacity	-2019
▁monetary	-2020
▁position	-2021
▁currently	-2022
▁transform	-2023
ya	-2024
pro	-2025
rep	-2026
the	-2027
▁En	-2028
▁Pr	-2029
▁jo	-2030
adem	-2031
aged	-2032
head	-2033
ises	-2034
ming	-2035
nect	-2036
pped	-2037
trib	-2038
▁Now	-2039
▁ign	-2040
▁met	-2041
ences	-2042
ensus	-2043
ights	-2044
while	-2045
▁Many	-2046
▁four	-2047
▁huge	-2048
▁rele	-2049
▁seen	-2050
▁soon	-2051
▁word	-2052
itable	-2053
ograph	-2054
▁achie	-2055
▁clean	-2056
▁decis	-2057
▁demon	-2058
▁makes	-2059
▁decade	-2060
▁middle	-2061
▁promot	-2062
▁stimul	-2063
▁changes	-2064
▁constra	-2065
▁program	-2066
▁science	-2067
▁projects	-2068
▁employment	-2069
lf	-2070
to	-2071
ock	-2072
urs	-2073
▁Ag	-2074
ired	-2075
ters	-2076
uing	-2077
▁Pal	-2078
▁Unf	-2079
▁cat	-2080
▁vol	-2081
estin	-2082
incip	-2083
istic	-2084
▁mass	-2085
▁path	-2086
▁purs	-2087
▁spec	-2088
▁Italy	-2089
▁break	-2090
▁corru	-2091
▁gains	-2092
▁media	-2093
▁rules	-2094
iveness	-2095
▁behind	-2096
▁coming	-2097
▁corpor	-2098
▁forces	-2099
iversity	-2100
▁ability	-2101
▁largely	-2102
▁leading	-2103
▁nothing	-2104
▁special	-2105
ification	-2106
▁currency	-2107
▁decision	-2108
▁evidence	-2109
▁particip	-2110
▁stronger	-2111
▁experience	-2112
▁increasing	-2113
OR	-2114
be	-2115
ik	-2116
sw	-2117
loc	-2118
▁Ad	-2119
vest	-2120
▁Sim	-2121
▁dig	-2122
▁eth	-2123
▁gra	-2124
▁Cent	-2125
▁fram	-2126
▁rule	-2127
▁First	-2128
▁argue	-2129
▁close	-2130
▁quick	-2131
▁reven	-2132
vereign	-2133
▁Middle	-2134
▁accept	-2135
▁taking	-2136
▁attract	-2137
▁collect	-2138
▁demonst	-2139
▁exports	-2140
▁princip	-2141
▁quality	-2142
▁pressure	-2143
▁democracy	-2144
▁terrorism	-2145
▁environment	-2146
▁integration	-2147
▁relationship	-2148
▁Unfortunately	-2149
agn	-2150
ols	-2151
▁Ar	-2152
▁EC	-2153
▁Rw	-2154
▁sw	-2155
ched	-2156
erve	-2157
iter	-2158
line	-2159
▁agg	-2160
▁ask	-2161
▁opt	-2162
▁win	-2163
Sahar	-2164
arily	-2165
ially	-2166
iting	-2167
▁Cons	-2168
▁Coun	-2169
▁Like	-2170
▁answ	-2171
▁conv	-2172
▁kind	-2173
▁mere	-2174
▁prep	-2175
▁sing	-2176
ortion	-2177
▁legit	-2178
▁owing	-2179
▁story	-2180
Saharan	-2181
▁amount	-2182
▁borrow	-2183
▁leader	-2184
▁really	-2185
▁regime	-2186
izations	-2187
▁banking	-2188
▁complex	-2189
▁discuss	-2190
▁funding	-2191
▁Congress	-2192
▁compared	-2193
▁deficits	-2194
▁students	-2195
▁emissions	-2196
▁sovereign	-2197
▁prosperity	-2198
▁fundamental	-2199
%,	-2200
cil	-2201
ony	-2202
ozy	-2203
reg	-2204
use	-2205
aken	-2206
▁Mus	-2207
▁Per	-2208
▁hun	-2209
▁rat	-2210
alled	-2211
atory	-2212
ented	-2213
▁anti	-2214
▁doll	-2215
▁feel	-2216
▁vacc	-2217
arkozy	-2218
change	-2219
ctions	-2220
lation	-2221
ocrats	-2222
▁Other	-2223
▁based	-2224
▁class	-2225
▁divid	-2226
▁famil	-2227
▁third	-2228
▁twent	-2229
▁Rwanda	-2230
▁afford	-2231
▁crises	-2232
▁expert	-2233
▁output	-2234
▁transp	-2235
▁extreme	-2236
▁produce	-2237
▁improved	-2238
▁millions	-2239
▁positive	-2240
▁solution	-2241
▁available	-2242
▁certainly	-2243
▁elsewhere	-2244
▁financing	-2245
▁recession	-2246
▁businesses	-2247
▁commitment	-2248
▁conditions	-2249
▁performance	-2250
▁politicians	-2251
▁consequences	-2252
mb	-2253
ox	-2254
aud	-2255
omb	-2256
tru	-2257
▁Ma	-2258
cise	-2259
down	-2260
itud	-2261
olar	-2262
side	-2263
ynam	-2264
▁Sen	-2265
▁Sub	-2266
▁Syr	-2267
▁amb	-2268
▁fri	-2269
▁gir	-2270
aster	-2271
comes	-2272
owers	-2273
verse	-2274
▁Most	-2275
▁goal	-2276
▁laun	-2277
▁plac	-2278
▁sett	-2279
ressed	-2280
ternet	-2281
▁activ	-2282
▁along	-2283
▁boost	-2284
▁relig	-2285
▁renew	-2286
▁thing	-2287
ception	-2288
imately	-2289
istance	-2290
▁Indian	-2291
▁employ	-2292
▁groups	-2293
▁indeed	-2294
▁object	-2295
▁single	-2296
▁subsid	-2297
▁Sarkozy	-2298
▁forward	-2299
▁Internet	-2300
▁cultural	-2301
▁industry	-2302
▁movement	-2303
▁outcomes	-2304
▁establish	-2305
▁officials	-2306
▁societies	-2307
▁stability	-2308
▁standards	-2309
▁management	-2310
▁administration	-2311
of	-2312
dom	-2313
gal	-2314
icy	-2315
orn	-2316
▁No	-2317
▁Or	-2318
▁Sp	-2319
▁ge	-2320
augh	-2321
ites	-2322
▁ECB	-2323
▁May	-2324
▁Res	-2325
▁Sec	-2326
▁Tal	-2327
▁lat	-2328
▁mer	-2329
▁red	-2330
▁san	-2331
▁suc	-2332
lling	-2333
oviet	-2334
▁Mean	-2335
▁boom	-2336
▁easy	-2337
▁excl	-2338
▁give	-2339
▁pass	-2340
▁prob	-2341
▁Korea	-2342
▁Spain	-2343
▁cases	-2344
▁comes	-2345
▁diagn	-2346
▁doing	-2347
▁dynam	-2348
▁funds	-2349
▁later	-2350
▁parts	-2351
▁sound	-2352
▁subst	-2353
▁think	-2354
▁truth	-2355
▁woman	-2356
▁worse	-2357
itarian	-2358
▁academ	-2359
▁critic	-2360
▁debate	-2361
▁donors	-2362
atically	-2363
▁Britain	-2364
▁Russian	-2365
▁sectors	-2366
▁succeed	-2367
▁contrast	-2368
▁electric	-2369
▁majority	-2370
▁Meanwhile	-2371
▁bilateral	-2372
▁elections	-2373
▁transition	-2374
▁organizations	-2375
%.	-2376
app	-2377
erb	-2378
omp	-2379
ots	-2380
ott	-2381
▁Be	-2382
▁ut	-2383
aves	-2384
ctor	-2385
mark	-2386
ured	-2387
uted	-2388
▁Des	-2389
▁dam	-2390
▁ear	-2391
▁fix	-2392
▁mid	-2393
arter	-2394
ember	-2395
ended	-2396
▁Musl	-2397
▁bond	-2398
▁cruc	-2399
▁held	-2400
▁keep	-2401
▁lose	-2402
▁save	-2403
▁wide	-2404
iation	-2405
ormous	-2406
ustain	-2407
▁above	-2408
▁ahead	-2409
▁analy	-2410
▁began	-2411
▁death	-2412
▁domin	-2413
▁exist	-2414
▁rural	-2415
▁Second	-2416
▁Soviet	-2417
▁altern	-2418
▁argued	-2419
▁framew	-2420
▁member	-2421
▁powers	-2422
▁seemed	-2423
▁supply	-2424
▁vision	-2425
▁clearly	-2426
▁deliver	-2427
▁reality	-2428
▁Palestin	-2429
▁enormous	-2430
▁families	-2431
▁thinking	-2432
▁beginning	-2433
▁situation	-2434
▁strategic	-2435
▁historical	-2436
▁industries	-2437
▁vulnerable	-2438
▁authorities	-2439
▁information	-2440
▁negotiations	-2441
▁responsibility	-2442
IN	-2443
go	-2444
kn	-2445
oy	-2446
ORK	-2447
att	-2448
auc	-2449
equ	-2450
erv	-2451
gor	-2452
han	-2453
hib	-2454
rel	-2455
▁Le	-2456
▁ul	-2457
empt	-2458
erty	-2459
fall	-2460
iban	-2461
part	-2462
rain	-2463
rist	-2464
vant	-2465
▁Abe	-2466
▁Bar	-2467
▁Can	-2468
▁Net	-2469
▁div	-2470
▁era	-2471
▁ill	-2472
▁mis	-2473
▁mot	-2474
▁unp	-2475
▁urg	-2476
ached	-2477
onald	-2478
▁Only	-2479
▁YORK	-2480
▁cand	-2481
▁name	-2482
▁opin	-2483
▁poll	-2484
▁rein	-2485
▁repl	-2486
▁worr	-2487
Americ	-2488
gorith	-2489
▁doubt	-2490
▁enter	-2491
▁indic	-2492
▁scale	-2493
▁study	-2494
▁taken	-2495
igrants	-2496
▁events	-2497
▁gender	-2498
▁lesson	-2499
▁source	-2500
▁Algeria	-2501
▁Central	-2502
▁Despite	-2503
▁Finally	-2504
▁Taliban	-2505
▁borders	-2506
▁disease	-2507
▁factors	-2508
▁limited	-2509
▁regions	-2510
▁seeking	-2511
▁becoming	-2512
▁exchange	-2513
▁previous	-2514
▁prospect	-2515
▁Europeans	-2516
▁continues	-2517
▁worldwide	-2518
▁multilateral	-2519
AT	-2520
ev	-2521
▁Z	-2522
fer	-2523
het	-2524
lin	-2525
mit	-2526
xim	-2527
▁Ne	-2528
▁Ug	-2529
▁di	-2530
▁hy	-2531
crib	-2532
omen	-2533
rodu	-2534
unic	-2535
▁Fed	-2536
▁Min	-2537
▁Not	-2538
▁aim	-2539
▁mar	-2540
iplom	-2541
order	-2542
usive	-2543
▁Gree	-2544
▁argu	-2545
▁city	-2546
▁link	-2547
▁list	-2548
▁loss	-2549
▁norm	-2550
ashing	-2551
ipolar	-2552
▁House	-2553
▁cheap	-2554
▁flows	-2555
▁heart	-2556
▁imbal	-2557
▁shift	-2558
▁whole	-2559
▁words	-2560
ressive	-2561
unction	-2562
▁German	-2563
▁answer	-2564
▁cancer	-2565
▁candid	-2566
▁design	-2567
▁helped	-2568
▁highly	-2569
▁strugg	-2570
ological	-2571
▁British	-2572
▁Islamic	-2573
▁crucial	-2574
▁decline	-2575
▁protest	-2576
▁restric	-2577
▁Although	-2578
▁competit	-2579
▁products	-2580
▁Democrats	-2581
▁represent	-2582
▁incentives	-2583
▁inequality	-2584
▁partnership	-2585
▁dramatically	-2586
▁globalization	-2587
▁technological	-2588
DB	-2589
DG	-2590
IV	-2591
ma	-2592
ny	-2593
elt	-2594
irt	-2595
▁CA	-2596
▁Ge	-2597
▁Sw	-2598
▁fr	-2599
▁ve	-2600
ange	-2601
exic	-2602
gypt	-2603
hest	-2604
ille	-2605
ique	-2606
lier	-2607
ourn	-2608
▁Gen	-2609
▁Lib	-2610
▁Our	-2611
▁arm	-2612
▁fig	-2613
▁won	-2614
antic	-2615
light	-2616
▁King	-2617
▁book	-2618
▁cele	-2619
▁inev	-2620
▁miss	-2621
▁mist	-2622
▁repe	-2623
called	-2624
income	-2625
making	-2626
rences	-2627
▁Egypt	-2628
▁Simil	-2629
▁State	-2630
▁Syria	-2631
▁basis	-2632
▁claim	-2633
▁drive	-2634
▁frequ	-2635
▁goals	-2636
▁going	-2637
▁grand	-2638
▁liter	-2639
▁mater	-2640
▁offer	-2641
▁raise	-2642
▁shows	-2643
conduct	-2644
▁Christ	-2645
▁Donald	-2646
▁chance	-2647
▁factor	-2648
▁imposs	-2649
▁months	-2650
▁biggest	-2651
▁counter	-2652
▁federal	-2653
▁focused	-2654
▁introdu	-2655
▁lessons	-2656
▁parties	-2657
▁promise	-2658
▁quickly	-2659
▁rapidly	-2660
▁respond	-2661
▁results	-2662
▁Minister	-2663
▁patients	-2664
▁stimulus	-2665
▁conflicts	-2666
▁direction	-2667
▁influence	-2668
▁questions	-2669
▁opposition	-2670
▁structural	-2671
▁universities	-2672
▁International	-2673
MF	-2674
aj	-2675
bi	-2676
de	-2677
aid	-2678
cul	-2679
enn	-2680
▁Co	-2681
arry	-2682
hood	-2683
ighb	-2684
igin	-2685
lies	-2686
osov	-2687
work	-2688
▁HIV	-2689
▁IMF	-2690
▁art	-2691
▁nat	-2692
▁six	-2693
▁typ	-2694
▁ult	-2695
▁var	-2696
iated	-2697
thing	-2698
third	-2699
ustom	-2700
▁Comp	-2701
▁away	-2702
▁clos	-2703
▁frag	-2704
▁heav	-2705
▁mess	-2706
▁self	-2707
▁trou	-2708
ancing	-2709
arents	-2710
ension	-2711
istics	-2712
retary	-2713
▁Kosov	-2714
▁Mexic	-2715
▁Their	-2716
▁basic	-2717
▁behav	-2718
▁black	-2719
▁explo	-2720
▁immed	-2721
▁loans	-2722
▁mobil	-2723
▁resol	-2724
▁solar	-2725
▁surve	-2726
▁union	-2727
▁until	-2728
▁urban	-2729
▁vital	-2730
account	-2731
ptember	-2732
▁Uganda	-2733
▁became	-2734
▁failed	-2735
▁faster	-2736
▁happen	-2737
▁planet	-2738
▁record	-2739
▁secure	-2740
▁simple	-2741
▁appears	-2742
▁attacks	-2743
▁coordin	-2744
▁include	-2745
▁massive	-2746
▁primary	-2747
▁reached	-2748
▁reduced	-2749
▁returns	-2750
▁studies	-2751
▁thought	-2752
▁victory	-2753
▁Economic	-2754
▁algorith	-2755
▁concerns	-2756
▁creation	-2757
▁demonstr	-2758
▁everyone	-2759
▁material	-2760
▁probably	-2761
▁recovery	-2762
▁unlikely	-2763
ustainable	-2764
▁fertility	-2765
▁corruption	-2766
▁economists	-2767
▁everywhere	-2768
▁impossible	-2769
▁electricity	-2770
▁initiatives	-2771
▁presidential	-2772
sp	-2773
ze	-2774
DGs	-2775
RID	-2776
ees	-2777
off	-2778
ohn	-2779
uly	-2780
umb	-2781
val	-2782
▁My	-2783
ague	-2784
hers	-2785
lder	-2786
osis	-2787
▁Mon	-2788
▁Par	-2789
▁bar	-2790
▁cir	-2791
▁fem	-2792
▁hop	-2793
▁let	-2794
▁men	-2795
▁nar	-2796
▁pan	-2797
acter	-2798
aries	-2799
▁From	-2800
▁Fund	-2801
▁John	-2802
▁batt	-2803
▁dest	-2804
▁kill	-2805
▁late	-2806
▁mort	-2807
▁pain	-2808
▁side	-2809
▁told	-2810
▁weap	-2811
▁writ	-2812
▁Great	-2813
▁North	-2814
▁Party	-2815
▁Since	-2816
▁flood	-2817
▁immun	-2818
▁imper	-2819
▁meant	-2820
▁occur	-2821
▁poore	-2822
▁sides	-2823
▁yield	-2824
ination	-2825
▁Kosovo	-2826
▁advant	-2827
▁carbon	-2828
▁forest	-2829
▁neighb	-2830
▁origin	-2831
ependent	-2832
ographic	-2833
▁distrib	-2834
▁legitim	-2835
▁receive	-2836
abilities	-2837
▁actually	-2838
▁directly	-2839
▁greatest	-2840
▁reducing	-2841
▁resource	-2842
▁training	-2843
▁September	-2844
▁economics	-2845
▁improving	-2846
▁practices	-2847
▁something	-2848
▁treatment	-2849
▁agreements	-2850
▁households	-2851
▁sufficient	-2852
▁superconduct	-2853
GE	-2854
wn	-2855
ask	-2856
iff	-2857
men	-2858
ris	-2859
ung	-2860
▁Am	-2861
▁II	-2862
▁Tw	-2863
alia	-2864
ator	-2865
grow	-2866
hana	-2867
hens	-2868
look	-2869
plus	-2870
rene	-2871
ring	-2872
▁NCD	-2873
▁Non	-2874
▁ban	-2875
▁cal	-2876
▁den	-2877
▁mut	-2878
▁sex	-2879
▁uns	-2880
celer	-2881
erate	-2882
ffect	-2883
osing	-2884
ossil	-2885
ottom	-2886
ought	-2887
range	-2888
rimin	-2889
▁Bush	-2890
▁Last	-2891
▁circ	-2892
▁harm	-2893
▁hous	-2894
▁mand	-2895
▁seek	-2896
▁soft	-2897
▁surv	-2898
▁talk	-2899
▁virt	-2900
▁vote	-2901
action	-2902
istent	-2903
▁Asian	-2904
▁Ghana	-2905
▁Given	-2906
▁Kenya	-2907
▁accur	-2908
▁assoc	-2909
▁below	-2910
▁field	-2911
▁fully	-2912
▁known	-2913
▁light	-2914
▁maxim	-2915
▁minim	-2916
▁minor	-2917
▁opium	-2918
▁resil	-2919
▁rough	-2920
▁serve	-2921
▁solid	-2922
▁visit	-2923
▁Barack	-2924
▁Govern	-2925
▁anyone	-2926
▁commod	-2927
▁damage	-2928
▁diplom	-2929
▁forced	-2930
▁ground	-2931
▁having	-2932
▁hunger	-2933
▁larger	-2934
▁partly	-2935
▁prohib	-2936
▁proved	-2937
▁shared	-2938
▁status	-2939
▁territ	-2940
▁useful	-2941
▁widely	-2942
▁adopted	-2943
▁arrange	-2944
▁depends	-2945
▁digital	-2946
▁discipl	-2947
▁drought	-2948
▁failure	-2949
▁friends	-2950
▁outcome	-2951
▁surplus	-2952
▁behavior	-2953
▁changing	-2954
▁collabor	-2955
▁consumer	-2956
▁external	-2957
▁followed	-2958
▁profound	-2959
▁substant	-2960
▁corporate	-2961
▁estimated	-2962
▁framework	-2963
▁migration	-2964
▁recognize	-2965
▁inevitable	-2966
▁profession	-2967
▁revolution	-2968
▁scientific	-2969
▁strategies	-2970
▁ultimately	-2971
▁Palestinian	-2972
▁developments	-2973
by	-2974
co	-2975
ne	-2976
DON	-2977
ING	-2978
fet	-2979
fin	-2980
gun	-2981
oid	-2982
ola	-2983
sec	-2984
sis	-2985
ubl	-2986
▁aw	-2987
acle	-2988
▁His	-2989
▁LON	-2990
▁Nav	-2991
▁Pak	-2992
▁jud	-2993
▁log	-2994
▁pus	-2995
▁sav	-2996
▁wee	-2997
ailed	-2998
iency	-2999
iment	-3000
minbi	-3001
oring	-3002
unist	-3003
▁Geor	-3004
▁burd	-3005
▁crop	-3006
▁game	-3007
▁grad	-3008
▁insp	-3009
▁line	-3010
▁safe	-3011
▁shap	-3012
▁shar	-3013
▁spur	-3014
▁tend	-3015
▁took	-3016
▁your	-3017
aching	-3018
itical	-3019
lantic	-3020
ounced	-3021
▁advoc	-3022
▁colle	-3023
▁debts	-3024
▁deval	-3025
▁journ	-3026
▁moral	-3027
▁obser	-3028
▁recon	-3029
▁space	-3030
▁tools	-3031
▁using	-3032
▁wants	-3033
▁works	-3034
reprene	-3035
▁LONDON	-3036
▁accord	-3037
▁belief	-3038
▁excess	-3039
▁facing	-3040
▁latest	-3041
▁margin	-3042
▁merely	-3043
▁models	-3044
▁moving	-3045
▁police	-3046
▁spread	-3047
▁theory	-3048
▁travel	-3049
▁Kingdom	-3050
▁Without	-3051
▁company	-3052
▁connect	-3053
▁demands	-3054
▁dynamic	-3055
▁imports	-3056
▁meaning	-3057
▁meeting	-3058
▁neither	-3059
▁overall	-3060
▁reasons	-3061
▁turning	-3062
▁warming	-3063
▁Pakistan	-3064
▁creating	-3065
▁determin	-3066
▁diseases	-3067
▁disorder	-3068
▁generate	-3069
▁personal	-3070
▁suggests	-3071
▁undermin	-3072
▁Secretary	-3073
▁advantage	-3074
▁character	-3075
▁committed	-3076
▁consensus	-3077
▁consumers	-3078
▁decisions	-3079
▁discrimin	-3080
▁efficient	-3081
▁increases	-3082
▁pollution	-3083
▁reduction	-3084
▁religious	-3085
▁suffering	-3086
▁therefore	-3087
▁Commission	-3088
▁additional	-3089
▁collective	-3090
▁confidence	-3091
▁democratic	-3092
▁initiative	-3093
▁Fortunately	-3094
▁uncertainty	-3095
▁liberalization	-3096
AC	-3097
AR	-3098
ATO	-3099
bed	-3100
den	-3101
els	-3102
eng	-3103
era	-3104
ief	-3105
ina	-3106
lex	-3107
och	-3108
oke	-3109
ops	-3110
pol	-3111
▁Su	-3112
▁Uk	-3113
airs	-3114
aled	-3115
cale	-3116
edly	-3117
fect	-3118
hern	-3119
ieth	-3120
imer	-3121
ints	-3122
izes	-3123
omes	-3124
reed	-3125
used	-3126
year	-3127
▁Ber	-3128
▁Ham	-3129
▁bro	-3130
▁gap	-3131
▁hit	-3132
▁rob	-3133
▁ske	-3134
arant	-3135
fered	-3136
fully	-3137
iders	-3138
iring	-3139
itter	-3140
reens	-3141
▁NATO	-3142
▁Saud	-3143
▁area	-3144
▁came	-3145
▁mach	-3146
▁paid	-3147
▁publ	-3148
▁read	-3149
▁seed	-3150
▁summ	-3151
▁trip	-3152
▁upon	-3153
illenn	-3154
rehens	-3155
▁capit	-3156
▁cyber	-3157
▁dream	-3158
▁emerg	-3159
▁ended	-3160
▁extra	-3161
▁girls	-3162
▁joint	-3163
▁legis	-3164
▁limit	-3165
▁lines	-3166
▁parad	-3167
▁purch	-3168
▁solve	-3169
▁steps	-3170
▁views	-3171
century	-3172
ospital	-3173
▁Mexico	-3174
▁caused	-3175
▁celebr	-3176
▁center	-3177
▁custom	-3178
▁divers	-3179
▁double	-3180
▁driven	-3181
▁easier	-3182
▁expans	-3183
▁fossil	-3184
▁nature	-3185
▁propos	-3186
▁recomm	-3187
fficient	-3188
▁Council	-3189
▁Perhaps	-3190
▁bipolar	-3191
▁describ	-3192
▁general	-3193
▁guarant	-3194
▁helping	-3195
▁highest	-3196
▁justice	-3197
▁leaving	-3198
▁matters	-3199
▁natural	-3200
▁offered	-3201
▁opinion	-3202
▁present	-3203
▁weapons	-3204
ashington	-3205
▁achieved	-3206
▁analysis	-3207
▁building	-3208
▁critical	-3209
▁declared	-3210
▁priority	-3211
▁provided	-3212
▁reflects	-3213
▁relevant	-3214
▁renminbi	-3215
▁required	-3216
▁revenues	-3217
▁vaccines	-3218
▁Similarly	-3219
▁according	-3220
▁continued	-3221
▁dangerous	-3222
▁encourage	-3223
▁estimates	-3224
▁following	-3225
▁prospects	-3226
▁providing	-3227
▁tradition	-3228
▁transport	-3229
▁difference	-3230
▁engagement	-3231
▁entreprene	-3232
▁regulatory	-3233
▁relatively	-3234
▁Republicans	-3235
▁effectively	-3236
▁competitiveness	-3237
EL	-3238
ER	-3239
ax	-3240
ry	-3241
uk	-3242
TON	-3243
gic	-3244
hel	-3245
irm	-3246
nic	-3247
ody	-3248
pay	-3249
rec	-3250
▁Ex	-3251
▁Pe	-3252
▁Sc	-3253
▁fa	-3254
▁fo	-3255
alny	-3256
angu	-3257
appe	-3258
arth	-3259
chol	-3260
fety	-3261
iety	-3262
irth	-3263
nder	-3264
olid	-3265
opol	-3266
oric	-3267
phas	-3268
tion	-3269
▁Bur	-3270
▁Cam	-3271
▁Jew	-3272
▁deg	-3273
▁mal	-3274
▁rad	-3275
scale	-3276
▁bomb	-3277
▁enab	-3278
▁join	-3279
▁obst	-3280
▁reve	-3281
▁size	-3282
heimer	-3283
market	-3284
ousand	-3285
porary	-3286
sector	-3287
ulated	-3288
▁Prime	-3289
▁Those	-3290
▁adequ	-3291
▁board	-3292
▁chain	-3293
▁forms	-3294
▁seven	-3295
▁shape	-3296
▁sharp	-3297
▁spend	-3298
▁talks	-3299
▁tests	-3300
▁tight	-3301
▁volat	-3302
ference	-3303
orthern	-3304
through	-3305
▁Greece	-3306
▁Greens	-3307
▁abroad	-3308
▁allies	-3309
▁capita	-3310
▁choice	-3311
▁crimin	-3312
▁emphas	-3313
▁enable	-3314
▁engage	-3315
▁engine	-3316
▁formal	-3317
▁mechan	-3318
▁remark	-3319
▁General	-3320
▁Navalny	-3321
▁acceler	-3322
▁changed	-3323
▁comprom	-3324
▁conserv	-3325
▁contain	-3326
▁equally	-3327
▁finally	-3328
▁measure	-3329
▁related	-3330
▁roughly	-3331
▁targets	-3332
▁Likewise	-3333
▁confront	-3334
▁dramatic	-3335
▁minister	-3336
▁promises	-3337
▁remained	-3338
▁supposed	-3339
▁thousand	-3340
▁authority	-3341
▁expansion	-3342
▁sanctions	-3343
▁sustained	-3344
▁Democratic	-3345
▁Washington	-3346
▁associated	-3347
▁importance	-3348
▁introduced	-3349
▁legitimacy	-3350
▁experienced	-3351
▁immigration	-3352
▁recognition	-3353
▁institutional	-3354
▁significantly	-3355
AS	-3356
CO	-3357
gu	-3358
mp	-3359
sc	-3360
sh	-3361
ext	-3362
hem	-3363
ilt	-3364
oph	-3365
raw	-3366
rew	-3367
ugh	-3368
urb	-3369
yle	-3370
▁Do	-3371
▁gl	-3372
▁ir	-3373
aren	-3374
back	-3375
ethe	-3376
lled	-3377
lock	-3378
mber	-3379
more	-3380
ones	-3381
turn	-3382
▁Alz	-3383
▁Ire	-3384
▁Jun	-3385
▁Mel	-3386
▁adm	-3387
▁buy	-3388
▁det	-3389
▁due	-3390
▁esc	-3391
▁gas	-3392
▁lot	-3393
▁tro	-3394
▁wat	-3395
aches	-3396
erity	-3397
idesp	-3398
inary	-3399
level	-3400
stead	-3401
uries	-3402
▁Anot	-3403
▁Prog	-3404
▁adap	-3405
▁asse	-3406
▁feed	-3407
▁goes	-3408
▁host	-3409
▁idea	-3410
▁isol	-3411
▁lear	-3412
▁pled	-3413
▁prev	-3414
▁push	-3415
▁race	-3416
▁road	-3417
▁sent	-3418
▁stem	-3419
▁vast	-3420
▁wast	-3421
Europe	-3422
apital	-3423
mented	-3424
policy	-3425
▁Alban	-3426
▁Saudi	-3427
▁Until	-3428
▁asset	-3429
▁autom	-3430
▁begun	-3431
▁corre	-3432
▁deals	-3433
▁doesn	-3434
▁eight	-3435
▁elder	-3436
▁equal	-3437
▁front	-3438
▁fuels	-3439
▁grown	-3440
▁insur	-3441
▁mortg	-3442
▁persu	-3443
▁plans	-3444
▁prove	-3445
▁spent	-3446
▁stagn	-3447
holders	-3448
ilities	-3449
ounting	-3450
▁Invest	-3451
▁adjust	-3452
▁appear	-3453
▁bottom	-3454
▁cities	-3455
▁destru	-3456
▁devast	-3457
▁dollar	-3458
▁either	-3459
▁exceed	-3460
▁extent	-3461
▁ignore	-3462
▁mutual	-3463
▁normal	-3464
▁offers	-3465
▁person	-3466
▁points	-3467
▁proper	-3468
▁reject	-3469
▁survey	-3470
▁talent	-3471
▁tariff	-3472
▁unique	-3473
▁widesp	-3474
American	-3475
etheless	-3476
standing	-3477
usterity	-3478
▁Another	-3479
▁Climate	-3480
▁Instead	-3481
▁Ireland	-3482
▁attempt	-3483
▁brought	-3484
▁compens	-3485
▁critics	-3486
▁farming	-3487
▁heavily	-3488
▁pattern	-3489
▁promote	-3490
▁putting	-3491
▁running	-3492
▁schools	-3493
rehensive	-3494
ventional	-3495
▁Consider	-3496
▁addition	-3497
▁contrary	-3498
▁disaster	-3499
▁expanded	-3500
▁happened	-3501
▁hospital	-3502
▁negative	-3503
▁repeated	-3504
▁Alzheimer	-3505
▁Greenspan	-3506
▁commodity	-3507
▁contribut	-3508
▁criticism	-3509
▁exception	-3510
▁twentieth	-3511
▁addressing	-3512
▁assistance	-3513
▁eventually	-3514
▁supporters	-3515
▁widespread	-3516
▁alternative	-3517
▁destruction	-3518
Af	-3519
CA	-3520
ES	-3521
MB	-3522
ECD	-3523
alt	-3524
ari	-3525
ere	-3526
gem	-3527
ife	-3528
los	-3529
try	-3530
uck	-3531
ull	-3532
unn	-3533
war	-3534
▁Ac	-3535
▁Bo	-3536
▁DC	-3537
▁ep	-3538
▁vo	-3539
AIDS	-3540
ames	-3541
ania	-3542
emic	-3543
iles	-3544
inct	-3545
mine	-3546
mosp	-3547
orks	-3548
pose	-3549
pted	-3550
tric	-3551
uary	-3552
ular	-3553
vert	-3554
▁Ant	-3555
▁Any	-3556
▁Bra	-3557
▁Jan	-3558
▁Mal	-3559
▁Mar	-3560
▁Med	-3561
▁Str	-3562
▁Whe	-3563
▁lab	-3564
▁mix	-3565
▁nut	-3566
▁sil	-3567
▁ste	-3568
▁sum	-3569
adequ	-3570
erves	-3571
house	-3572
power	-3573
reaty	-3574
reced	-3575
ronic	-3576
▁Both	-3577
▁Cold	-3578
▁High	-3579
▁Just	-3580
▁MDGs	-3581
▁Murd	-3582
▁Shia	-3583
▁Then	-3584
▁Thus	-3585
▁acqu	-3586
▁army	-3587
▁days	-3588
▁exec	-3589
▁fair	-3590
▁laws	-3591
▁lies	-3592
▁rain	-3593
▁rare	-3594
▁rhet	-3595
▁scen	-3596
▁stay	-3597
▁vers	-3598
▁vill	-3599
cisely	-3600
coming	-3601
ground	-3602
herent	-3603
▁Organ	-3604
▁Still	-3605
▁Trade	-3606
▁Under	-3607
▁built	-3608
▁crops	-3609
▁fears	-3610
▁medic	-3611
▁motiv	-3612
▁prime	-3613
▁shown	-3614
▁speak	-3615
▁takes	-3616
▁taxes	-3617
▁toler	-3618
▁worst	-3619
▁worth	-3620
cholars	-3621
iciency	-3622
ulation	-3623
▁Treaty	-3624
▁convin	-3625
▁deeper	-3626
▁disput	-3627
▁famous	-3628
▁father	-3629
▁implic	-3630
▁intens	-3631
▁launch	-3632
▁limits	-3633
▁manage	-3634
▁mobile	-3635
▁presid	-3636
▁prison	-3637
▁revers	-3638
▁suffer	-3639
▁viewed	-3640
reaching	-3641
▁However	-3642
▁Murdoch	-3643
▁Reserve	-3644
▁attitud	-3645
▁becomes	-3646
▁earlier	-3647
▁experts	-3648
▁learned	-3649
▁nations	-3650
▁perfect	-3651
▁poorest	-3652
▁species	-3653
▁started	-3654
▁weather	-3655
struction	-3656
▁academic	-3657
▁affected	-3658
▁bringing	-3659
▁complete	-3660
▁existing	-3661
▁function	-3662
▁internal	-3663
▁learning	-3664
▁marginal	-3665
▁overcome	-3666
▁peaceful	-3667
▁perspect	-3668
▁planning	-3669
▁prepared	-3670
▁promised	-3671
▁protests	-3672
▁provides	-3673
▁restrict	-3674
▁rhetoric	-3675
▁strength	-3676
▁Communist	-3677
▁candidate	-3678
▁condition	-3679
▁imbalance	-3680
▁subsidies	-3681
▁typically	-3682
▁undermine	-3683
▁University	-3684
▁algorithms	-3685
▁principles	-3686
▁recognized	-3687
▁regulation	-3688
▁represents	-3689
▁statistics	-3690
▁structures	-3691
▁underlying	-3692
▁competition	-3693
▁differences	-3694
▁established	-3695
▁independent	-3696
▁individuals	-3697
▁responsible	-3698
▁distribution	-3699
▁experiencing	-3700
▁participation	-3701
▁discrimination	-3702
.)	-3703
rs	-3704
▁Q	-3705
▁X	-3706
ada	-3707
ahu	-3708
ane	-3709
ded	-3710
hod	-3711
ift	-3712
lan	-3713
lia	-3714
lig	-3715
ode	-3716
urt	-3717
zer	-3718
▁Ke	-3719
▁UK	-3720
aced	-3721
ager	-3722
ancy	-3723
bank	-3724
cial	-3725
ctic	-3726
ctob	-3727
enth	-3728
feat	-3729
iers	-3730
ikes	-3731
inet	-3732
inks	-3733
lied	-3734
ogue	-3735
uine	-3736
whel	-3737
▁Add	-3738
▁Ang	-3739
▁LDP	-3740
▁Nor	-3741
▁Why	-3742
▁alc	-3743
▁aud	-3744
▁enh	-3745
▁har	-3746
▁sea	-3747
▁squ	-3748
▁ver	-3749
▁wel	-3750
MBRID	-3751
ading	-3752
ament	-3753
arity	-3754
aught	-3755
being	-3756
class	-3757
diagn	-3758
erala	-3759
iance	-3760
ology	-3761
ondon	-3762
raine	-3763
▁AfDB	-3764
▁Conf	-3765
▁Four	-3766
▁OECD	-3767
▁bure	-3768
▁core	-3769
▁doct	-3770
▁epid	-3771
▁imag	-3772
▁init	-3773
▁liqu	-3774
▁near	-3775
▁pack	-3776
▁phys	-3777
▁rank	-3778
▁susp	-3779
▁teac	-3780
▁went	-3781
anyahu	-3782
ctober	-3783
ellect	-3784
encies	-3785
health	-3786
idered	-3787
illing	-3788
ishing	-3789
itious	-3790
onents	-3791
ployed	-3792
umping	-3793
▁Found	-3794
▁Paris	-3795
▁alloc	-3796
▁blood	-3797
▁bound	-3798
▁concl	-3799
▁delay	-3800
▁embra	-3801
▁hopes	-3802
▁langu	-3803
▁legal	-3804
▁reass	-3805
▁revol	-3806
▁track	-3807
▁trust	-3808
▁withd	-3809
MBRIDGE	-3810
connect	-3811
ivalent	-3812
related	-3813
▁During	-3814
▁Kerala	-3815
▁London	-3816
▁Muslim	-3817
▁Though	-3818
▁agreed	-3819
▁appeal	-3820
▁atmosp	-3821
▁border	-3822
▁burden	-3823
▁comput	-3824
▁deeply	-3825
▁easily	-3826
▁elites	-3827
▁empire	-3828
▁ethnic	-3829
▁fallen	-3830
▁hardly	-3831
▁legacy	-3832
▁narrow	-3833
▁nation	-3834
▁perman	-3835
▁placed	-3836
▁plants	-3837
▁played	-3838
▁pursue	-3839
▁rating	-3840
▁showed	-3841
▁stands	-3842
▁worked	-3843
economic	-3844
▁Federal	-3845
▁Israeli	-3846
▁October	-3847
▁Ukraine	-3848
▁actions	-3849
▁allowed	-3850
▁appoint	-3851
▁bankers	-3852
▁broader	-3853
▁correct	-3854
▁defined	-3855
▁disappe	-3856
▁dollars	-3857
▁emerged	-3858
▁enforce	-3859
▁falling	-3860
▁housing	-3861
▁inadequ	-3862
▁mistake	-3863
▁parents	-3864
▁partner	-3865
▁profess	-3866
▁replace	-3867
▁service	-3868
▁sharing	-3869
▁subject	-3870
▁trading	-3871
▁younger	-3872
▁National	-3873
▁believed	-3874
▁complain	-3875
▁consolid	-3876
▁educated	-3877
▁entirely	-3878
▁launched	-3879
▁ordinary	-3880
▁overwhel	-3881
▁reaching	-3882
▁received	-3883
▁scholars	-3884
▁severely	-3885
▁starters	-3886
▁unpreced	-3887
▁CAMBRIDGE	-3888
▁Netanyahu	-3889
▁addressed	-3890
▁ambitious	-3891
▁austerity	-3892
▁construct	-3893
▁immediate	-3894
▁movements	-3895
▁otherwise	-3896
▁processes	-3897
▁shortfall	-3898
▁sometimes	-3899
▁temporary	-3900
▁universal	-3901
▁approaches	-3902
▁atmosphere	-3903
▁considered	-3904
▁innovative	-3905
▁presidency	-3906
▁protection	-3907
▁threatened	-3908
▁commitments	-3909
▁demographic	-3910
▁generations	-3911
▁Organization	-3912
▁immunization	-3913
▁partnerships	-3914
▁unprecedented	-3915
▁sustainability	-3916
▁transformation	-3917
EN	-3918
IB	-3919
ij	-3920
me	-3921
mo	-3922
▁-	-3923
ASH	-3924
PAC	-3925
asc	-3926
ats	-3927
avi	-3928
ech	-3929
isp	-3930
ken	-3931
ket	-3932
lik	-3933
nam	-3934
oiz	-3935
ook	-3936
oor	-3937
ote	-3938
oup	-3939
rex	-3940
umi	-3941
yan	-3942
zil	-3943
▁Bl	-3944
▁Cy	-3945
▁Ky	-3946
▁Te	-3947
ESCO	-3948
apse	-3949
ario	-3950
atin	-3951
cast	-3952
cont	-3953
egal	-3954
izer	-3955
ohol	-3956
omin	-3957
onom	-3958
ping	-3959
rupt	-3960
what	-3961
▁Ass	-3962
▁God	-3963
▁Gul	-3964
▁Its	-3965
▁Rob	-3966
▁Sum	-3967
▁bul	-3968
▁hum	-3969
▁reb	-3970
▁sen	-3971
▁shr	-3972
▁try	-3973
▁unw	-3974
▁wit	-3975
Afric	-3976
andon	-3977
asion	-3978
ellig	-3979
erest	-3980
esity	-3981
first	-3982
igate	-3983
illed	-3984
inded	-3985
known	-3986
thern	-3987
▁Gavi	-3988
▁Koiz	-3989
▁Park	-3990
▁Serb	-3991
▁WASH	-3992
▁Will	-3993
▁bear	-3994
▁cast	-3995
▁dead	-3996
▁dele	-3997
▁exer	-3998
▁gone	-3999
▁grew	-4000
▁lend	-4001
▁prol	-4002
▁refe	-4003
▁resc	-4004
▁sens	-4005
▁ties	-4006
▁trig	-4007
▁week	-4008
INGTON	-4009
atures	-4010
carbon	-4011
stream	-4012
undred	-4013
▁AIPAC	-4014
▁Austr	-4015
▁Gates	-4016
▁Human	-4017
▁barri	-4018
▁birth	-4019
▁blame	-4020
▁calls	-4021
▁carry	-4022
▁faced	-4023
▁faces	-4024
▁leave	-4025
▁skept	-4026
appoint	-4027
ensions	-4028
ialogue	-4029
lection	-4030
outhern	-4031
ustrial	-4032
▁Brazil	-4033
▁Canada	-4034
▁George	-4035
▁Health	-4036
▁UNESCO	-4037
▁assess	-4038
▁battle	-4039
▁causes	-4040
▁compar	-4041
▁deaths	-4042
▁defeat	-4043
▁degree	-4044
▁desper	-4045
▁destro	-4046
▁frustr	-4047
▁giving	-4048
▁linked	-4049
▁online	-4050
▁places	-4051
▁preced	-4052
▁reward	-4053
▁robust	-4054
▁safety	-4055
▁stable	-4056
▁summit	-4057
▁surely	-4058
▁treaty	-4059
▁troops	-4060
▁turned	-4061
▁twenty	-4062
ffective	-4063
security	-4064
▁Eastern	-4065
▁Further	-4066
▁January	-4067
▁Koizumi	-4068
▁Muslims	-4069
▁Senegal	-4070
▁abandon	-4071
▁alcohol	-4072
▁bureauc	-4073
▁chronic	-4074
▁context	-4075
▁creates	-4076
▁elderly	-4077
▁elected	-4078
▁failing	-4079
▁healthy	-4080
▁imposed	-4081
▁involve	-4082
▁options	-4083
▁outside	-4084
▁reinfor	-4085
▁revenue	-4086
▁savings	-4087
▁tariffs	-4088
▁trouble	-4089
▁accounts	-4090
▁activity	-4091
▁argument	-4092
▁communic	-4093
▁decisive	-4094
▁designed	-4095
▁minority	-4096
▁mobilize	-4097
▁offering	-4098
▁property	-4099
▁scenario	-4100
▁slowdown	-4101
▁struggle	-4102
▁intellect	-4103
▁objective	-4104
▁precisely	-4105
▁promising	-4106
▁technical	-4107
▁thousands	-4108
▁Foundation	-4109
▁WASHINGTON	-4110
▁currencies	-4111
▁discipline	-4112
▁frequently	-4113
▁greenhouse	-4114
▁immigrants	-4115
▁integrated	-4116
▁scientists	-4117
▁terrorists	-4118
▁Sustainable	-4119
▁constraints	-4120
▁essentially	-4121
▁legislation	-4122
▁necessarily	-4123
▁politically	-4124
▁breakthrough	-4125
▁organization	-4126
▁entrepreneurs	-4127
▁accountability	-4128
▁constitutional	-4129
CT	-4130
EM	-4131
PJ	-4132
gm	-4133
arc	-4134
aul	-4135
aun	-4136
gry	-4137
imb	-4138
ipe	-4139
ipp	-4140
uni	-4141
vis	-4142
▁Cr	-4143
▁bi	-4144
▁ec	-4145
acro	-4146
ails	-4147
alle	-4148
amed	-4149
asus	-4150
born	-4151
fers	-4152
iant	-4153
ibly	-4154
icro	-4155
idge	-4156
know	-4157
lict	-4158
odox	-4159
olly	-4160
oses	-4161
sent	-4162
uses	-4163
ware	-4164
wing	-4165
with	-4166
▁Act	-4167
▁Bec	-4168
▁DPJ	-4169
▁Edu	-4170
▁Har	-4171
▁Kar	-4172
▁Rev	-4173
▁Som	-4174
▁asp	-4175
▁enj	-4176
▁eru	-4177
▁wis	-4178
acerb	-4179
acles	-4180
agers	-4181
atism	-4182
break	-4183
eenth	-4184
ilton	-4185
irect	-4186
lands	-4187
place	-4188
rexit	-4189
▁Cauc	-4190
▁Dece	-4191
▁Euro	-4192
▁Fore	-4193
▁Here	-4194
▁Over	-4195
▁bene	-4196
▁bold	-4197
▁cash	-4198
▁clin	-4199
▁depr	-4200
▁dict	-4201
▁flag	-4202
▁here	-4203
▁magn	-4204
▁narr	-4205
▁orth	-4206
▁prec	-4207
▁prem	-4208
▁root	-4209
▁stre	-4210
▁tack	-4211
▁tele	-4212
▁whom	-4213
▁wind	-4214
ancial	-4215
estate	-4216
ourage	-4217
overed	-4218
priate	-4219
vision	-4220
▁Goals	-4221
▁Latin	-4222
▁March	-4223
▁Meles	-4224
▁Third	-4225
▁Women	-4226
▁accom	-4227
▁aimed	-4228
▁antic	-4229
▁avoid	-4230
▁bonds	-4231
▁cross	-4232
▁fewer	-4233
▁final	-4234
▁hegem	-4235
▁looks	-4236
▁macro	-4237
▁numer	-4238
▁optim	-4239
▁quite	-4240
▁ratio	-4241
▁refer	-4242
▁scope	-4243
▁smart	-4244
▁spect	-4245
▁tried	-4246
▁unity	-4247
▁utter	-4248
aration	-4249
ductive	-4250
itation	-4251
liament	-4252
uations	-4253
▁Agenda	-4254
▁Angola	-4255
▁Berlin	-4256
▁Econom	-4257
▁Robert	-4258
▁acting	-4259
▁actors	-4260
▁allows	-4261
▁assets	-4262
▁basket	-4263
▁calcul	-4264
▁career	-4265
▁catast	-4266
▁charge	-4267
▁closed	-4268
▁closer	-4269
▁desire	-4270
▁divide	-4271
▁female	-4272
▁mainly	-4273
▁medium	-4274
▁memory	-4275
▁multip	-4276
▁notion	-4277
▁offset	-4278
▁option	-4279
▁sexual	-4280
▁signed	-4281
▁slowly	-4282
▁soccer	-4283
▁sought	-4284
▁speech	-4285
▁stabil	-4286
▁stress	-4287
▁summer	-4288
▁transl	-4289
▁trends	-4290
▁unable	-4291
▁unders	-4292
▁urgent	-4293
irmative	-4294
veraging	-4295
▁Albania	-4296
▁Because	-4297
▁Millenn	-4298
▁budgets	-4299
▁capable	-4300
▁closely	-4301
▁conduct	-4302
▁decided	-4303
▁disprop	-4304
▁dispute	-4305
▁divided	-4306
▁exacerb	-4307
▁facilit	-4308
▁fastest	-4309
▁happens	-4310
▁holding	-4311
▁ignored	-4312
▁incomes	-4313
▁paradox	-4314
▁purpose	-4315
▁radical	-4316
▁realize	-4317
▁threats	-4318
▁traject	-4319
▁various	-4320
▁witness	-4321
intensive	-4322
▁Caucasus	-4323
▁accurate	-4324
▁annivers	-4325
▁collapse	-4326
▁downturn	-4327
▁identity	-4328
▁intellig	-4329
▁involved	-4330
▁language	-4331
▁migrants	-4332
▁northern	-4333
▁orthodox	-4334
▁shortage	-4335
▁somewhat	-4336
▁suffered	-4337
▁surprise	-4338
▁Christian	-4339
▁Consensus	-4340
▁announced	-4341
▁borrowing	-4342
▁declining	-4343
▁discovery	-4344
▁emergence	-4345
▁inclusion	-4346
▁materials	-4347
▁narrative	-4348
▁neighbors	-4349
▁promoting	-4350
▁reformers	-4351
▁remaining	-4352
▁supported	-4353
▁workforce	-4354
▁Industrial	-4355
▁Investment	-4356
▁activities	-4357
▁compromise	-4358
▁discussion	-4359
▁equivalent	-4360
▁priorities	-4361
▁productive	-4362
▁remarkable	-4363
▁repeatedly	-4364
▁resistance	-4365
▁surprising	-4366
▁throughout	-4367
▁university	-4368
▁volatility	-4369
▁Nonetheless	-4370
▁devastating	-4371
▁implemented	-4372
▁innovations	-4373
▁prohibition	-4374
▁arrangements	-4375
▁construction	-4376
▁successfully	-4377
▁comprehensive	-4378
▁disproportion	-4379
▁understanding	-4380
GB	-4381
TI	-4382
sy	-4383
GDP	-4384
aff	-4385
aza	-4386
ios	-4387
lar	-4388
osn	-4389
▁Im	-4390
▁ST	-4391
▁wa	-4392
aded	-4393
adic	-4394
ault	-4395
cons	-4396
coun	-4397
crip	-4398
cris	-4399
fort	-4400
igor	-4401
isms	-4402
iver	-4403
lika	-4404
llor	-4405
lows	-4406
ocks	-4407
olas	-4408
oubt	-4409
oyal	-4410
rees	-4411
resh	-4412
uded	-4413
uild	-4414
uous	-4415
ynes	-4416
zero	-4417
▁Eng	-4418
▁Man	-4419
▁Soc	-4420
▁Yas	-4421
▁cop	-4422
▁cyc	-4423
▁exc	-4424
▁hyp	-4425
▁ran	-4426
▁tur	-4427
▁unf	-4428
▁wed	-4429
adesh	-4430
antly	-4431
banon	-4432
ching	-4433
erted	-4434
gical	-4435
ipped	-4436
outef	-4437
party	-4438
riend	-4439
rific	-4440
right	-4441
state	-4442
utine	-4443
▁AIIB	-4444
▁Bang	-4445
▁Bosn	-4446
▁Cypr	-4447
▁Deal	-4448
▁Educ	-4449
▁Farm	-4450
▁July	-4451
▁June	-4452
▁Once	-4453
▁Port	-4454
▁Sunn	-4455
▁evol	-4456
▁fell	-4457
▁firm	-4458
▁foot	-4459
▁hero	-4460
▁hike	-4461
▁insu	-4462
▁male	-4463
▁outs	-4464
▁pace	-4465
▁plat	-4466
▁port	-4467
▁scar	-4468
▁sold	-4469
▁task	-4470
▁team	-4471
▁tour	-4472
▁town	-4473
▁trem	-4474
▁type	-4475
▁wave	-4476
▁wish	-4477
ailing	-4478
crisis	-4479
forest	-4480
iately	-4481
iction	-4482
ietnam	-4483
uctive	-4484
▁Burma	-4485
▁Crime	-4486
▁Polit	-4487
▁Royal	-4488
▁absol	-4489
▁acute	-4490
▁adapt	-4491
▁adopt	-4492
▁brain	-4493
▁count	-4494
▁equip	-4495
▁faith	-4496
▁hands	-4497
▁ideal	-4498
▁input	-4499
▁knows	-4500
▁merit	-4501
▁monet	-4502
▁ninet	-4503
▁oblig	-4504
▁occup	-4505
▁overh	-4506
▁plant	-4507
▁range	-4508
▁ready	-4509
▁recru	-4510
▁stage	-4511
▁stake	-4512
▁stead	-4513
▁traff	-4514
▁truly	-4515
▁wages	-4516
country	-4517
illegal	-4518
itative	-4519
nership	-4520
▁Arabia	-4521
▁Beyond	-4522
▁Boutef	-4523
▁Brexit	-4524
▁Keynes	-4525
▁People	-4526
▁Poland	-4527
▁Policy	-4528
▁Rights	-4529
▁acknow	-4530
▁aggreg	-4531
▁arrest	-4532
▁assume	-4533
▁attrib	-4534
▁claims	-4535
▁commer	-4536
▁elimin	-4537
▁emerge	-4538
▁fertil	-4539
▁figure	-4540
▁geopol	-4541
▁leaves	-4542
▁liquid	-4543
▁losses	-4544
▁office	-4545
▁pushed	-4546
▁raised	-4547
▁refuge	-4548
▁resort	-4549
▁retain	-4550
▁search	-4551
▁select	-4552
▁suspic	-4553
▁taught	-4554
atlantic	-4555
ittances	-4556
ocracies	-4557
▁Capital	-4558
▁Lebanon	-4559
▁Somalia	-4560
▁Whether	-4561
▁absence	-4562
▁advance	-4563
▁affairs	-4564
▁centers	-4565
▁choices	-4566
▁complic	-4567
▁culture	-4568
▁cutting	-4569
▁defense	-4570
▁doctors	-4571
▁driving	-4572
▁empower	-4573
▁figures	-4574
▁himself	-4575
▁implies	-4576
▁liberty	-4577
▁looking	-4578
▁medical	-4579
▁notably	-4580
▁numbers	-4581
▁obesity	-4582
▁players	-4583
▁ratings	-4584
▁routine	-4585
▁selling	-4586
▁sources	-4587
▁underst	-4588
▁usually	-4589
▁victims	-4590
▁welcome	-4591
ependence	-4592
▁Business	-4593
▁Monetary	-4594
▁adequate	-4595
▁agencies	-4596
▁balanced	-4597
▁barriers	-4598
▁coverage	-4599
▁fighting	-4600
▁forecast	-4601
▁globally	-4602
▁includes	-4603
▁momentum	-4604
▁populist	-4605
▁referend	-4606
▁reported	-4607
▁reserves	-4608
▁shifting	-4609
▁threaten	-4610
▁transfer	-4611
▁withdraw	-4612
▁Financial	-4613
▁accounted	-4614
▁activists	-4615
▁deflation	-4616
▁diversity	-4617
▁dominated	-4618
▁excessive	-4619
▁expensive	-4620
▁expertise	-4621
▁fundament	-4622
▁inclusive	-4623
▁investing	-4624
▁isolation	-4625
▁orthodoxy	-4626
▁professor	-4627
▁published	-4628
▁recommend	-4629
▁resulting	-4630
▁seriously	-4631
▁similarly	-4632
▁structure	-4633
▁transfers	-4634
▁virtually	-4635
▁Bouteflika	-4636
▁Millennium	-4637
▁background	-4638
▁diplomatic	-4639
▁disappoint	-4640
▁efficiency	-4641
▁everything	-4642
▁fragmented	-4643
▁generating	-4644
▁impressive	-4645
▁inadequate	-4646
▁liberation	-4647
▁maintained	-4648
▁nineteenth	-4649
▁objectives	-4650
▁unilateral	-4651
▁Furthermore	-4652
▁appropriate	-4653
▁competitive	-4654
▁constrained	-4655
▁coordinated	-4656
▁credibility	-4657
▁democracies	-4658
▁populations	-4659
▁corporations	-4660
▁intervention	-4661
▁modification	-4662
▁professional	-4663
▁strengthened	-4664
▁substantially	-4665
Ch	-4666
DA	-4667
af	-4668
ih	-4669
TIP	-4670
aba	-4671
aiw	-4672
der	-4673
ery	-4674
imm	-4675
kes	-4676
nel	-4677
oes	-4678
ped	-4679
pin	-4680
roc	-4681
zen	-4682
▁Em	-4683
▁Fe	-4684
▁Ha	-4685
▁Hu	-4686
▁ey	-4687
aily	-4688
araj	-4689
ares	-4690
aria	-4691
arsh	-4692
bedo	-4693
bled	-4694
cers	-4695
ches	-4696
comm	-4697
dden	-4698
enty	-4699
ifth	-4700
indu	-4701
irac	-4702
ires	-4703
mbly	-4704
offs	-4705
oget	-4706
oler	-4707
onor	-4708
pass	-4709
pora	-4710
ques	-4711
rich	-4712
serv	-4713
urch	-4714
utes	-4715
▁CAP	-4716
▁Cup	-4717
▁Dep	-4718
▁Her	-4719
▁Mad	-4720
▁Mor	-4721
▁Naz	-4722
▁Off	-4723
▁Spr	-4724
▁Ter	-4725
▁bol	-4726
▁dro	-4727
▁fil	-4728
▁hor	-4729
▁hot	-4730
▁pen	-4731
▁pla	-4732
▁ple	-4733
▁pun	-4734
▁raw	-4735
▁saw	-4736
▁sun	-4737
▁wid	-4738
ables	-4739
acted	-4740
aiwan	-4741
archy	-4742
arria	-4743
ashed	-4744
ellow	-4745
idden	-4746
iking	-4747
ional	-4748
oples	-4749
orial	-4750
tries	-4751
ukuni	-4752
using	-4753
▁Coop	-4754
▁Food	-4755
▁Free	-4756
▁Jews	-4757
▁NCDs	-4758
▁STEM	-4759
▁Swed	-4760
▁TTIP	-4761
▁York	-4762
▁arms	-4763
▁aver	-4764
▁base	-4765
▁bill	-4766
▁body	-4767
▁born	-4768
▁brut	-4769
▁capt	-4770
▁coup	-4771
▁dark	-4772
▁drop	-4773
▁earn	-4774
▁exam	-4775
▁fire	-4776
▁flex	-4777
▁hour	-4778
▁nutr	-4779
▁ones	-4780
▁phen	-4781
▁rely	-4782
▁room	-4783
▁says	-4784
▁sole	-4785
▁tact	-4786
▁tell	-4787
▁wond	-4788
arctic	-4789
aspora	-4790
atever	-4791
endous	-4792
iences	-4793
ifying	-4794
ightly	-4795
ispens	-4796
isters	-4797
mitted	-4798
rights	-4799
▁Earth	-4800
▁Every	-4801
▁Forum	-4802
▁Green	-4803
▁Libya	-4804
▁Sunni	-4805
▁Youth	-4806
▁aging	-4807
▁align	-4808
▁altru	-4809
▁anger	-4810
▁artic	-4811
▁bombs	-4812
▁books	-4813
▁colon	-4814
▁compe	-4815
▁cover	-4816
▁daugh	-4817
▁displ	-4818
▁drugs	-4819
▁fails	-4820
▁gases	-4821
▁gradu	-4822
▁holds	-4823
▁inher	-4824
▁norms	-4825
▁patri	-4826
▁polls	-4827
▁posed	-4828
▁round	-4829
▁seeks	-4830
▁shock	-4831
▁stock	-4832
▁table	-4833
▁twice	-4834
growing	-4835
isingly	-4836
ogether	-4837
ruption	-4838
uilding	-4839
▁Chance	-4840
▁Crimea	-4841
▁Portug	-4842
▁Recent	-4843
▁Senate	-4844
▁Serbia	-4845
▁Spring	-4846
▁Strate	-4847
▁Summit	-4848
▁Taiwan	-4849
▁Terror	-4850
▁absent	-4851
▁buying	-4852
▁choose	-4853
▁combat	-4854
▁curric	-4855
▁depart	-4856
▁execut	-4857
▁impose	-4858
▁incumb	-4859
▁infect	-4860
▁instru	-4861
▁landsc	-4862
▁method	-4863
▁missed	-4864
▁mostly	-4865
▁profit	-4866
▁rarely	-4867
▁remind	-4868
▁resist	-4869
▁secret	-4870
▁served	-4871
▁temper	-4872
▁undert	-4873
▁unless	-4874
▁Foreign	-4875
▁Twitter	-4876
▁Vietnam	-4877
▁anticip	-4878
▁applied	-4879
▁assumed	-4880
▁cleaner	-4881
▁corrupt	-4882
▁destroy	-4883
▁enterpr	-4884
▁express	-4885
▁genuine	-4886
▁getting	-4887
▁hundred	-4888
▁instead	-4889
▁mandate	-4890
▁mention	-4891
▁message	-4892
▁network	-4893
▁payment	-4894
▁peoples	-4895
▁pledged	-4896
▁possess	-4897
▁quarter	-4898
▁reverse	-4899
▁setting	-4900
▁shaping	-4901
▁subsequ	-4902
▁violent	-4903
▁Hamilton	-4904
▁Yasukuni	-4905
▁allowing	-4906
▁although	-4907
▁annually	-4908
▁anything	-4909
▁apparent	-4910
▁billions	-4911
▁combined	-4912
▁credible	-4913
▁criminal	-4914
▁delivery	-4915
▁dialogue	-4916
▁disputes	-4917
▁distinct	-4918
▁ensuring	-4919
▁epidemic	-4920
▁equality	-4921
▁exercise	-4922
▁historic	-4923
▁informal	-4924
▁journals	-4925
▁opposite	-4926
▁original	-4927
▁overlook	-4928
▁patterns	-4929
▁phenomen	-4930
▁practice	-4931
▁properly	-4932
▁proposed	-4933
▁pursuing	-4934
▁realized	-4935
▁slightly	-4936
▁southern	-4937
▁standard	-4938
▁striking	-4939
▁supplies	-4940
▁supports	-4941
▁surgical	-4942
▁urgently	-4943
ispensable	-4944
▁Antarctic	-4945
▁Australia	-4946
▁Countries	-4947
▁attitudes	-4948
▁centuries	-4949
▁coalition	-4950
▁dependent	-4951
▁diagnosis	-4952
▁employees	-4953
▁explained	-4954
▁extremely	-4955
▁guarantee	-4956
▁happening	-4957
▁highlight	-4958
▁hospitals	-4959
▁mechanism	-4960
▁obstacles	-4961
▁overwhelm	-4962
▁permanent	-4963
▁primarily	-4964
▁principle	-4965
▁producers	-4966
▁resilient	-4967
▁terrorist	-4968
▁unwilling	-4969
▁determined	-4970
▁deterrence	-4971
▁encouraged	-4972
▁imbalances	-4973
▁imperative	-4974
▁indicators	-4975
▁legitimate	-4976
▁mainstream	-4977
▁negotiated	-4978
▁operations	-4979
▁perception	-4980
▁proportion	-4981
▁reductions	-4982
▁referendum	-4983
▁resilience	-4984
▁settlement	-4985
▁trajectory	-4986
▁tremendous	-4987
▁understood	-4988
▁devaluation	-4989
▁educational	-4990
▁importantly	-4991
▁improvement	-4992
▁instability	-4993
▁potentially	-4994
▁undermining	-4995
▁considerable	-4996
▁constitution	-4997
▁insufficient	-4998
▁intellectual	-4999
▁policymaking	-5000
▁authoritarian	-5001
▁collaboration	-5002
▁establishment	-5003
▁unsustainable	-5004
AD	-5005
DR	-5006
EO	-5007
IS	-5008
US	-5009
We	-5010
hi	-5011
iu	-5012
ky	-5013
su	-5014
ala	-5015
alk	-5016
amb	-5017
ami	-5018
anz	-5019
bru	-5020
erg	-5021
exp	-5022
gia	-5023
law	-5024
let	-5025
map	-5026
orb	-5027
run	-5028
sen	-5029
tax	-5030
ula	-5031
ume	-5032
ums	-5033
unt	-5034
zai	-5035
▁($	-5036
▁Gu	-5037
▁li	-5038
▁sn	-5039
abwe	-5040
adly	-5041
ales	-5042
alin	-5043
athy	-5044
azon	-5045
cked	-5046
debt	-5047
ding	-5048
empl	-5049
free	-5050
gery	-5051
hand	-5052
iest	-5053
ingu	-5054
kish	-5055
lish	-5056
made	-5057
moil	-5058
obel	-5059
otic	-5060
pril	-5061
real	-5062
ulum	-5063
vard	-5064
▁Aff	-5065
▁BER	-5066
▁Bas	-5067
▁Bet	-5068
▁Big	-5069
▁Cle	-5070
▁Col	-5071
▁Dec	-5072
▁Def	-5073
▁Exp	-5074
▁Imm	-5075
▁Let	-5076
▁Liu	-5077
▁MAD	-5078
▁Nic	-5079
▁She	-5080
▁Tam	-5081
▁Too	-5082
▁Who	-5083
▁arr	-5084
▁cra	-5085
▁die	-5086
▁fit	-5087
▁fru	-5088
▁gay	-5089
▁got	-5090
▁hyd	-5091
▁mel	-5092
▁obt	-5093
▁quo	-5094
▁sac	-5095
▁thr	-5096
▁tom	-5097
abled	-5098
adays	-5099
ained	-5100
alian	-5101
asive	-5102
cores	-5103
eless	-5104
enses	-5105
etric	-5106
iable	-5107
icism	-5108
ifies	-5109
ijing	-5110
inton	-5111
ittee	-5112
itude	-5113
ivate	-5114
point	-5115
quart	-5116
unism	-5117
urers	-5118
works	-5119
▁Clos	-5120
▁Kund	-5121
▁Lead	-5122
▁Marx	-5123
▁Much	-5124
▁Span	-5125
▁Tanz	-5126
▁True	-5127
▁Year	-5128
▁Zimb	-5129
▁aims	-5130
▁bloc	-5131
▁carr	-5132
▁dism	-5133
▁emot	-5134
▁enem	-5135
▁exce	-5136
▁fate	-5137
▁heat	-5138
▁hurt	-5139
▁pact	-5140
▁pool	-5141
▁pose	-5142
▁rail	-5143
▁runs	-5144
▁sell	-5145
▁sets	-5146
▁sort	-5147
▁spir	-5148
▁stif	-5149
▁sums	-5150
▁text	-5151
▁unac	-5152
▁unus	-5153
▁zero	-5154
Africa	-5155
ampion	-5156
aneous	-5157
bruary	-5158
ceived	-5159
establ	-5160
iances	-5161
icking	-5162
irical	-5163
ivered	-5164
ladesh	-5165
lessly	-5166
minded	-5167
minent	-5168
orient	-5169
uggish	-5170
urally	-5171
▁Among	-5172
▁April	-5173
▁Haiti	-5174
▁Major	-5175
▁Nobel	-5176
▁Trans	-5177
▁abund	-5178
▁added	-5179
▁alarm	-5180
▁alike	-5181
▁asked	-5182
▁bolst	-5183
▁daily	-5184
▁destr	-5185
▁donor	-5186
▁enjoy	-5187
▁femin	-5188
▁fresh	-5189
▁guide	-5190
▁heard	-5191
▁inequ	-5192
▁micro	-5193
▁minds	-5194
▁mount	-5195
▁moved	-5196
▁outra	-5197
▁overn	-5198
▁posit	-5199
▁seize	-5200
▁spoke	-5201
▁tough	-5202
▁turns	-5203
▁write	-5204
archers	-5205
areness	-5206
centage	-5207
cession	-5208
develop	-5209
finance	-5210
parents	-5211
stitute	-5212
ultural	-5213
▁Chirac	-5214
▁Cyprus	-5215
▁Karzai	-5216
▁Public	-5217
▁Sweden	-5218
▁UNAIDS	-5219
▁albedo	-5220
▁apprec	-5221
▁aspect	-5222
▁brings	-5223
▁broken	-5224
▁cataly	-5225
▁chains	-5226
▁circle	-5227
▁condem	-5228
▁courts	-5229
▁crimes	-5230
▁decide	-5231
▁defend	-5232
▁define	-5233
▁disarm	-5234
▁easing	-5235
▁equity	-5236
▁eradic	-5237
▁escape	-5238
▁except	-5239
▁fields	-5240
▁friend	-5241
▁gather	-5242
▁harder	-5243
▁injust	-5244
▁insist	-5245
▁interp	-5246
▁marked	-5247
▁marria	-5248
▁mother	-5249
▁opened	-5250
▁oppose	-5251
▁owners	-5252
▁refuse	-5253
▁remote	-5254
▁scarce	-5255
▁senior	-5256
▁sudden	-5257
▁voting	-5258
▁warned	-5259
▁yields	-5260
European	-5261
function	-5262
ifically	-5263
ordinary	-5264
oubtedly	-5265
▁Beijing	-5266
▁Harvard	-5267
▁Kundera	-5268
▁Spanish	-5269
▁Turkish	-5270
▁benefic	-5271
▁collaps	-5272
▁decreas	-5273
▁embrace	-5274
▁feature	-5275
▁harvest	-5276
▁illegal	-5277
▁intense	-5278
▁lasting	-5279
▁lending	-5280
▁machine	-5281
▁mindset	-5282
▁minimum	-5283
▁neglect	-5284
▁pension	-5285
▁persist	-5286
▁playing	-5287
▁prepare	-5288
▁pushing	-5289
▁raising	-5290
▁renewed	-5291
▁restore	-5292
▁secular	-5293
▁sharply	-5294
▁someone	-5295
▁survive	-5296
▁thereby	-5297
▁towards	-5298
▁trained	-5299
▁treated	-5300
▁turmoil	-5301
diagnosis	-5302
▁December	-5303
▁February	-5304
▁Security	-5305
▁Tanzania	-5306
▁Zimbabwe	-5307
▁absolute	-5308
▁approval	-5309
▁examples	-5310
▁financed	-5311
▁generous	-5312
▁humanity	-5313
▁included	-5314
▁inherent	-5315
▁interven	-5316
▁literacy	-5317
▁maximize	-5318
▁memories	-5319
▁mortgage	-5320
▁multiple	-5321
▁numerous	-5322
▁occurred	-5323
▁outbreak	-5324
▁populism	-5325
▁possibly	-5326
▁presence	-5327
▁produced	-5328
▁proposal	-5329
▁religion	-5330
▁revealed	-5331
▁reversed	-5332
▁sacrific	-5333
▁sluggish	-5334
▁software	-5335
▁specific	-5336
▁standing	-5337
▁starting	-5338
▁taxation	-5339
▁unaccept	-5340
▁weakness	-5341
▁Education	-5342
▁Political	-5343
▁achieving	-5344
▁aggregate	-5345
▁convinced	-5346
▁cooperate	-5347
▁customers	-5348
▁delivered	-5349
▁described	-5350
▁diagnosed	-5351
▁diplomacy	-5352
▁disappear	-5353
▁diversify	-5354
▁exporters	-5355
▁generally	-5356
▁incentive	-5357
▁initially	-5358
▁insurance	-5359
▁integrate	-5360
▁observers	-5361
▁ourselves	-5362
▁overnight	-5363
▁populists	-5364
▁purchases	-5365
▁renewable	-5366
▁secondary	-5367
▁Bangladesh	-5368
▁accelerate	-5369
▁candidates	-5370
▁concerning	-5371
▁contribute	-5372
▁dependence	-5373
▁fertilizer	-5374
▁identified	-5375
▁innovators	-5376
▁previously	-5377
▁regardless	-5378
▁regulators	-5379
▁stagnation	-5380
▁withdrawal	-5381
▁Cooperation	-5382
▁Partnership	-5383
▁accordingly	-5384
▁anniversary	-5385
▁arrangement	-5386
▁consequence	-5387
▁demonstrate	-5388
▁destructive	-5389
▁immediately	-5390
▁influential	-5391
▁maintaining	-5392
▁nationalism	-5393
▁nationalist	-5394
▁negotiating	-5395
▁perspective	-5396
▁regulations	-5397
▁remittances	-5398
▁researchers	-5399
▁revolutions	-5400
▁sovereignty	-5401
▁substantial	-5402
▁threatening	-5403
▁underscores	-5404
▁alternatives	-5405
▁availability	-5406
▁conservative	-5407
▁contribution	-5408
▁conventional	-5409
▁grandparents	-5410
▁implications	-5411
▁intelligence	-5412
▁restrictions	-5413
▁surprisingly	-5414
▁effectiveness	-5415
▁extraordinary	-5416
▁strengthening	-5417
▁demonstrations	-5418
AI	-5419
AN	-5420
ET	-5421
GO	-5422
HI	-5423
NP	-5424
eu	-5425
zb	-5426
▁€	-5427
The	-5428
ads	-5429
aug	-5430
eda	-5431
enh	-5432
eth	-5433
gel	-5434
gen	-5435
ham	-5436
hic	-5437
ips	-5438
jud	-5439
ley	-5440
met	-5441
mic	-5442
mpt	-5443
ocu	-5444
oly	-5445
par	-5446
pet	-5447
soc	-5448
son	-5449
uit	-5450
uns	-5451
xic	-5452
ymm	-5453
▁CO	-5454
▁IT	-5455
▁Ro	-5456
▁Xi	-5457
ador	-5458
adow	-5459
agan	-5460
akas	-5461
ateg	-5462
atis	-5463
band	-5464
book	-5465
eter	-5466
face	-5467
gain	-5468
ihad	-5469
iled	-5470
ilty	-5471
isan	-5472
itor	-5473
mbol	-5474
occo	-5475
ocqu	-5476
ords	-5477
ourt	-5478
oved	-5479
rase	-5480
room	-5481
spec	-5482
time	-5483
tray	-5484
udan	-5485
ught	-5486
umst	-5487
view	-5488
vity	-5489
wood	-5490
xide	-5491
zech	-5492
▁CEO	-5493
▁Cal	-5494
▁Car	-5495
▁Dav	-5496
▁Day	-5497
▁Dis	-5498
▁Few	-5499
▁Hol	-5500
▁IDB	-5501
▁SDR	-5502
▁Sch	-5503
▁Sol	-5504
▁Two	-5505
▁anc	-5506
▁anx	-5507
▁bes	-5508
▁bur	-5509
▁dri	-5510
▁dub	-5511
▁fle	-5512
▁hol	-5513
▁ice	-5514
▁lag	-5515
▁lob	-5516
▁los	-5517
▁mir	-5518
▁mit	-5519
▁nav	-5520
▁pet	-5521
▁swe	-5522
▁tim	-5523
agues	-5524
aling	-5525
arins	-5526
asing	-5527
efore	-5528
endit	-5529
equal	-5530
hoods	-5531
ivial	-5532
licit	-5533
liers	-5534
mptom	-5535
ollah	-5536
ommod	-5537
onent	-5538
oning	-5539
orrow	-5540
oston	-5541
ratic	-5542
redit	-5543
uable	-5544
ugust	-5545
ulate	-5546
▁Coal	-5547
▁Fail	-5548
▁Gaza	-5549
▁Good	-5550
▁Grow	-5551
▁Hezb	-5552
▁Hong	-5553
▁Iron	-5554
▁Kamp	-5555
▁Kong	-5556
▁Nove	-5557
▁ampl	-5558
▁ball	-5559
▁boys	-5560
▁cogn	-5561
▁cool	-5562
▁cuts	-5563
▁cycl	-5564
▁date	-5565
▁daun	-5566
▁desp	-5567
▁didn	-5568
▁died	-5569
▁draw	-5570
▁ends	-5571
▁felt	-5572
▁lock	-5573
▁myth	-5574
▁none	-5575
▁outd	-5576
▁phil	-5577
▁pipe	-5578
▁qual	-5579
▁reap	-5580
▁roll	-5581
▁roof	-5582
▁spot	-5583
▁tool	-5584
▁wild	-5585
adjust	-5586
contro	-5587
elling	-5588
eville	-5589
govern	-5590
holder	-5591
ickers	-5592
iously	-5593
istrib	-5594
mother	-5595
ration	-5596
resent	-5597
sembly	-5598
urbing	-5599
▁Ababa	-5600
▁Addis	-5601
▁Again	-5602
▁Armen	-5603
▁Czech	-5604
▁Elect	-5605
▁Franc	-5606
▁Greek	-5607
▁Nakas	-5608
▁Never	-5609
▁Power	-5610
▁Sudan	-5611
▁Tocqu	-5612
▁abuse	-5613
▁apply	-5614
▁aside	-5615
▁aspir	-5616
▁asymm	-5617
▁badly	-5618
▁categ	-5619
▁compr	-5620
▁crime	-5621
▁drawn	-5622
▁exact	-5623
▁facts	-5624
▁foods	-5625
▁gives	-5626
▁grant	-5627
▁helps	-5628
▁hours	-5629
▁links	-5630
▁lived	-5631
▁multi	-5632
▁night	-5633
▁plays	-5634
▁pragm	-5635
▁recip	-5636
▁repay	-5637
▁ruled	-5638
▁schem	-5639
▁sheet	-5640
▁south	-5641
▁speed	-5642
▁stall	-5643
▁surge	-5644
▁tempt	-5645
▁vehic	-5646
▁voice	-5647
▁white	-5648
▁worry	-5649
dumping	-5650
erating	-5651
lihoods	-5652
mission	-5653
osition	-5654
reaking	-5655
▁Boston	-5656
▁Jewish	-5657
▁MADRID	-5658
▁Others	-5659
▁Rather	-5660
▁Reagan	-5661
▁Social	-5662
▁Stalin	-5663
▁attend	-5664
▁backed	-5665
▁conven	-5666
▁costly	-5667
▁dearth	-5668
▁disast	-5669
▁ending	-5670
▁fellow	-5671
▁floods	-5672
▁fourth	-5673
▁fueled	-5674
▁guilty	-5675
▁insurg	-5676
▁killed	-5677
▁lifest	-5678
▁listen	-5679
▁looked	-5680
▁losing	-5681
▁occurs	-5682
▁openly	-5683
▁permit	-5684
▁plenty	-5685
▁poorly	-5686
▁presum	-5687
▁prolif	-5688
▁relies	-5689
▁rescue	-5690
▁settle	-5691
▁shaped	-5692
▁shares	-5693
▁sheets	-5694
▁taxpay	-5695
▁trying	-5696
▁unions	-5697
▁united	-5698
▁wanted	-5699
▁wonder	-5700
adjusted	-5701
olerance	-5702
ollywood	-5703
specific	-5704
▁Clearly	-5705
▁Clinton	-5706
▁Closing	-5707
▁Constit	-5708
▁English	-5709
▁Farmers	-5710
▁Germans	-5711
▁Italian	-5712
▁Kampala	-5713
▁Morocco	-5714
▁Neither	-5715
▁Nicolas	-5716
▁Program	-5717
▁Project	-5718
▁Through	-5719
▁amounts	-5720
▁arguing	-5721
▁calling	-5722
▁cheaper	-5723
▁concent	-5724
▁distant	-5725
▁elector	-5726
▁element	-5727
▁enhance	-5728
▁erupted	-5729
▁exploit	-5730
▁exposed	-5731
▁finding	-5732
▁focuses	-5733
▁illustr	-5734
▁immense	-5735
▁inflows	-5736
▁inspire	-5737
▁intract	-5738
▁joining	-5739
▁journal	-5740
▁malaria	-5741
▁managed	-5742
▁operate	-5743
▁pointed	-5744
▁privile	-5745
▁proceed	-5746
▁smaller	-5747
▁student	-5748
▁symptom	-5749
▁talking	-5750
▁tourism	-5751
▁trigger	-5752
▁trivial	-5753
▁unknown	-5754
▁utterly	-5755
▁village	-5756
▁visible	-5757
▁whereas	-5758
Americans	-5759
connected	-5760
establish	-5761
ibilities	-5762
ultaneous	-5763
▁Agricult	-5764
▁Atlantic	-5765
▁Nakasone	-5766
▁November	-5767
▁Portugal	-5768
▁Progress	-5769
▁academia	-5770
▁accommod	-5771
▁actively	-5772
▁advances	-5773
▁anywhere	-5774
▁champion	-5775
▁circumst	-5776
▁computer	-5777
▁controls	-5778
▁daunting	-5779
▁deforest	-5780
▁deprived	-5781
▁diaspora	-5782
▁dividend	-5783
▁dominate	-5784
▁elements	-5785
▁enabling	-5786
▁enduring	-5787
▁extended	-5788
▁findings	-5789
▁governed	-5790
▁hundreds	-5791
▁identify	-5792
▁imperial	-5793
▁incident	-5794
▁indicate	-5795
▁involves	-5796
▁managers	-5797
▁moderate	-5798
▁networks	-5799
▁nowadays	-5800
▁opinions	-5801
▁prescrip	-5802
▁pressing	-5803
▁publicly	-5804
▁purchase	-5805
▁rational	-5806
▁regarded	-5807
▁released	-5808
▁replaced	-5809
▁returned	-5810
▁targeted	-5811
▁teachers	-5812
▁tendency	-5813
▁tensions	-5814
▁underest	-5815
▁underway	-5816
▁valuable	-5817
▁worrying	-5818
▁Committee	-5819
▁Hezbollah	-5820
▁alliances	-5821
▁arguments	-5822
▁awareness	-5823
▁catastrop	-5824
▁concerned	-5825
▁concerted	-5826
▁demanding	-5827
▁emphasize	-5828
▁empirical	-5829
▁equipment	-5830
▁exclusion	-5831
▁expressed	-5832
▁historian	-5833
▁landscape	-5834
▁liquidity	-5835
▁mandarins	-5836
▁medicines	-5837
▁ministers	-5838
▁motivated	-5839
▁negotiate	-5840
▁nutrition	-5841
▁operation	-5842
▁organized	-5843
▁positions	-5844
▁projected	-5845
▁prominent	-5846
▁providers	-5847
▁redistrib	-5848
▁regarding	-5849
▁reinforce	-5850
▁statement	-5851
▁territory	-5852
▁translate	-5853
▁workplace	-5854
▁Chancellor	-5855
▁Developing	-5856
▁Revolution	-5857
▁affordable	-5858
▁aggressive	-5859
▁assessment	-5860
▁capitalism	-5861
▁commercial	-5862
▁compelling	-5863
▁consistent	-5864
▁criticized	-5865
▁depression	-5866
▁disturbing	-5867
▁expectancy	-5868
▁experiment	-5869
▁extremists	-5870
▁infectious	-5871
▁interested	-5872
▁mechanisms	-5873
▁membership	-5874
▁percentage	-5875
▁phenomenon	-5876
▁preventing	-5877
▁prevention	-5878
▁repression	-5879
▁sanitation	-5880
▁supporting	-5881
▁unemployed	-5882
▁Tocqueville	-5883
▁centralized	-5884
▁contributed	-5885
▁desperately	-5886
▁disarmament	-5887
▁grandmother	-5888
▁operational	-5889
▁possibility	-5890
▁predictable	-5891
▁territorial	-5892
▁traffickers	-5893
▁undoubtedly	-5894
▁willingness	-5895
▁demonstrated	-5896
▁devaluations	-5897
▁fundamentals	-5898
▁geopolitical	-5899
▁historically	-5900
▁humanitarian	-5901
▁unacceptable	-5902
▁characterized	-5903
▁communication	-5904
▁macroeconomic	-5905
▁professionals	-5906
▁transportation	-5907
▁understandable	-5908
▁superconductors	-5909
CE	-5910
CP	-5911
EU	-5912
EY	-5913
HO	-5914
Sh	-5915
Th	-5916
UN	-5917
ds	-5918
oo	-5919
sa	-5920
vo	-5921
▁"	-5922
▁&	-5923
KEL	-5924
abe	-5925
aby	-5926
adu	-5927
bra	-5928
bur	-5929
dec	-5930
del	-5931
ede	-5932
emb	-5933
fur	-5934
hab	-5935
iar	-5936
iny	-5937
iph	-5938
lad	-5939
lus	-5940
see	-5941
sts	-5942
ude	-5943
uty	-5944
van	-5945
wed	-5946
▁Bh	-5947
aeda	-5948
alog	-5949
amin	-5950
asef	-5951
asty	-5952
ball	-5953
bles	-5954
cend	-5955
coni	-5956
eled	-5957
enom	-5958
eria	-5959
eron	-5960
fuel	-5961
gedy	-5962
gred	-5963
ials	-5964
iece	-5965
imil	-5966
imir	-5967
inst	-5968
izon	-5969
nedy	-5970
ocol	-5971
oung	-5972
petr	-5973
phic	-5974
reme	-5975
resp	-5976
rete	-5977
roll	-5978
rous	-5979
well	-5980
▁Age	-5981
▁Bel	-5982
▁Cur	-5983
▁Dar	-5984
▁Equ	-5985
▁Far	-5986
▁ICT	-5987
▁Inc	-5988
▁Ine	-5989
▁Job	-5990
▁Kyi	-5991
▁Mod	-5992
▁Pra	-5993
▁Rel	-5994
▁Suu	-5995
▁Xia	-5996
▁Yes	-5997
▁alt	-5998
▁avo	-5999
▁bea	-6000
▁bid	-6001
▁bod	-6002
▁bon	-6003
▁bra	-6004
▁car	-6005
▁cha	-6006
▁cod	-6007
▁der	-6008
▁dys	-6009
▁geo	-6010
▁hat	-6011
▁hub	-6012
▁inj	-6013
▁irr	-6014
▁lad	-6015
▁lay	-6016
▁mag	-6017
▁por	-6018
China	-6019
KELEY	-6020
agger	-6021
aired	-6022
arely	-6023
backs	-6024
cious	-6025
early	-6026
ecess	-6027
elect	-6028
enced	-6029
euver	-6030
going	-6031
ician	-6032
iforn	-6033
inces	-6034
indic	-6035
insur	-6036
inter	-6037
itage	-6038
kesov	-6039
lande	-6040
ocent	-6041
okest	-6042
onomy	-6043
opoly	-6044
ostic	-6045
parts	-6046
prime	-6047
print	-6048
risis	-6049
ronts	-6050
style	-6051
uding	-6052
vable	-6053
vered	-6054
▁Alas	-6055
▁Cher	-6056
▁Emer	-6057
▁Hist	-6058
▁Hung	-6059
▁Krem	-6060
▁Less	-6061
▁Maur	-6062
▁Next	-6063
▁Path	-6064
▁Poor	-6065
▁Prom	-6066
▁Prot	-6067
▁Rich	-6068
▁Stud	-6069
▁Vlad	-6070
▁Wall	-6071
▁alle	-6072
▁arch	-6073
▁bind	-6074
▁brib	-6075
▁bust	-6076
▁chem	-6077
▁code	-6078
▁cong	-6079
▁corn	-6080
▁dign	-6081
▁docu	-6082
▁drag	-6083
▁ease	-6084
▁east	-6085
▁epis	-6086
▁forg	-6087
▁fort	-6088
▁fulf	-6089
▁gave	-6090
▁gets	-6091
▁girl	-6092
▁gold	-6093
▁gras	-6094
▁grim	-6095
▁hell	-6096
▁hier	-6097
▁iron	-6098
▁irre	-6099
▁lest	-6100
▁melt	-6101
▁nine	-6102
▁rock	-6103
▁rose	-6104
▁sake	-6105
▁seas	-6106
▁shut	-6107
▁sons	-6108
▁star	-6109
▁subt	-6110
▁suit	-6111
▁symp	-6112
▁terr	-6113
▁tons	-6114
▁trib	-6115
▁uses	-6116
▁vary	-6117
▁vent	-6118
▁wars	-6119
acific	-6120
angers	-6121
arency	-6122
engine	-6123
estine	-6124
expect	-6125
gments	-6126
growth	-6127
icting	-6128
igrant	-6129
imated	-6130
iments	-6131
ioxide	-6132
isions	-6133
orious	-6134
ounded	-6135
panied	-6136
redict	-6137
usions	-6138
▁Board	-6139
▁Chair	-6140
▁Child	-6141
▁Court	-6142
▁Doing	-6143
▁Impro	-6144
▁Medic	-6145
▁Sadly	-6146
▁Water	-6147
▁Young	-6148
▁adult	-6149
▁armed	-6150
▁block	-6151
▁breat	-6152
▁cerem	-6153
▁coast	-6154
▁cycle	-6155
▁delib	-6156
▁drove	-6157
▁earth	-6158
▁embod	-6159
▁forth	-6160
▁guess	-6161
▁harsh	-6162
▁inaug	-6163
▁indif	-6164
▁intra	-6165
▁jihad	-6166
▁leads	-6167
▁logic	-6168
▁match	-6169
▁moves	-6170
▁ought	-6171
▁pride	-6172
▁print	-6173
▁quant	-6174
▁quiet	-6175
▁react	-6176
▁risen	-6177
▁risky	-6178
▁rival	-6179
▁satis	-6180
▁scand	-6181
▁secur	-6182
▁seeds	-6183
▁separ	-6184
▁signs	-6185
▁simpl	-6186
▁spill	-6187
▁tends	-6188
▁thres	-6189
▁topic	-6190
▁towns	-6191
▁uncon	-6192
▁usual	-6193
▁votes	-6194
▁waste	-6195
▁weeks	-6196
asefire	-6197
comings	-6198
enomics	-6199
erately	-6200
ifornia	-6201
igating	-6202
igation	-6203
induced	-6204
istered	-6205
largest	-6206
onomics	-6207
ouncing	-6208
perform	-6209
private	-6210
termine	-6211
theless	-6212
usively	-6213
▁Academ	-6214
▁Across	-6215
▁Almost	-6216
▁Amazon	-6217
▁August	-6218
▁Before	-6219
▁Bosnia	-6220
▁Crisis	-6221
▁Kenyan	-6222
▁Korean	-6223
▁League	-6224
▁Master	-6225
▁Swaraj	-6226
▁Unlike	-6227
▁adding	-6228
▁advert	-6229
▁advice	-6230
▁ambass	-6231
▁analog	-6232
▁applic	-6233
▁approx	-6234
▁behave	-6235
▁bigger	-6236
▁conver	-6237
▁decent	-6238
▁denied	-6239
▁deploy	-6240
▁destin	-6241
▁doctor	-6242
▁electr	-6243
▁exists	-6244
▁extend	-6245
▁fixing	-6246
▁forget	-6247
▁hidden	-6248
▁houses	-6249
▁hungry	-6250
▁incarn	-6251
▁ingred	-6252
▁inward	-6253
▁island	-6254
▁jailed	-6255
▁joined	-6256
▁latter	-6257
▁namely	-6258
▁obtain	-6259
▁oldest	-6260
▁panels	-6261
▁poison	-6262
▁poorer	-6263
▁prefer	-6264
▁racial	-6265
▁raises	-6266
▁relent	-6267
▁relief	-6268
▁resemb	-6269
▁resent	-6270
▁shocks	-6271
▁silent	-6272
▁slowed	-6273
▁spirit	-6274
▁spring	-6275
▁strict	-6276
▁symbol	-6277
▁underc	-6278
▁unreal	-6279
▁virtue	-6280
▁voices	-6281
▁waters	-6282
▁weaker	-6283
▁weight	-6284
▁writer	-6285
calating	-6286
communic	-6287
ferences	-6288
fortable	-6289
learning	-6290
national	-6291
okestack	-6292
quarters	-6293
▁Against	-6294
▁Armenia	-6295
▁Failure	-6296
▁Georgia	-6297
▁Hungary	-6298
▁Increas	-6299
▁Indians	-6300
▁Kennedy	-6301
▁Kremlin	-6302
▁Leaders	-6303
▁adverse	-6304
▁aggress	-6305
▁ancient	-6306
▁artific	-6307
▁broadly	-6308
▁careful	-6309
▁causing	-6310
▁channel	-6311
▁claimed	-6312
▁college	-6313
▁compact	-6314
▁content	-6315
▁courage	-6316
▁default	-6317
▁desired	-6318
▁details	-6319
▁disrupt	-6320
▁dissent	-6321
▁employs	-6322
▁enemies	-6323
▁engaged	-6324
▁ethical	-6325
▁harmful	-6326
▁inherit	-6327
▁lacking	-6328
▁lenders	-6329
▁melting	-6330
▁millenn	-6331
▁ongoing	-6332
▁outrage	-6333
▁partial	-6334
▁perpetr	-6335
▁planned	-6336
▁profits	-6337
▁pursuit	-6338
▁resolve	-6339
▁rightly	-6340
▁sincere	-6341
▁streets	-6342
▁strikes	-6343
▁surgery	-6344
▁teacher	-6345
▁tragedy	-6346
▁unequal	-6347
▁unusual	-6348
▁utility	-6349
▁wealthy	-6350
▁wedding	-6351
▁worried	-6352
▁written	-6353
ciliation	-6354
ederation	-6355
effective	-6356
imilation	-6357
ressional	-6358
▁Assembly	-6359
▁BERKELEY	-6360
▁Emerging	-6361
▁Hollande	-6362
▁Islamist	-6363
▁Israelis	-6364
▁Russians	-6365
▁Vladimir	-6366
▁accepted	-6367
▁activism	-6368
▁admitted	-6369
▁appeared	-6370
▁audience	-6371
▁autonomy	-6372
▁believes	-6373
▁breaking	-6374
▁concrete	-6375
▁cyclical	-6376
▁declined	-6377
▁deterior	-6378
▁disabled	-6379
▁employed	-6380
▁expendit	-6381
▁explains	-6382
▁explicit	-6383
▁finances	-6384
▁flooding	-6385
▁focusing	-6386
▁fraction	-6387
▁hegemony	-6388
▁heritage	-6389
▁imported	-6390
▁imposing	-6391
▁instance	-6392
▁intended	-6393
▁invested	-6394
▁investor	-6395
▁lowering	-6396
▁managing	-6397
▁maneuver	-6398
▁meetings	-6399
▁mobility	-6400
▁monopoly	-6401
▁observed	-6402
▁obstacle	-6403
▁occasion	-6404
▁outdated	-6405
▁pipeline	-6406
▁platform	-6407
▁preserve	-6408
▁resolved	-6409
▁restored	-6410
▁stranger	-6411
▁strongly	-6412
▁survival	-6413
▁tomorrow	-6414
▁treaties	-6415
▁underpin	-6416
▁upcoming	-6417
▁whatever	-6418
productive	-6419
▁Abenomics	-6420
▁Algerians	-6421
▁Bollywood	-6422
▁Cherkesov	-6423
▁Democracy	-6424
▁Ethiopian	-6425
▁Otherwise	-6426
▁Strategic	-6427
▁acknowled	-6428
▁affecting	-6429
▁allocated	-6430
▁attracted	-6431
▁benefited	-6432
▁campaigns	-6433
▁ceasefire	-6434
▁childhood	-6435
▁cognitive	-6436
▁component	-6437
▁confident	-6438
▁contained	-6439
▁criminals	-6440
▁describes	-6441
▁determine	-6442
▁dividends	-6443
▁emergency	-6444
▁exclusive	-6445
▁expanding	-6446
▁favorable	-6447
▁happiness	-6448
▁healthier	-6449
▁incumbent	-6450
▁injustice	-6451
▁mortgages	-6452
▁opponents	-6453
▁perceived	-6454
▁predecess	-6455
▁premature	-6456
▁processed	-6457
▁producing	-6458
▁provision	-6459
▁recovered	-6460
▁rejection	-6461
▁sectarian	-6462
▁sentiment	-6463
▁successes	-6464
▁suppliers	-6465
▁surpluses	-6466
▁taxpayers	-6467
▁threatens	-6468
▁threshold	-6469
development	-6470
▁California	-6471
▁Republican	-6472
▁accounting	-6473
▁accurately	-6474
▁achievable	-6475
▁asymmetric	-6476
▁attractive	-6477
▁beneficial	-6478
▁colleagues	-6479
▁commission	-6480
▁compensate	-6481
▁components	-6482
▁conference	-6483
▁controvers	-6484
▁creativity	-6485
▁curriculum	-6486
▁delivering	-6487
▁disruption	-6488
▁exacerbate	-6489
▁executives	-6490
▁facilities	-6491
▁foundation	-6492
▁frameworks	-6493
▁insecurity	-6494
▁organizing	-6495
▁parliament	-6496
▁positioned	-6497
▁presidents	-6498
▁processing	-6499
▁respective	-6500
▁solidarity	-6501
▁sustaining	-6502
▁undermined	-6503
withstanding	-6504
▁Governments	-6505
▁accompanied	-6506
▁affirmative	-6507
▁algorithmic	-6508
▁catastrophe	-6509
▁combination	-6510
▁commissions	-6511
▁dysfunction	-6512
▁encouraging	-6513
▁experiences	-6514
▁flexibility	-6515
▁frustration	-6516
▁ideological	-6517
▁inefficient	-6518
▁ingredients	-6519
▁intolerance	-6520
▁liabilities	-6521
▁livelihoods	-6522
▁participate	-6523
▁scholarship	-6524
▁transformed	-6525
▁vaccination	-6526
▁Constitution	-6527
▁Palestinians	-6528
▁Trumponomics	-6529
▁aggressively	-6530
▁capabilities	-6531
▁compensation	-6532
▁considerably	-6533
▁contributing	-6534
▁deleveraging	-6535
▁economically	-6536
▁expectations	-6537
▁generational	-6538
▁improvements	-6539
▁participants	-6540
▁perspectives	-6541
▁questionable	-6542
▁requirements	-6543
▁shortcomings	-6544
▁simultaneous	-6545
▁sufficiently	-6546
▁temperatures	-6547
▁transparency	-6548
▁approximately	-6549
▁circumstances	-6550
▁contributions	-6551
▁deforestation	-6552
▁indispensable	-6553
▁relationships	-6554
▁transatlantic	-6555
▁administrative	-6556
▁implementation	-6557
▁industrialized	-6558
▁reconciliation	-6559
▁fundamentalists	-6560
▁recommendations	-6561
?”	-6562
AL	-6563
Al	-6564
BA	-6565
BI	-6566
CS	-6567
Es	-6568
It	-6569
NA	-6570
RA	-6571
TO	-6572
cu	-6573
dr	-6574
ey	-6575
gs	-6576
kj	-6577
na	-6578
sl	-6579
ta	-6580
ux	-6581
zh	-6582
▁‘	-6583
%),	-6584
Gen	-6585
New	-6586
aur	-6587
bas	-6588
cla	-6589
cow	-6590
cra	-6591
dem	-6592
dig	-6593
eas	-6594
ebt	-6595
ein	-6596
eps	-6597
git	-6598
ids	-6599
igm	-6600
inh	-6601
kin	-6602
log	-6603
mar	-6604
med	-6605
mon	-6606
oks	-6607
ole	-6608
olf	-6609
oto	-6610
oul	-6611
ply	-6612
ppo	-6613
ray	-6614
rey	-6615
rib	-6616
rog	-6617
sky	-6618
str	-6619
tic	-6620
ucr	-6621
udd	-6622
ykj	-6623
▁BE	-6624
▁BR	-6625
▁Br	-6626
▁ES	-6627
▁El	-6628
▁Ir	-6629
▁Ju	-6630
▁Mc	-6631
▁Mu	-6632
▁Ol	-6633
▁Ph	-6634
▁Sm	-6635
▁Ur	-6636
ARIS	-6637
aces	-6638
aden	-6639
agen	-6640
ajan	-6641
aper	-6642
arge	-6643
aska	-6644
atts	-6645
aved	-6646
avik	-6647
body	-6648
card	-6649
cean	-6650
cost	-6651
drop	-6652
eing	-6653
epal	-6654
etic	-6655
feld	-6656
fold	-6657
fund	-6658
gent	-6659
happ	-6660
icon	-6661
iful	-6662
igen	-6663
ione	-6664
ivot	-6665
lete	-6666
mare	-6667
need	-6668
ogle	-6669
oked	-6670
omas	-6671
ooth	-6672
oret	-6673
oted	-6674
owed	-6675
prof	-6676
racy	-6677
rown	-6678
seas	-6679
stic	-6680
sych	-6681
teen	-6682
unis	-6683
▁Adv	-6684
▁Ale	-6685
▁Are	-6686
▁Ban	-6687
▁Bro	-6688
▁Clo	-6689
▁Don	-6690
▁Emp	-6691
▁Fam	-6692
▁Had	-6693
▁Inf	-6694
▁KGB	-6695
▁Kim	-6696
▁Mao	-6697
▁Mos	-6698
▁Mug	-6699
▁Out	-6700
▁Red	-6701
▁Reg	-6702
▁Rom	-6703
▁Sup	-6704
▁TAR	-6705
▁Tar	-6706
▁VAT	-6707
▁WHO	-6708
▁ast	-6709
▁bed	-6710
▁ded	-6711
▁dry	-6712
▁fal	-6713
▁glo	-6714
▁hom	-6715
▁meg	-6716
▁sem	-6717
▁syn	-6718
▁upd	-6719
▁vac	-6720
▁via	-6721
▁voc	-6722
▁yes	-6723
acing	-6724
apore	-6725
arked	-6726
bling	-6727
brate	-6728
chand	-6729
craft	-6730
ebted	-6731
emics	-6732
endas	-6733
ength	-6734
eping	-6735
ernal	-6736
erson	-6737
erved	-6738
ested	-6739
eting	-6740
fired	-6741
gered	-6742
ierce	-6743
iling	-6744
inite	-6745
istre	-6746
itect	-6747
lfare	-6748
lines	-6749
olera	-6750
oming	-6751
ophob	-6752
ordan	-6753
organ	-6754
orted	-6755
osure	-6756
otics	-6757
owned	-6758
pture	-6759
rison	-6760
stems	-6761
think	-6762
tling	-6763
uated	-6764
ummet	-6765
under	-6766
uting	-6767
which	-6768
▁Balk	-6769
▁Bern	-6770
▁Cont	-6771
▁Decl	-6772
▁Each	-6773
▁Emir	-6774
▁Face	-6775
▁Inte	-6776
▁Land	-6777
▁Mich	-6778
▁Muse	-6779
▁Nazi	-6780
▁Nebr	-6781
▁Paul	-6782
▁Peru	-6783
▁Plan	-6784
▁Poll	-6785
▁Prov	-6786
▁Sein	-6787
▁Sing	-6788
▁Test	-6789
▁acts	-6790
▁aven	-6791
▁cham	-6792
▁curb	-6793
▁dust	-6794
▁evil	-6795
▁exit	-6796
▁extr	-6797
▁fade	-6798
▁flaw	-6799
▁fost	-6800
▁halt	-6801
▁hear	-6802
▁intr	-6803
▁kept	-6804
▁kick	-6805
▁leak	-6806
▁loan	-6807
▁lobb	-6808
▁lucr	-6809
▁mood	-6810
▁murd	-6811
▁note	-6812
▁nurt	-6813
▁onto	-6814
▁park	-6815
▁pict	-6816
▁pull	-6817
▁puts	-6818
▁quot	-6819
▁shel	-6820
▁soil	-6821
▁stor	-6822
▁tail	-6823
▁trap	-6824
▁turb	-6825
▁unit	-6826
▁unle	-6827
▁unne	-6828
▁upgr	-6829
▁vice	-6830
▁wage	-6831
▁wait	-6832
▁wake	-6833
▁warm	-6834
▁wins	-6835
anders	-6836
arbons	-6837
arring	-6838
awatts	-6839
bridge	-6840
comers	-6841
driven	-6842
econom	-6843
etting	-6844
ewater	-6845
ferent	-6846
forces	-6847
ictory	-6848
ieties	-6849
ighted	-6850
ighter	-6851
imates	-6852
invest	-6853
nesses	-6854
onesia	-6855
rowley	-6856
school	-6857
tering	-6858
thirds	-6859
ureate	-6860
vation	-6861
▁Abbas	-6862
▁Assad	-6863
▁Blair	-6864
▁Congo	-6865
▁Divid	-6866
▁Einst	-6867
▁Fried	-6868
▁Front	-6869
▁Inter	-6870
▁Irish	-6871
▁James	-6872
▁Large	-6873
▁Nepal	-6874
▁PARIS	-6875
▁Reykj	-6876
▁Stand	-6877
▁Thein	-6878
▁Three	-6879
▁Treas	-6880
▁Tunis	-6881
▁Urban	-6882
▁White	-6883
▁accum	-6884
▁alien	-6885
▁annex	-6886
▁apart	-6887
▁brief	-6888
▁bulge	-6889
▁chair	-6890
▁chaos	-6891
▁check	-6892
▁chose	-6893
▁clout	-6894
▁cripp	-6895
▁depth	-6896
▁digit	-6897
▁dimin	-6898
▁distr	-6899
▁dozen	-6900
▁feels	-6901
▁fifth	-6902
▁finds	-6903
▁fired	-6904
▁giant	-6905
▁grain	-6906
▁grass	-6907
▁grave	-6908
▁grows	-6909
▁heavy	-6910
▁homes	-6911
▁honor	-6912
▁judic	-6913
▁kinds	-6914
▁lacks	-6915
▁manif	-6916
▁manip	-6917
▁marry	-6918
▁meals	-6919
▁midst	-6920
▁mired	-6921
▁motor	-6922
▁names	-6923
▁north	-6924
▁onset	-6925
▁owned	-6926
▁pione	-6927
▁rebal	-6928
▁repud	-6929
▁river	-6930
▁roads	-6931
▁sheer	-6932
▁shoes	-6933
▁swift	-6934
▁toxic	-6935
▁trees	-6936
▁trial	-6937
▁tyran	-6938
▁vague	-6939
▁veget	-6940
▁verge	-6941
▁voted	-6942
▁waves	-6943
▁weigh	-6944
▁wider	-6945
General	-6946
alities	-6947
ariably	-6948
atories	-6949
certain	-6950
embered	-6951
herence	-6952
inction	-6953
istence	-6954
istrust	-6955
lfriend	-6956
lusconi	-6957
ortions	-6958
riendly	-6959
roughts	-6960
service	-6961
society	-6962
version	-6963
▁Absent	-6964
▁Aleppo	-6965
▁Camden	-6966
▁Carter	-6967
▁Center	-6968
▁Change	-6969
▁Colomb	-6970
▁Confuc	-6971
▁Darfur	-6972
▁Decade	-6973
▁Google	-6974
▁Growth	-6975
▁Jordan	-6976
▁Moscow	-6977
▁Mugabe	-6978
▁Nearly	-6979
▁Nether	-6980
▁Prince	-6981
▁School	-6982
▁Scient	-6983
▁Should	-6984
▁Simply	-6985
▁Syrian	-6986
▁Thomas	-6987
▁abound	-6988
▁absorb	-6989
▁active	-6990
▁advent	-6991
▁assert	-6992
▁assist	-6993
▁attain	-6994
▁blamed	-6995
▁bloody	-6996
▁bridge	-6997
▁brutal	-6998
▁childb	-6999
▁counts	-7000
▁couple	-7001
▁cultiv	-7002
▁desert	-7003
▁differ	-7004
▁domain	-7005
▁dreams	-7006
▁driver	-7007
▁estate	-7008
▁excell	-7009
▁explan	-7010
▁explos	-7011
▁feared	-7012
▁fierce	-7013
▁filled	-7014
▁funded	-7015
▁hatred	-7016
▁hearts	-7017
▁heroin	-7018
▁humans	-7019
▁incite	-7020
▁inputs	-7021
▁judged	-7022
▁legisl	-7023
▁length	-7024
▁letter	-7025
▁manner	-7026
▁modest	-7027
▁notice	-7028
▁paying	-7029
▁perpet	-7030
▁philos	-7031
▁pleads	-7032
▁plural	-7033
▁prejud	-7034
▁proven	-7035
▁ratios	-7036
▁reluct	-7037
▁restra	-7038
▁retire	-7039
▁review	-7040
▁richer	-7041
▁rolled	-7042
▁safegu	-7043
▁satisf	-7044
▁saying	-7045
▁shadow	-7046
▁smooth	-7047
▁sooner	-7048
▁sports	-7049
▁stance	-7050
▁steady	-7051
▁street	-7052
▁subtle	-7053
▁tested	-7054
▁thanks	-7055
▁thinks	-7056
▁tragic	-7057
▁unrest	-7058
▁uphold	-7059
▁viable	-7060
▁vindic	-7061
▁visits	-7062
▁volume	-7063
▁whites	-7064
▁wisdom	-7065
▁wishes	-7066
arations	-7067
chandise	-7068
existent	-7069
financed	-7070
imension	-7071
lessness	-7072
oretical	-7073
oriented	-7074
▁Already	-7075
▁Defense	-7076
▁Environ	-7077
▁Francis	-7078
▁Iranian	-7079
▁Maistre	-7080
▁Network	-7081
▁Nuclear	-7082
▁Richard	-7083
▁Similar	-7084
▁Special	-7085
▁Supreme	-7086
▁accompl	-7087
▁agendas	-7088
▁answers	-7089
▁anxiety	-7090
▁arrived	-7091
▁aspects	-7092
▁assumes	-7093
▁backing	-7094
▁brother	-7095
▁capture	-7096
▁chances	-7097
▁clients	-7098
▁concept	-7099
▁consist	-7100
▁contest	-7101
▁debated	-7102
▁destiny	-7103
▁devices	-7104
▁diverse	-7105
▁doubled	-7106
▁drivers	-7107
▁educate	-7108
▁emulate	-7109
▁enables	-7110
▁ensuing	-7111
▁entered	-7112
▁exactly	-7113
▁expense	-7114
▁fallout	-7115
▁favored	-7116
▁forcing	-7117
▁forests	-7118
▁fueling	-7119
▁gaining	-7120
▁greatly	-7121
▁hegemon	-7122
▁horizon	-7123
▁hostile	-7124
▁ideolog	-7125
▁imagine	-7126
▁impover	-7127
▁inflict	-7128
▁initial	-7129
▁islands	-7130
▁keeping	-7131
▁killing	-7132
▁linking	-7133
▁logging	-7134
▁methods	-7135
▁midterm	-7136
▁mission	-7137
▁opposed	-7138
▁outlook	-7139
▁painful	-7140
▁paralle	-7141
▁passing	-7142
▁plaques	-7143
▁plummet	-7144
▁pricing	-7145
▁prolong	-7146
▁recover	-7147
▁refugee	-7148
▁refused	-7149
▁regimes	-7150
▁regular	-7151
▁removed	-7152
▁renewal	-7153
▁restaur	-7154
▁rupture	-7155
▁schemes	-7156
▁showing	-7157
▁smarter	-7158
▁suffers	-7159
▁surpass	-7160
▁tactics	-7161
▁tension	-7162
▁tightly	-7163
▁traders	-7164
▁tripled	-7165
▁version	-7166
▁warning	-7167
▁welfare	-7168
▁whoever	-7169
▁writing	-7170
icultural	-7171
istically	-7172
mentation	-7173
relations	-7174
▁Einstein	-7175
▁Facebook	-7176
▁Nebraska	-7177
▁Northern	-7178
▁Together	-7179
▁Treasury	-7180
▁agreeing	-7181
▁arrested	-7182
▁attempts	-7183
▁attitude	-7184
▁backdrop	-7185
▁boosting	-7186
▁colonial	-7187
▁confused	-7188
▁contract	-7189
▁convince	-7190
▁daughter	-7191
▁defenses	-7192
▁deployed	-7193
▁disputed	-7194
▁distance	-7195
▁distingu	-7196
▁droughts	-7197
▁exposure	-7198
▁extremes	-7199
▁features	-7200
▁frequent	-7201
▁geograph	-7202
▁hopeless	-7203
▁imprison	-7204
▁impunity	-7205
▁innocent	-7206
▁instinct	-7207
▁integral	-7208
▁interact	-7209
▁invasion	-7210
▁laureate	-7211
▁limiting	-7212
▁literary	-7213
▁meltdown	-7214
▁mistakes	-7215
▁mitigate	-7216
▁overhang	-7217
▁overhaul	-7218
▁overseas	-7219
▁persuade	-7220
▁printing	-7221
▁produces	-7222
▁rainfall	-7223
▁reaction	-7224
▁recruits	-7225
▁rejected	-7226
▁securing	-7227
▁settling	-7228
▁socially	-7229
▁soldiers	-7230
▁steadily	-7231
▁suddenly	-7232
▁supervis	-7233
▁surround	-7234
▁systemic	-7235
▁tackling	-7236
▁terrible	-7237
▁unnecess	-7238
▁volatile	-7239
ifications	-7240
itarianism	-7241
▁Cambridge	-7242
▁Companies	-7243
▁Indonesia	-7244
▁Islamists	-7245
▁Palestine	-7246
▁Represent	-7247
▁Reykjavik	-7248
▁Singapore	-7249
▁Solutions	-7250
▁alongside	-7251
▁architect	-7252
▁celebrate	-7253
▁classical	-7254
▁collapsed	-7255
▁competing	-7256
▁conscious	-7257
▁depressed	-7258
▁dictators	-7259
▁emotional	-7260
▁equitable	-7261
▁evolution	-7262
▁factories	-7263
▁frequency	-7264
▁generated	-7265
▁graduates	-7266
▁hierarchy	-7267
▁inaugural	-7268
▁initiated	-7269
▁inspiring	-7270
▁intensity	-7271
▁interpret	-7272
▁lawmakers	-7273
▁lifestyle	-7274
▁literally	-7275
▁lucrative	-7276
▁modernity	-7277
▁mortality	-7278
▁newcomers	-7279
▁nightmare	-7280
▁obviously	-7281
▁operating	-7282
▁outsiders	-7283
▁ownership	-7284
▁patriarch	-7285
▁practical	-7286
▁precedent	-7287
▁presented	-7288
▁prevented	-7289
▁proposals	-7290
▁realistic	-7291
▁recapital	-7292
▁receiving	-7293
▁reflected	-7294
▁respected	-7295
▁responses	-7296
▁routinely	-7297
▁searching	-7298
▁stabilize	-7299
▁strengths	-7300
▁substance	-7301
▁succeeded	-7302
▁unpredict	-7303
▁weakening	-7304
▁withstand	-7305
engineering	-7306
▁Berlusconi	-7307
▁Depression	-7308
▁Government	-7309
▁Ironically	-7310
▁Mastercard	-7311
▁Parliament	-7312
▁accessible	-7313
▁adequately	-7314
▁adjustment	-7315
▁apparently	-7316
▁appreciate	-7317
▁artificial	-7318
▁assumption	-7319
▁attracting	-7320
▁categories	-7321
▁complaints	-7322
▁complexity	-7323
▁constitute	-7324
▁convincing	-7325
▁diagnostic	-7326
▁discourage	-7327
▁ecological	-7328
▁encourages	-7329
▁enterprise	-7330
▁facilitate	-7331
▁functional	-7332
▁globalized	-7333
▁insurgents	-7334
▁invariably	-7335
▁meaningful	-7336
▁obligation	-7337
▁prevailing	-7338
▁profoundly	-7339
▁prosperous	-7340
▁reasonable	-7341
▁reassuring	-7342
▁reflecting	-7343
▁reinforced	-7344
▁remembered	-7345
▁renewables	-7346
▁resentment	-7347
▁resolution	-7348
▁securities	-7349
▁skepticism	-7350
▁struggling	-7351
▁subsequent	-7352
▁suggesting	-7353
▁superpower	-7354
▁supposedly	-7355
▁temptation	-7356
▁wastewater	-7357
governmental	-7358
▁Netherlands	-7359
▁accountable	-7360
▁advertising	-7361
▁approaching	-7362
▁backgrounds	-7363
▁celebrating	-7364
▁celebration	-7365
▁comparative	-7366
▁competitors	-7367
▁concentrate	-7368
▁constitutes	-7369
▁contraction	-7370
▁disciplines	-7371
▁discussions	-7372
▁enforcement	-7373
▁exceptional	-7374
▁exclusively	-7375
▁financially	-7376
▁illustrates	-7377
▁institution	-7378
▁intractable	-7379
▁involvement	-7380
▁merchandise	-7381
▁neighboring	-7382
▁problematic	-7383
▁protections	-7384
▁reinforcing	-7385
▁restricting	-7386
▁settlements	-7387
▁supervision	-7388
▁territories	-7389
▁theoretical	-7390
▁Nevertheless	-7391
▁Policymakers	-7392
▁assimilation	-7393
▁collectively	-7394
▁constructive	-7395
▁coordination	-7396
▁disabilities	-7397
▁entrepreneur	-7398
▁establishing	-7399
▁implementing	-7400
▁impoverished	-7401
▁monetization	-7402
▁perpetrators	-7403
▁stakeholders	-7404
▁breakthroughs	-7405
▁collaborative	-7406
▁confrontation	-7407
▁consolidation	-7408
▁disappointing	-7409
▁dysfunctional	-7410
▁manufacturers	-7411
▁modernization	-7412
▁revolutionary	-7413
▁traditionally	-7414
▁interconnected	-7415
▁representation	-7416
▁unconventional	-7417
▁underestimated	-7418
!”	-7419
..	-7420
AV	-7421
AW	-7422
CH	-7423
DC	-7424
IJ	-7425
IT	-7426
RC	-7427
RI	-7428
TA	-7429
WI	-7430
ek	-7431
ha	-7432
jo	-7433
no	-7434
ns	-7435
oe	-7436
pm	-7437
sm	-7438
ym	-7439
yo	-7440
zz	-7441
▁[	-7442
▁z	-7443
▁ε	-7444
%).	-7445
AGO	-7446
Alq	-7447
GBT	-7448
GET	-7449
ICT	-7450
Ivo	-7451
You	-7452
ago	-7453
ait	-7454
awi	-7455
bat	-7456
cap	-7457
cel	-7458
che	-7459
dge	-7460
eal	-7461
eff	-7462
eft	-7463
ela	-7464
eva	-7465
fol	-7466
gay	-7467
gon	-7468
hev	-7469
ias	-7470
inf	-7471
itr	-7472
kel	-7473
lim	-7474
obo	-7475
oca	-7476
oon	-7477
opp	-7478
osy	-7479
owl	-7480
oys	-7481
ple	-7482
pur	-7483
rad	-7484
rid	-7485
rum	-7486
ses	-7487
sim	-7488
sur	-7489
tle	-7490
tou	-7491
uba	-7492
vit	-7493
zed	-7494
ôte	-7495
▁Ap	-7496
▁Az	-7497
▁BP	-7498
▁Eb	-7499
▁Hy	-7500
▁Me	-7501
▁Ny	-7502
▁Op	-7503
▁Os	-7504
▁Ox	-7505
▁PR	-7506
▁gh	-7507
▁id	-7508
AGOS	-7509
AVEN	-7510
ELHI	-7511
Saud	-7512
Shia	-7513
West	-7514
aboo	-7515
acco	-7516
achu	-7517
airo	-7518
aise	-7519
aker	-7520
alem	-7521
aped	-7522
atar	-7523
bert	-7524
case	-7525
ceiv	-7526
cker	-7527
dict	-7528
ears	-7529
edge	-7530
elta	-7531
emed	-7532
emen	-7533
enry	-7534
epid	-7535
erts	-7536
fare	-7537
fire	-7538
ford	-7539
gers	-7540
heav	-7541
hery	-7542
idne	-7543
ifts	-7544
imal	-7545
imed	-7546
imid	-7547
iors	-7548
iump	-7549
kept	-7550
last	-7551
life	-7552
meas	-7553
neth	-7554
norm	-7555
okyo	-7556
oman	-7557
onym	-7558
ores	-7559
orld	-7560
osen	-7561
play	-7562
poor	-7563
port	-7564
pper	-7565
pple	-7566
quer	-7567
reet	-7568
riad	-7569
risy	-7570
rote	-7571
ship	-7572
stan	-7573
star	-7574
such	-7575
uity	-7576
ullo	-7577
umer	-7578
unte	-7579
wind	-7580
writ	-7581
yans	-7582
zens	-7583
zing	-7584
▁ACA	-7585
▁Ach	-7586
▁Aid	-7587
▁Air	-7588
▁Ann	-7589
▁Arm	-7590
▁Ben	-7591
▁Cop	-7592
▁Cor	-7593
▁Dam	-7594
▁Del	-7595
▁ENP	-7596
▁Fre	-7597
▁Gal	-7598
▁Gap	-7599
▁Gir	-7600
▁Hig	-7601
▁Hun	-7602
▁Jac	-7603
▁Law	-7604
▁Mah	-7605
▁Mer	-7606
▁Moz	-7607
▁ODA	-7608
▁PCP	-7609
▁Pot	-7610
▁Ren	-7611
▁Ret	-7612
▁San	-7613
▁Sin	-7614
▁Tig	-7615
▁WTO	-7616
▁WWI	-7617
▁arb	-7618
▁aug	-7619
▁bub	-7620
▁eye	-7621
▁fab	-7622
▁fan	-7623
▁fat	-7624
▁fed	-7625
▁fer	-7626
▁fro	-7627
▁ham	-7628
▁haz	-7629
▁hes	-7630
▁hon	-7631
▁hus	-7632
▁les	-7633
▁lie	-7634
▁lik	-7635
▁lit	-7636
▁lux	-7637
▁mil	-7638
▁mus	-7639
▁obs	-7640
▁ped	-7641
▁ppm	-7642
▁pul	-7643
▁rid	-7644
▁rig	-7645
▁sad	-7646
▁sky	-7647
▁sli	-7648
▁spl	-7649
▁tap	-7650
▁tob	-7651
▁twe	-7652
▁upt	-7653
IJING	-7654
admap	-7655
aight	-7656
aires	-7657
ander	-7658
angle	-7659
appro	-7660
ashes	-7661
awing	-7662
aysia	-7663
digit	-7664
ected	-7665
edded	-7666
eling	-7667
elong	-7668
emerg	-7669
erere	-7670
essim	-7671
field	-7672
found	-7673
green	-7674
heart	-7675
hemat	-7676
hetic	-7677
iates	-7678
icing	-7679
ilemm	-7680
inery	-7681
isive	-7682
itius	-7683
lical	-7684
oking	-7685
onies	-7686
ordon	-7687
othes	-7688
otten	-7689
ounce	-7690
ounty	-7691
ource	-7692
pered	-7693
rears	-7694
riors	-7695
roads	-7696
roots	-7697
setts	-7698
steps	-7699
uinea	-7700
ulous	-7701
urric	-7702
worth	-7703
▁Alex	-7704
▁Anti	-7705
▁Bond	-7706
▁Clin	-7707
▁Côte	-7708
▁Drug	-7709
▁Five	-7710
▁Fram	-7711
▁Gulf	-7712
▁Half	-7713
▁Hill	-7714
▁Jobs	-7715
▁LGBT	-7716
▁Left	-7717
▁Long	-7718
▁Look	-7719
▁Mali	-7720
▁Mand	-7721
▁Mass	-7722
▁Nadu	-7723
▁None	-7724
▁Norm	-7725
▁SDGs	-7726
▁Spec	-7727
▁Tony	-7728
▁Wang	-7729
▁Wolf	-7730
▁Wood	-7731
▁adul	-7732
▁ages	-7733
▁ally	-7734
▁baby	-7735
▁bail	-7736
▁biod	-7737
▁bulk	-7738
▁cart	-7739
▁caut	-7740
▁cell	-7741
▁clou	-7742
▁club	-7743
▁cope	-7744
▁crow	-7745
▁diet	-7746
▁door	-7747
▁echo	-7748
▁elev	-7749
▁elig	-7750
▁enth	-7751
▁erod	-7752
▁eval	-7753
▁fant	-7754
▁fare	-7755
▁fash	-7756
▁feas	-7757
▁film	-7758
▁fine	-7759
▁forb	-7760
▁guid	-7761
▁indu	-7762
▁keen	-7763
▁keys	-7764
▁lect	-7765
▁ment	-7766
▁migr	-7767
▁nets	-7768
▁owed	-7769
▁peak	-7770
▁pick	-7771
▁pill	-7772
▁plot	-7773
▁prud	-7774
▁pump	-7775
▁rays	-7776
▁reck	-7777
▁rift	-7778
▁sale	-7779
▁seat	-7780
▁semi	-7781
▁shed	-7782
▁spok	-7783
▁tide	-7784
▁toll	-7785
▁traw	-7786
Alqami	-7787
Ivoire	-7788
acking	-7789
affect	-7790
arious	-7791
ascade	-7792
braith	-7793
center	-7794
ckdown	-7795
embers	-7796
energy	-7797
erated	-7798
erties	-7799
everal	-7800
former	-7801
hecked	-7802
igated	-7803
ipping	-7804
irable	-7805
irming	-7806
issing	-7807
itably	-7808
licity	-7809
lights	-7810
needed	-7811
ocrisy	-7812
ptions	-7813
ronted	-7814
rophic	-7815
termed	-7816
unists	-7817
urable	-7818
urches	-7819
ushing	-7820
vement	-7821
▁Apart	-7822
▁Basel	-7823
▁Could	-7824
▁DELHI	-7825
▁Davos	-7826
▁Delta	-7827
▁Dream	-7828
▁Ebola	-7829
▁Engel	-7830
▁Force	-7831
▁Frank	-7832
▁HAVEN	-7833
▁Hamas	-7834
▁LAGOS	-7835
▁Older	-7836
▁Peace	-7837
▁Prize	-7838
▁Qaeda	-7839
▁Qatar	-7840
▁Start	-7841
▁Tamil	-7842
▁Thank	-7843
▁Tokyo	-7844
▁Where	-7845
▁Yemen	-7846
▁admit	-7847
▁agrib	-7848
▁avert	-7849
▁aware	-7850
▁blund	-7851
▁burge	-7852
▁cards	-7853
▁catch	-7854
▁cited	-7855
▁color	-7856
▁const	-7857
▁cream	-7858
▁crumb	-7859
▁deleg	-7860
▁doorm	-7861
▁eager	-7862
▁ecosy	-7863
▁elite	-7864
▁enact	-7865
▁enlar	-7866
▁essay	-7867
▁farms	-7868
▁flour	-7869
▁forge	-7870
▁frank	-7871
▁fruit	-7872
▁ghost	-7873
▁gifts	-7874
▁happy	-7875
▁heads	-7876
▁hedge	-7877
▁hikes	-7878
▁insol	-7879
▁irony	-7880
▁kidne	-7881
▁loser	-7882
▁mayor	-7883
▁miles	-7884
▁miser	-7885
▁mixed	-7886
▁	-7887
e	-7888
t	-7889
a	-7890
i	-7891
o	-7892
n	-7893
r	-7894
s	-7895
l	-7896
h	-7897
c	-7898
d	-7899
u	-7900
m	-7901
p	-7902
f	-7903
g	-7904
y	-7905
w	-7906
b	-7907
,	-7908
v	-7909
.	-7910
k	-7911
A	-7912
T	-7913
I	-7914
-	-7915
’	-7916
S	-7917
x	-7918
0	-7919
B	-7920
C	-7921
E	-7922
U	-7923
–	-7924
z	-7925
1	-7926
W	-7927
M	-7928
2	-7929
P	-7930
D	-7931
j	-7932
q	-7933
N	-7934
F	-7935
G	-7936
O	-7937
R	-7938
“	-7939
”	-7940
H	-7941
9	-7942
5	-7943
%	-7944
L	-7945
K	-7946
J	-7947
3	-7948
8	-7949
(	-7950
)	-7951
6	-7952
:	-7953
7	-7954
4	-7955
?	-7956
Y	-7957
;	-7958
$	-7959
V	-7960
'	-7961
Z	-7962
/	-7963
"	-7964
Q	-7965
&	-7966
X	-7967
‘	-7968
é	-7969
!	-7970
€	-7971
á	-7972
[	-7973
]	-7974
à	-7975
¥	-7976
ô	-7977
ε	-7978
·	-7979
É	-7980
ç	-7981
è	-7982
ê	-7983
ï	-7984
ü	-7985
#	-7986
+	-7987
£	-7988
°	-7989
ö	-7990
ă	-7991
ć	-7992
š	-7993
ș	-7994
—	-7995
